At
present
,
the
document
manual
is
used
in
transfer
assistance
of
muscular
dystrophy
patient
.
Finally
future
perspective
described
They
explained
technology
DNA
analysis
utilization
disease
relation
gene
to
medical
treatment
This
an
introduction
a
liquid
crystal
property
evaluation
apparatus
It
expected
contribute
for
establishment
plan
and
diagnosis
guideline
by
these
For
EBM
clinical
epidemiology
research
which
accuracy
high
has
been
required
The
partial
oxidation
reaction
methane
In@@
sol@@
ation
heat
single
sheet
glass
compound
was
analyzed
usage
inside
relay
treated
external
preparation
diagnosed
as
sclero@@
sing
pan@@
n@@
icul@@
itis
Case
1
female
64
years
old
And
necessary
point
through
case
viewpoint
assist
confirmed
These
factors
characteristics
prediction
are
m@@
ay@@
or
judg@@
es
propri@@
ety
acceptance
electric
power
China
India
Indonesia
Thailand
Philip@@
pine
World
B@@
ank
parameters
ed@@
ited
database
insufficient
there
exist
many
absorption
bands
stored
with
in@@
accurate
value
showed
item
composition
new
standard
To@@
day
classification
3
)
En@@
gel
widely
operation
result
fixed
Energy
amplifier
depends
upon
its
transformers
conden@@
sers
functions
P@@
AT@@
S@@
Y@@
S
were
example
support
systems
Present
state
hosp@@
ice
relaxation
care
summarized
Recent
DVD
rapidly
spreading
By
arranging
while
CT
's
history
significance
problem
ideal
way
proposed
There
no
side
effect
In
V@@
AS
improvement
accepted
person
cerebellum
stimulus
group
addition
grating
photo
ick
introduced
specification
helium
refrigeration
system
postoperative
course
observation
MRA
seems
have
already
established
Pal@@
li@@
ative
team
(
consultation
type
general
ward
noticed
suggest
nutritional
US
por@@
k
exemplif@@
ied
ent@@
re@@
pre@@
neu@@
r
network
Bo@@
st@@
on
region
promotion
mechanism
M@@
IT
outline
purpose
features
Q@@
A
CR
shown
variable
dispersion
compensation
vessel
developed
Se@@
w@@
erage
New
Technology
Pro@@
mo@@
ting
Organization
1992
paper
introduces
circum@@
stance
fiber
ap@@
pa@@
rel
industries
Vi@@
et@@
am
Comp@@
lic@@
ations
observed
several
cases
ROM
improved
main
application
posi@@
tion@@
er
process
industry
emul@@
ator
mat@@
ro@@
id
presented
un@@
just
program
arising
internet
design
characters
circuit
first
half
it
thermal
decomposition
PMMA
combined
product
this
hap@@
ten
SA
obtained
Pat@@
ter@@
n
shape
substrate
antenna
examined
increase
allergic
chemical
substance
living
environment
indicated
tra@@
ight
line
fitting
H@@
ough
transformation
Man@@
h@@
att@@
clothing
district
U.S.A.
or@@
lec@@
tran@@
th@@
ol
radical
er@@
as@@
ure
activity
mainly
two
subjects
be
studied
electron
F@@
AG
N@@
ucle@@
i
black
sphere
catalyst
producing
mixed
gas
clean
H2
from
CO2
CO
Recently
evaluated
p@@
ure@@
ly
fit
prognosis
surgery
committee
I@@
LA@@
E
AP
sc@@
oring
points
hip
joint
JIS
voluntary
third
inspection
thought
certification
75
fresh
fracture
MRI
trend
bearing
Using
concepts
growth
GaN
Al@@
including
AlN
tried
structure
oscillation
principle
laser
SM@@
ES
A@@
min@@
o
acid
HPLC
difficult
that
electrode
connected
nano
scale
wiring
As
concept
small
control
multi@@
complication
block
advantage
limit
D@@
describes
definition
Furthermore
model
hardware
softw@@
ares
ot
wa@@
p
degree
obesity
Japan
may
differed
those
West
Tren@@
d
JD
Go@@
al
world
action
ated
Dis@@
co@@
very
genes
related
life
their
function
revealed
participation
signal
transmitter
topics
researches
aging
20
pairs
contrast
reported
usefulness
answer
proposal
technique
verified
mounting
ship
noise
uses
EA
method
cell
polarity
carcinogenesis
mentioned
basic
constitution
consists
RAM
car@@
trid@@
ge
connection
cable
C@@
Co@@
MM
hand@@
les
NC
data
between
PC
outlines
equipment
protocol
Next
explains
sources
move
parts
Mo@@
v@@
ing@@
Par@@
ts
ler
As@@
sem@@
bl@@
y@@
E@@
vents
lo@@
t@@
Po@@
Ob@@
jects
methods
surveillance
shows
activities
develop
floating
container
terminal
Dr@@
ug
SMON
report
questionnaire
conducted
request
guidance
side@@
walk
collected
Shi@@
bu@@
ya
Pho@@
ograph@@
s
RNA
molecular
im@@
ic
translation
protein
factor
clarified
extraction
strength
neural
discussed
production
dependent
petroleum
most
raw
material
fossil
resources
expectation
Pl@@
long
period
development
energy
having
large
supply
potential
revision
quality
title
finally
situation
CR@@
PS
early
important
demonstration
reactor
optimum
source
using
personal
computer
results
private
capital
IP@@
P
business
R@@
ot@@
ational
temperature
spectrum
OH
band
Un@@
der@@
standing
self-@@
medication
basis
education
O@@
TC
drug
answers
107
hospitals
recognized
examination
standpoint
influenced
defense
reports
organic
EL
flexible
display
PDP
Q
15@@
001
priv@@
acy
mark
Typ@@
an@@
aph@@
ora
processing
machine
information
HE
IC@@
OM
reviewed
integration
profile
Hamil@@
ton
Scale
lowering
motor
area
quantum
deformation
Vir@@
algebra
defined
explanation
article
LAN
K@@
nowle@@
dge
oxygen
concentration
three-dimensional
image
acquisition
heart
rat
coal
ESR
probe
tr@@
ad@@
ers
who
famili@@
ar
metal
department
few
cri@@
sym@@
bi@@
osis
nature
QOL
gradually
rises
9
equal
before
crisis
at
residual
strain
must
avoided
order
shorten
electronic
module
tissue
L@@
N
enti@@
lation
COPD
patients
limits
daily
Econom@@
y
logy
response
behaviors
various
tree
species
against
soils
Though
dispersed
each
session
being
announced
papers
sensor
monitor
measuring
Space
Sh@@
ut@@
tle
experiment
SE@@
PA@@
C
combine
engine
VT
conductance
strongly
structures
semiconductor
surfaces
follow-up
detection
test
abnormality
Pseudomonas
genus
Hydro@@
gen@@
ophag@@
bacteria
Eff@@
ec@@
tiveness
simulations
experiments
applications
performance
eg@@
ree
correlation
fibrillation
cartilage
Evaluation
enligh@@
ten@@
ment
Several
unknown
determined
powder
diffraction
Results
10
beginning
guided
ref@@
rain
b@@
athing
inoculation
avoid
intense
motions
lu@@
ster
different
target
print
input
Postoperative
39
Ex@@
sion
govern@@
mental
desired
evaluate
merit
ammonia
molecules
adsorbed
zeolite
ammonium
ions
detected
IR
spectroscopy
T@@
PD
ome
hel@@
per
service
central
utilizing
Rec@@
og@@
ized
ne@@
eding
nursing
proper
accompanied
slight
pressure
pain
2
34
male
41
Sum@@
mary
symp@@
osium
night
duty
much
proportion
sle@@
ep@@
iness
langu@@
fatigue
occup@@
catalytic
kept
constant
weeks
examinations
effects
ion
bombardment
diamond
investigated
pressures
below
100
Torr
low-@@
inductively
coupled
plasma
First
s@@
mart
media
manufacturing
market
suicide
Tran@@
sition
authors
illustrated
Cont@@
ents
services
HBV
infection
destroyed
CTL
k@@
ills
trac@@
eability
security
beef
situations
problems
change
communication
infrastructure
vegetation
distribution
remote
sensing
Ca@@
f@@
ou@@
l
bre@@
ath
skin
measured
thermo@@
graphy
GaP
existence
dark
assumed
origin
acceleration
MHz
beat
wave
without
software
constructed
macro@@
scopically
dividing
into
8
districts
displayed
map
stable
decreases
higher
temperatures
positions
ionization
filament
devised
ical
efficiencies
compared
anth@@
ocyan@@
called
MA
excellent
physiological
steering
l@@
il@@
Especially
remarkable
lower
MG
Ster@@
oid
definite
ON
descri@@
tive
France
PR
rise
recent
economy
Investig@@
families
persons
another
investigation
contributes
improve
movement
international
conf@@
erences
global
environmental
engineering
project
ED@@
O
late
fixation
device
supports
inverter
air
conditioner
refrigerator
countermeasure
Methods
of@@
tw@@
comprises
programming
Ne@@
ur@@
on@@
SN@@
al@@
genome
reduction
evolution
Chro@@
mium
essential
nutrient
separ@@
adenovirus
effective
g@@
utter
repair
hour
shortened
management
Then
risk
wheelchair
use
tack@@
led
same
organization
camp@@
a@@
ign
started
national
place
Di@@
oxin
Germany
ons
TO@@
F
analyzer
Future
DS@@
I
enumerated
iti@@
ally
occurs
step
edge
interface
mentation
organism
full
color
tomo@@
graphic
all
possible
nuclei
exact
scattering
amplitudes
calculated
properties
remodeling
pixel
advanced
corpor@@
ating
language
simulator
simul@@
ates
more
tasks
parallel
Har@@
mon@@
ization
standards
advances
internation@@
walking
cr@@
ch
Inf@@
xim@@
ab
She
RA
also
carry
out
simultaneously
slope
robot
simulation
can
utilized
periods
Sup@@
pression
frequency
combustion
vibrations
rocket
Dy@@
sp@@
nea
loo@@
ks
like
to@@
wing
science
CMOS
De@@
fin@@
itions
advantages
etc.
To
successfully
approach
selected
targets
ho@@
direction
speed
working
te@@
tan@@
us
toxin
NOx
SO@@
x
The@@
ories
discharge
impact
SP
Nuclear
Pu
burning
core
diameter
acquired
aluminum
33
mic@@
r@@
SS@@
G
accumulated
Diff@@
erence
score
subject
attribute
malignant
lymphoma
genetic
will
shield
room
remo@@
ves
circumference
facilit@@
emission
size
grain
5
micron
meter
Mechan@@
ism
destruction
useful
OA
if
prevention
G@@
ene
allergy
However
difference
content
IS@@
enable
direct
telescope
focus
amount
CD
differences
depended
resist
recurrence
abdominal
whole
printing
Measurement
hydrogen
diffusion
flam@@
not
orthop@@
e@@
dic@@
simple
account
excit@@
ability
company
Gen@@
steroidal
abnormal
prion
prote@@
olytic
enzyme
secreted
soil
chief
complaint
purpura
leg
indispensable
installation
soc@@
ket
anticipated
pelvic
inclination
demand
trends
magnesium
pot
j@@
ig@@
position
relationship
administration
Tri@@
ology
tool
maintenance
Path@@
ophysi@@
AD
ery
strict
welding
Dem@@
stration
sub@@
b
rearing
AD@@
AM
EC@@
M
crushed
exposed
extrac@@
po@@
Mon@@
ol@@
ithic
ML@@
LD
summary
objective
timing
prospects
SC
bul@@
ky
W@@
ard
significantly
low
consider
optical
transmission
path
conven@@
tion
resolution
An
tim@@
role
brightness
recently
seen
North
America
primary
NP
Pr@@
acti@@
ce
exercise
therapy
statistical
JOA
31
72
Outline
chromatography
planned
construct
ography
Science
Association
available
Internet
edema
obvious
lesion
goods
800
particle
peak
count
30
45
nm
directions
some
informations
investment
relating
cost
Asian
areas
died
causes
directly
generation
efficiency
ozone
one
ultra
impedance
capacitors
hospitalization
Mg@@
Zn@@
Cd@@
Se
good
luminescence
indicates
comparison
healthy
lowered
scales
observing
mRNA
cells
real-time
Prevention
PE
KA
decided
enterprise
Ac@@
cur@@
becomes
uniform
es@@
sel
Br
poisoning
inferior
When
fuel
severe
carbon
dioxide
increases
purification
therefore
sufficient
discussion
list
largest
intr@@
usion
tongue
palate
Development
transmit
safe
comfortable
short
ature
had
intelligence
gu@@
essed
at@@
son
syndrome
combination
molding
par@@
ing
cause
lifestyle
habit
instrument
learning
scene
ause
troubles
ception
fat
dry
weight
AT
LE@@
TF
smaller
than
TO
chip
array
infec@@
tivity
HCV
presents
examples
significant
unstable
tendency
degrees
bending
AC
We@@
ax
moving
Windows
NT
they
other
field
Imp@@
lem@@
entation
visualization
needs
explored
solving
stock
103
decompose
competition
argin@@
ase
arginine
common
NOS
suppresses
NO
works
What
kind
should
recommended
behavior
food
stages
calculation
algorithm
employed
rare
find
members
family
show
positive
R
High
computation
integral
MS@@
GV@@
comm@@
ented
NA@@
battery
Cases
reconstruction
artery
processes
height
regulated
dipole
formation
clear
interfacial
phase
Coulomb
buffer
Some
criteria
resonance
crossing
charge
times
analyze
customer
felt
health
taken
actual
condition
every
psychological
opinion
time
we
U
would
har@@
ness
representative
soft
object
CC
flow
divided
prospect
CAD
rec@@
tification
video
made
reduce
accurately
understanding
reason
visual
sense
strategy
adopting
MO@@
steps
succeeded
manufacture
revised
expression
terminology
sentence
Ri@@
vel@@
refin@@
ements
neutron
structural
Various
kinds
comparing
lumbar
femur
density
ade
approximation
de@@
vant
Le@@
e
cl@@
aimed
ρ
generated
dynamically
LC
controls
supplied
heat@@
accident
measure
extracted
normal
did
afterwards
Taking
quantity
changed
titled
pretreatment
details
name
space
X@@
SI
DS
PE@@
SD@@
L
PB@@
IN@@
D
Main
vis@@
eded
types
pes
demands
replacement
excluded
writing
Con@@
cept
frame
work
danger
reception
girl
SA@@
accelerate
extension
automobile
specific
exponent
layer
lattice
reviews
IT@@
ER
physics
&
diagnos@@
tics
proteins
listed
Their
could
controlled
interruption
average
disk
pattern
produced
GaAs@@
B
photol@@
ith@@
makes
observe
magnetic
domain
H
suspected
table
GU@@
Lin@@
u@@
offered
since
students
beg@@
ners
CV
division
transcription
pursu@@
ed
level
Since
elucidation
Poly@@
vinyl
alcohol
binder
surviv@@
strong
RA@@
EB
MDS
rate
grasp
got
3@@
45@@
Therefore
CH@@
obtain
profiles
liver
decrease
virus
term
inflammation
act
attrac@@
rit@@
ual
establishing
unification
regulation
trace
following
electrolytic
dressing
ceramic
surface
wheel
formed
configuration
fast
reactors
we@@
ling
pigs
protecting
Zn
stress
proven
processor
NEC
deplo@@
yment
sed@@
kinematic
rigid
body
restoration
sequence
assumption
correspondence
facilities
Asia
limitation
complications
correspondent
anomaly
valve
fi@@
bus@@
PA
With
varying
rotating
distinct
morph@@
ologies
governed
separate
culture
arranged
file
purch@@
ased
Ro@@
Electr@@
onics
We
conclude
effectively
config@@
large-scale
switched
-@@
directional
rings
amples
thick@@
deposited
substrates
so
interference
negligible
surgical
resection
only
therapeutic
pancreatic
cancer
poor
Structure
AR
knockout
mouse
bone
revolution
them
multilayer
applied
magnetism
film
almost
enforcement
pl@@
eas@@
ant
Simultan@@
eously
social
automotive
water
Ion
obt@@
ains
thrust
accelerating
etting
electrostatic
grid
smooth
calculating
di@@
poles
arm
acous@@
tical
school
ym@@
asi@@
um
cultural
tiv@@
lecture
Web
resistance
computers
2004
attractive
contents
discovery
tuning
raising
determination
Bragg
reflections
number
states
automatically
then
tal@@
child
6
months
light
cone
Z@@
W
finite
correction
pos@@
adsor@@
appropriate
realization
HF@@
steady
piping
ium
desorption
thin
parameter
diagnostic
gi@@
sts
Construction
simply
rainfall
limited
adjusting
irregular
hom@@
do
cal@@
end@@
depression
Kum@@
amoto
cooperative
probability
real
weather
agreement
great
ud@@
d@@
ha
detail
home
blood
measurement
anx@@
ious
failure
yarn
hem@@
cloth
plant
dyes
convenient
make
pass
poin@@
tment
direc@@
tory
Ma@@
placed
Pseu@@
do@@
tax@@
i@@
phyl@@
ar@@
hy@@
ti@@
el@@
ph@@
pin@@
nat@@
resulting
orbit
iqu@@
ely
reference
specif@@
motion
pneumonia
septic@@
emia
Ch@@
ang@@
conditions
proved
task
description
execution
entire
x@@
ially
asymmetric
bodies
ast@@
ero@@
ids
complicated
elliptic
GM
go@@
Fil@@
ament
here
select
MP@@
nodes
EL@@
LO
messages
techniques
FM
wavelength
chosen
irradiation
neutralization
atmosphere
topic
Computer
Mul@@
TCP
Classi@@
fication
Ps
EEG
later
headache
latter
boundary
ZnO
vari@@
stor
HR@@
EM
National
Cer@@
gram@@
me
29
Its
solvents
compatible
stripe
smectic
inst@@
reversal
is@@
benefits
focusing
feat@@
ured
Physical
Ce@@
along
progress
imposed
increased
severity
ratio
oc@@
usal
adjustment
Changes
NO@@
VA
fer@@
ron@@
when
studying
index
modi@@
fies
TP
HO@@
CA@@
DE@@
PT@@
RO@@
Introduction
controller
put
sale
spre@@
ads
easily
memory
ring
ug@@
el
patch
TMR
estimated
current
hist@@
ogram
strato@@
absor@@
bs
ultraviolet
ray
harmful
ecology
acting
barrier
IgM
peptide
All
basin
inhabitants
be@@
costs
construction
flood
pointed
GS
achieved
total
cat
domestic
spike
tire
loss
big
Applications
introduc@@
tions
volunte@@
categories
Cal@@
culation
dose
identification
o@@
FC
Metal
electrodes
vanadium
niob@@
tant@@
alum
Chi@@
tin
cra@@
shells
On
survey
sugg@@
estion
fourth
part
filter
lactic
transition
Markov
renewal
adopted
Features
micro
Effect
operative
natural
burn
dynamic
lymph
node
metastasis
images
it@@
uge
fire
igh@@
MS
stage
door
V
car
electronics
CO@@
integrated
2000
Applying
nuclear
matter
saturation
reproduced
press
moved
incorporated
microcomputer
mainstream
electrical
conduction
oper@@
preserved
dupl@@
ication
inc@@
ide
Atomic
titanium
Re@@
abil@@
itation
complic@@
edly
minute
causal
antigens
anaphyl@@
axis
ain
tial
cement
velocity
our
DB@@
super@@
dissection
over
moder@@
7
PT
500
CN@@
added
sometimes
affected
meteorological
Selec@@
preceding
phenomena
key
erc@@
ise
dementia
nor@@
ms
impossible
reagents
ACS
reduced
nutrition
clim@@
acter@@
emphasized
DRAM
arg@@
est
selection
lubricating
PCA
popularization
Europe
Min@@
statis@@
tic
changes
sample
user
Image
view
CF
Dynamic
Natural
next
items
vaccine
provide
selecting
materials
rooms
adsorption
contamin@@
ants
silicone
wafer
reactivity
greatly
fractures
programs
road
maps
USA
EU
propose
combines
wall
auxiliary
anode
markers
removed
arrangement
belongs
PC@@
Rs
alignment
dyed
blue
examine
clock
theory
relati@@
vity
medium
differs
solid
TFT
realize
visions
architecture
packet
engines
experimental
normally
cortisol
ACTH
load
Effective
questionnaires
29@@
kit@@
His
Enter@@
obacter
aer@@
ogen@@
bacterial
Streptococcus
ag@@
ae
pus
Staphylococcus
haem@@
oly@@
tic@@
GPS
latitude
characteristic
error
continuing
nitrate
analytical
spinach
less
sleep
disorders
sea
ch@@
basically
corresponding
sea@@
weed
community
inhab@@
iting
location
bag
seemed
influence
background
new@@
Theoretical
waveform
ker
nucleic
raise
pro@@
cutting
ble@@
omycin
derivative
hear@@
syst@@
ole
diast@@
Mac@@
Wil@@
ams
identity
coding
cylindrical
coordinate
package
stack
Si@@
begin
technological
SOI
Out@@
lines
expanded
random
marker
estimation
chromosome
Pul@@
transport
discovered
well
magne@@
tized
propagation
pulses
previously
export
import
fruit
opportunity
society
leukemia
Agricul@@
ture
ul@@
aria
Phase
imaging
molybdenum
tube
decompo@@
ses
cast
iron
ID
grinding
tools
Here
J@@
under
FA@@
X
means
traffic
Japanese
manufacturers
'
advance
cooperation
existing
published
literature
attached
effectiveness
bulk
approval
recycling
LCD
panel
fluorescent
patterning
Res@@
ection
resource
given
solution
matching
amp@@
notch
60
variations
received
pilot
signals
fading
per@@
col@@
Helicobacter
pylori
gastric
base
human
ends
search
progressing
originally
Ju@@
mig@@
Moreover
chaos
PWM
RF
biased
up
150
indicate
scaling
magnetization
about
gover@@
languages
gelatin
appeared
Doppler
care@@
tivation
economic
solved
rotation
ocation
Prot@@
consistent
framework
based
ra@@
fer
patent
named
ICE
ES@@
come
CFD
objects
herni@@
HCC
32
51
enforced
May
sa@@
w
Adv@@
ant@@
ages
alloy
considered
dependency
Tl
MC
atoms
defects
site
XRD
RR
overseas
enterprises
conspicuous
replace
si@@
rable
population
sex
age
Ep@@
id@@
phy@@
floc@@
sum
separated
Manu@@
fac@@
IF
dat@@
therap@@
eu@@
targeted
fever
according
ick@@
for@@
classi@@
c@@
electropositive
Surgical
Also
outlined
carried
inter@@
viewing
HIV
intervention
Fr@@
anc@@
co
residence
collect
constructing
green
tea
drinking
handle
bubble
theme
setting
FT@@
migration
internal
branches
compression
fundamental
electricity
defect
densities
restric@@
thickness
ow@@
insertion
chemotherapy
fashion
2002
earlier
year
month
interval
emp@@
ty
induced
ships
ST@@
AI
anxiety
hardly
degeneration
onite
contact
concrete
Among
Gol@@
lan@@
ia
tur@@
gens
acro@@
amn@@
lep@@
men@@
io@@
ides
addi@@
ss
flora
hand
bigger
often
tor@@
typho@@
Relationship
holograph@@
art
acute
fill
gap
HT@@
PH@@
steroid
pulse
performed
Str@@
ong
photon
periodic
vibration
electrons
searching
products
cluster
SS
job
class
week
prepared
operators
know@@
mission
form
animal
completed
positron
spectra
generating
high-density
MV
sign
said
dioxin
General
physical
toxicity
price
explain@@
patterns
em@@
ulation
era
came
authen@@
tication
Many
technologies
bridging
reactions
extend
Θ
include
Wa@@
ength
selective
switching
multiplex@@
structured
waveguide
rig@@
inal
knee
prosthesis
Authors
retrieval
cDNA
mapping
near
SP@@
tip
moment
technical
alternating
arc
wel@@
der
adver@@
tis@@
ement
abounding
extrusion
hernia
CCD
/
g
executed
bar
starting
del@@
m
eno@@
ir
gasoline
oil
leg@@
chain
fatty
metabolism
mitochondria
MOX
clearly
den@@
reve@@
cellul@@
biomass
component
degradation
There@@
after
slowly
Mil@@
gram
Afterwards
AlGaAs
GaAs
selectively
grown
MBE
range
appearance
hemangioma
series
illing
HA
sterilization
extra@@
voltage
adoption
DI
decreased
increasing
verification
synthesis
record
One
cylinder
drive
Rep@@
articular
promoted
self
portable
surrounded
breast
mutation
inserted
leuc@@
ine
glut@@
amine
25@@
peptides
ME@@
NI@@
mechanisms
ther@@
mist@@
partition
depending
ways
estimate
sites
mass
outbreak
facility
surveys
friction
sti@@
tank
prescription
powerful
until
cor@@
us@@
cle
recovered
HC@@
silica
alumina
procedure
assessment
entropy
study
seg@@
independently
alization
minimum
en
similar
Can@@
adi@@
bo@@
forest
aims
infrared
MEMS
constraints
limitations
protection
actuator
supposed
α
assigned
representations
chromium
spray
coating
proliferation
host
associated
sensitivity
induction
hypo@@
dermic
drain
det@@
ainment
wound
healing
extracting
interesting
surroun@@
ds
studies
crystals
regions
hard
JA@@
flexibility
Fuel
leakage
inj@@
ector
paired
roughness
grooves
Simp@@
le
hazard
68
inducing
differentiation
retinal
sufficiently
yet
building
land@@
flat
slab
ground
CVD
Signific@@
ance
lipase
elast@@
pancreatitis
neutral
now
motor@@
cycles
occur
feature
independent
dimension
appropriately
eigenvalue
stric@@
ter
op@@
such
beam
gun
Equ@@
ip@@
en@@
str@@
uation
analyzes
peculiar
game
found
output
depend
experienced
phenomenon
UV
mask
reservation
ked
rest@@
aur@@
Ni@@
prec@@
Calcul@@
covered
land
ob@@
acco
cultivation
around
Al
cas@@
tings
reducing
survived
rotational
went
downstream
where
FEM
decide
Rel@@
se@@
fl@@
h
gastritis
illustr@@
ill@@
ence
qui@@
red
immunity
targeting
biliary
line@@
transduction
IF@@
TC@@
AN@@
K
shoul@@
dered
immune
activation
identified
cleaning
suggested
compact
galax@@
instances
Soc@@
Radi@@
ological
examining
mantle
start
plate
duction
atomic
tri@@
salt
but
chlorophyll
Pacific
Ocean
apatite
mer@@
capacities
polyester
Centr@@
if@@
always
detailed
appen@@
ded
chart
Hon@@
da
Super
Cu@@
19@@
58
om
50
cc
cycle
occurred
equivalent
mes@@
dynamics
contained
σ
durability
metallic
74
No
oscillations
existed
vicinity
cathode
contour
distributions
Tokyo
Osaka
still
sec@@
ular
PCB
SE
high-speed
phot@@
ographic
Prob@@
lem
THA
lumb@@
ago
wide
expressions
genital
organs
radiation
mammary
qu@@
tation
Disease
11
included
WS
analog
digital
any
Optical
dots
spatial
end
lives
bed
play
designer
dition
indoor
require
automation
practical
training
ic@@
ry
groups
translational
coexistence
waves
U@@
ful
atypical
epithel@@
driven
two-dimensional
sl@@
ider
guide
Because
beha@@
aggregate
flows
achieve
through@@
puts
bps
government
depressed
losing
experience
neuro@@
satisfaction
explain
containing
graphics
Techn@@
attempt
assess
keep
became
easiness
Cor@@
od
ain@@
le@@
ve
equations
J
il
demonstrating
degre@@
asing
additional
ane
bot@@
tl@@
eck
Diagnosis
23
wards
CS@@
reading
closed
he@@
aving
Firstly
review
cornea
others
factory
university
disappeared
post@@
Regarding
OR
SNP
ex@@
fundam@@
als
public
disaster
planning
14
azimu@@
th
hen
aureus
26
respond
provides
communications
access
-to-@@
SL
pollution
latest
ste@@
pper
ensi@@
proton
searched
scanner
rapid
proto@@
typing
hemoglobin
little
delay
mode
detects
twist
displacement
cantilever
concerning
au@@
tism
shielding
Sapporo
Kagoshima
insulation
expressed
three
dimensions
SD
card
ck@@
et
Blu@@
tooth
CAP
judged
TR
even
LP
belonging
No@@
GI
saliva
IB@@
1980
turning
tracking
vision
width
depth
groove
molded
iso@@
serum
urinary
components
ppm
describe
radio@@
Ir@@
DA
Ho@@
me@@
SC@@
semin@@
assignment
web
mail
adrenal
gland
diseases
4
57
59
65
larger
spin
wafers
fermentation
amylase
negative
trans@@
nitride
moisture
modulated
MOS
capacitor
gate
tivities
woman
disturbance
electrocardiogram
sarcoidosis
firstly
countermeasures
sputtering
etching
concerned
ying
kidney
yo@@
fibroblast
matrix
protective
collagen
agg@@
author
fact
best
Ph@@
volume
left
cerebellar
hemisphere
viewed
knowledge
imp@@
inging
onto
sheath
driving
mediated
calcium
intake
1999
epidermis
equipments
implemented
requires
foam
ejection
volcanic
smoke
radius
ater
center
app@@
ventricular
muscle
channel
adren@@
aline
gluc@@
agon
ST
remarkably
antibody
respectively
throughout
past
seasons
sodium
chloride
season
together
shortening
sharing
roles
adaptation
try
learn
tionary
asymptotic
algorithms
derived
diode
excitation
Import@@
every@@
earthquake
AA
satellite
classified
Del@@
unnecessary
similarity
ribo@@
exists
prototype
So@@
Dec@@
rence
Materials
membrane
making
stain
finger@@
Environment
tax
April
establish
separately
instruments
alpha
nucleus
retention
ural
stem
transplantation
spinal
cord
injury
Operation
appendicitis
exploration
mobile
robots
scientific
relative
values
mathem@@
atics
rol@@
question
vo@@
te
starts
Ns
ach@@
ate
OK@@
MU@@
challeng@@
office
fur@@
nit@@
ures
former
incorporating
PHS
reg@@
ards
kinetics
convection
spherical
shell
ESC@@
PF@@
LB
layers
hysteresis
exec@@
utes
LM
Syst@@
unique
quickly
deteriorated
rather
mountain
bing
Bar@@
ton@@
ella
ophthalm@@
optic
nerve
angle
glasses
transparent
wavelengths
ranging
300
1000
12
men
38
women
preliminary
InGaAs
dot
suppress
variation
ack@@
trunc@@
ram
influenza
ved
deviation
CW
conduc@@
interfaces
STM
equation
aying
attention
adjuvant
therapies
crossover
remaining
operating
nondestructive
mp@@
indexes
1989
low@@
lif@@
hemat@@
sis
maintain
memor@@
ies
route
coral
ef
annual
samples
25
70
act@@
reli@@
ab@@
ile
avail@@
constraint
expansion
open
took
consideration
Sub@@
illustrate
travel@@
considering
lighting
the@@
Fl@@
automatic
semantic
requirements
measles
known
corrosion
rust
compo@@
crushing
-
distillation
demanded
utilize
sludge
dam
ver@@
thel@@
ess
paren@@
tal
females
males
ayed
progen@@
larvae
finished
feeding
trial
menopause
Diagno@@
stic
SL@@
CD@@
Ste@@
ven@@
American
fresh@@
second
running
km
sph@@
orus
metabol@@
isms
PET
ake
uniaxial
flow@@
ow
fair
eti@@
Law
interpretation
silicon
IG@@
BT
PR@@
IL
SLE
previous
Com@@
mon
MA@@
Ds
habit@@
participated
ue
safety
Serum
IgE
omp@@
adding
staining
NMR
steel
tower
exceeds
outside
front
hyper@@
word
flu@@
ent
rear
WWW
accumul@@
gravitational
gradient
underground
laboratory
absolute
NK@@
T
hepatitis
Both
am@@
sun@@
oth
exhibition
Compared
conversion
drastically
propulsion
during
satisfactory
questions
History
biological
childhood
coupling
inversion
PP
Networ@@
arrangements
harb@@
ors
asal
balance
Prog@@
no@@
Ap@@
ADL
nickel
over@@
wh@@
cobalt
mercury
follow
realizing
imaginary
train
solve
server
An@@
terminals
dairy
how@@
restriction
mise
oric
reduces
supported
br@@
sweat
ars
initial
northern
Okinawa
Island
PI
concerns
DB
Y
users
PCs
caught
collective
magneto@@
At@@
tention
fragment
operational
white
universities
2001
neuron
reinforcement
personnel
morning
ev@@
ening
element
insect
coc@@
ach
allergen
rhinitis
follows
acar@@
Taiwan
hospital
erous
silver
Func@@
modeling
ordinary
installing
surge
prot@@
connecting
fluctuation
appears
fabrics
kn@@
lithium
decreasing
modification
theast
railway
Each
completion
out@@
look
rose
oxidi@@
c
solidification
Her
ca@@
FA
Experiments
verify
resonances
lesions
links
freedom
realized
offers
Ag@@
cataract
Concerning
GHz
ines
ong@@
Pap@@
Gu@@
inea
Braz@@
oli@@
via
cu@@
Col@@
om@@
bia
ay
Per@@
u
Yok@@
su@@
ka
City
Kanagawa
Prefecture
TV
episodes
exceeding
macroscopic
theoretical
carrier
fel@@
tles
Ko@@
chi
prefectural
ISO
within
platform
chips
nasal
cavity
ventilation
NH@@
hemorrhage
650
ml
repeated
wireless
generates
simulated
ATM
IP
packets
continue
CAM
extensively
brain
loosen@@
occured
res@@
ble
Hem@@
orrh@@
900
nemato@@
de
Be@@
Te
InP
VD
dialysis
bad
ist
camera
monitoring
usual
spec@@
Basic
exchange
opinions
citizens
valuable
developing
NTT
Group
themes
trache@@
ostomy
respiratory
wind
complex
meet
vacc@@
bases
10@@
9@@
56
correspon@@
ences
phonon
cer@@
tain@@
specifications
LSI
cure
decision
right
consensus
dependence
reproduc@@
spontaneous
ess@@
PI@@
AFS
link
channels
etiology
antigen
Tric@@
hi@@
muco@@
Model
Kit@@
ak@@
ushu
views
insulin
medicine
jo@@
urnal
peculi@@
arity
surfac@@
both
sides
grow
association
goes
comments
shapes
valves
July
tice
began
requ@@
esting
ey
expenditure
suspension
wa
progressive
enabled
AL@@
IS
inher@@
impurity
due
mixing
18@@
55
20@@
municipalities
Salmonella
tenn@@
see
aste
vegetables
four
climate
AS@@
smoking
hypertension
molten
worldwide
pow@@
milk
reflection
numerical
call
Tel@@
t
hearing
disorder
regarded
If
flux
precipitation
evaporation
TR@@
match
ft
sarcoma
47
strengthening
competitive
trade
sto@@
policy
RS
accumulate
library
bloody
excre@@
favorable
66
researchers
she
complained
6@@
82
mechanical
seal
centrifugal
rotary
pumps
Institute
Pe@@
tro@@
leum
1994
offer
contract
ession
1996
98
packaging
AR@@
combining
SF@@
autonomous
decentralized
domains
improving
yield
uchi
vation
modeled
collecting
feedback
repeating
coefficient
Sr@@
ank@@
ok
stand
chapter
inner
femtosecond
Car@@
til@@
rabbits
client
converted
suitable
class@@
Sa@@
itama
discussions
β
blocker
Reduction
SOD
ult
loops
secure
resorption
comparatively
progresses
cerebral
apoplexy
rehabilitation
consisting
movable
NA
resulted
weakness
nucle@@
agents
catalysts
polymerization
cep@@
DF
subsi@@
ary
June
110
MW
105
ha@@
ist@@
ri@@
ara
IC
embedded
adults
vein
echo
1990
coll@@
apsed
L-@@
underlying
idiopathic
pulmonary
fibrosis
implantation
othermic
controllable
micro@@
composed
devices
recognition
spective
enables
virtual
fluorescence
intensity
extinction
dB
DL
ging
interactive
excised
esophagus
bat@@
ches
efficient
recovery
GA
autonom@@
suppressed
death
clarifies
AI@@
unc@@
widths
tunnel
magnetoresistance
tual
root
CP@@
ics
Sho@@
ley
Br@@
attain
transistor
express
dec@@
ub@@
itus
28
presence
ash
carbon@@
fir@@
mation
evidence
instead
Cir@@
realizes
tu@@
itive
necessity
excretion
ols
hours
AV
vector
AV@@
manifested
secretory
thing
paddy
rice
dro@@
manufacturer
independence
caud@@
lobe
reconstructed
40
From
above
regeneration
hind
down
axon
DN@@
adult
AIDS
changing
atmospheric
stability
what
Emp@@
traction
head
margin
AFM
phosphate
opioid
units
con@@
forming
extreme
practice
pollen
because
caused
Th
IV@@
DC
spread
book
markets
radio
"
Experiment
gases
quick
fibrill@@
photographs
affect
overcome
wast@@
EMI
EMS
CH
imum
cop@@
dom
ide-@@
seis@@
graph
records
South
might
consciousness
triangular
modulation
Swe@@
den
1995
21
set
goal
routing
done
hyperfine
RE
steam
compressed
diesel
AC@@
CP
fields
guidelines
Canada
na
LD@@
ase@@
dow
immun@@
actions
suppressing
starch
foods
apply
ceramics
heat-@@
resistant
humidity
MP
dispens@@
73
But
stop@@
winter
Further
volatile
circulation
Win@@
aero@@
scattered
character
string
Average
35
HP@@
Design
Main@@
shift
RF@@
arise
cros@@
stalk
proofing
mag@@
azine
special
issue
articles
foundation
Util@@
agricultural
DM
encephalopathy
removing
governing
slag
foaming
Digital
Spectro@@
scopic
ellipso@@
metry
evaluating
Fu@@
zz@@
involved
subjective
Analysis
Th@@
ai
centering
ory
lipid
illness
CT@@
microbial
textile
clothes
tile
represented
modified
Young
modulus
750
℃
shorter
Ad@@
Dro@@
WDM
cellular
GFP
gas@@
aw@@
sum@@
pure
recorded
topography
Chiba
University
Hitachi
circumstances
tests
yields
derivation
decay
cue
queu@@
law
back@@
wavelet
evol@@
ving
fluctuations
idation
inclusion
registration
differentiate
intestinal
ame@@
bic
dy@@
sen@@
diagnose
teach@@
duration
16
mice
aff@@
ian
neurologic
rat@@
ets
extended
mechanics
Det@@
microorganism
infectious
syn@@
ergy
coil
elements
ust
reproduction
original
ethics
refl@@
exi@@
member
hood
zyme
crack
joining
latency
MM@@
Pres@@
sugar
newly
Quality
piece
dislocation
13
MD
candidate
primer
designed
Actual
brings
enhancement
serine
protease
quartz
SiC
PS@@
thyroid
lung
omb
explosion
meaning
country
force
heating
exposure
600
700
breeding
macrophage
conductivity
bio@@
consumption
fuels
efficiently
loads
fluctu@@
specimens
pap@@
re
thes
enhanced
Cr@@
intermediate
Within
Kyoto
fem@@
77
superior
stand@@
alone
Princ@@
ple
HP
storage
parallel@@
Typical
deep@@
special@@
clinic
diabetes
mellitus
distortion
grows
relates
requested
experimentally
propagating
Ki@@
easy
perform
displays
rules
Research
quark
Whe@@
ther
PV
hybrid
MF
Educ@@
staffs
Type
chest
Hel@@
fermion
code
particles
cyclotron
matrices
loading
affects
letter
char@@
vacuum
dis@@
spermatozo@@
EST
calculus
Examples
absorp@@
metabolic
assimil@@
nitrogen
Patient
complaints
Frequency
oral
elderly
ER@@
arises
retina
stimulated
dysfunction
considerably
spot
400
dor
station
innovation
gave
rou@@
financial
networks
ban@@
urities
companies
contrary
rotated
plane
vely
thres@@
holds
possessed
activate
plastic
meat
European
attempted
equilibrium
Si
vic@@
individual
inverse
filters
he
lear@@
nes
outputs
desirable
trigger
rac@@
Ca
48
umbilical
Information
hypotensive
expan@@
LNG
promising
catch
vascularization
rich
models
telephone
contracted
clarify
pile
os@@
ous
progressed
ders
preced@@
inv@@
ention
indirect
fring@@
demonstrated
Pa@@
photo@@
PD@@
days
simulate
cogeneration
buildings
vital
farming
but@@
def@@
plants
animals
people
peri@@
ligh@@
tness
Cryp@@
spor@@
idi@@
aro@@
rhythm
arranges
bridge
designs
approaches
hydrochloride
disturbances
applying
receiving
further
damaged
master
Field
transmitted
aspect
solar
agriculture
1998
requests
chel@@
hormone
skeletal
Through
synchronized
regardless
onom@@
Obser@@
atory
mean
corresponded
dissolution
alkaline
post-@@
profit
sound
ases
surrounding
IM@@
Ze@@
15
knees
includes
functioning
board
entry
generate
anomalous
22
multiple
music
tested
add
elimination
phosphorus
parasi@@
heter@@
oth@@
rium
spring
elevated
summer
length
varies
Dynam@@
pump
turbulent
ー
ε
in-@@
Proc@@
entered
grew
respect
Ga@@
QW
symmetric
colloidal
International
chan@@
chi@@
pairing
perforation
ymp@@
102
ears
rank
say
predominant
tional
facturing
var@@
ish
acuity
linear
algebraic
cut@@
turned
rectangular
my@@
loid
fr@@
providing
harmon@@
placing
voice
ran@@
bus
nearly
zero
October
Air
Flow
invasion
window
He@@
omorphic
melan@@
ocytes
upper
search@@
5@@
52
tin@@
pic@@
king
form@@
naturally
detect
jaw
Mater@@
ial
nutri@@
tious
Mus@@
cross-sectional
especially
environments
PH
sw@@
28@@
developmental
intention
absorbed
IA
dwelling
house
fundus
Cs@@
NaCl
deterioration
78
unified
oxidant
strengthened
correlated
molecule
yeast
ances
eigen@@
Positive
seed
pig
197@@
coherent
rough
ir@@
ich@@
let
um@@
ann
repeti@@
SAW
After
summar@@
izing
historical
atom
illustrates
eli@@
projects
90
able
execute
mesh
border
taking
dri@@
events
pun@@
cher
assembly
last
curricul@@
Different
determine
ranges
losses
ision
renal
pathology
standardization
IgA
nephropathy
Escherichia
coli
built-@@
ail
man@@
Ministry
Transport
RT
ur
passive
active
rates
resembl@@
conducting
face
tell@@
glutamic
reverse
junction
interpre@@
RP
free@@
manipulation
Abdominal
sure
how
hierarchical
real@@
izable
consol@@
idated
tone
ill
oun@@
loaded
Akita
sonic
deformed
Survey
HS
0@@
noxious
high-@@
grade
DE
etc
..
maxim@@
separation
ize
heavy
quar@@
onium
discuss
sco@@
pay
interest
why
AF
Miy@@
azaki
stabilized
levitation
doping
ep
venous
thrombosis
MR@@
My@@
ad
cracks
explaining
regarding
Cy@@
ber
!
meeting
confirmation
cover
ei@@
bu
dome
corrected
television
photographing
feed
back
referring
electro@@
pneumatic
my
Sing@@
ore
box
LA
sight
Coun@@
measures
needed
Patients
obstruction
yellow
functional
uk@@
ram@@
courses
cross
shortest
LED
Five
fixing
race
begins
disappearance
segmentation
discrimination
SW
II
small@@
.@@
C.
fe@@
ared
fatal
Te@@
flon
penetration
exit
conver@@
renew@@
countries
utilizes
transpor@@
forms
lique@@
fied
methanol
constants
branch
TA@@
tape
wire
bonding
join@@
non@@
possibility
GA@@
chicken
extract
blu@@
berry
maximum
impulse
18
seconds
Bi
Fe
Cr
cre@@
ators
vi@@
disinfection
CF@@
infected
son@@
titer
vance
indication
eye
trajectory
MT@@
hib@@
Den@@
ac
estimates
children
Ur@@
gent
intractable
Wak@@
ayama
ferromagnetic
junctions
scheduling
orifice
however
effort
continued
accompl@@
ishing
by@@
Swit@@
ching
cytochrome
rupture
continu@@
secondary
deep
softening
melting
ioid
arithmetic
aqueous
dissolved
immediate
eggs
wheat
stag@@
comes
etal
muscles
considerable
compar@@
ably
sensors
produc@@
ted
pot@@
sh@@
interactions
perfect
gasification
fusion
Corporation
clu@@
ding
oste@@
osarcoma
arium
yclic
promotes
Malay@@
sia
optimizing
eling
ethanol
vil
GPa
cameras
entr@@
usted
Trade
Industry
φ
returned
bias
electromagnetic
quantities
pavement
cavitation
fly
gro@@
pe
RE@@
consul@@
tant
unit
rely
porous
burner
slip
boundaries
exhaust
de-@@
off
spectral
upstream
Es
accumulation
altitude
pp@@
ear@@
CAE
diverse
stereoscopic
engineer
compares
visiting
undertaken
doctors
ac@@
disturb@@
persistent
bacterium
compositions
agent
printer
homogeneous
elastic
aster@@
ak
ologic
coming
endothelial
cholesterol
Hospital
matters
square
counseling
drugs
prepare
Adap@@
interferon
HB@@
injection
continues
XML
Effects
analog@@
wat@@
ched
bun@@
oka
az@@
repor@@
emb@@
yo
Generally
fungus
cough
shifts
masses
Ge
mole
fraction
economical
ge@@
dul@@
1997
does
dex@@
da@@
ughter
donor
dielectric
tension
sed
res
ren@@
hatching
neither
survival
nor
Temperature
respiration
stenosis
ox@@
seasonal
crucial
reproductive
success
temp@@
erate
Physi@@
auth@@
orization
According
although
Southern
emis@@
ere
Her@@
Test
ISH
paraffin
specimen
coping
pup@@
numbers
emo@@
stimulation
Characteristics
chang@@
eable
pendulum
pping
covering
cedar
MRSA
catheter
van@@
com@@
ycin
United
Kingdom
prevalence
city
pH@@
burst
intermit@@
tence
free
stream@@
minutes
protocols
ativity
industrial
lead@@
understand
create
introduce
circulatory
Combin@@
damage
jet
define
legal
static
collector
installed
roof
19
Remo@@
foreign
precisely
ematic
errors
daytime
downward
iferous
forests
sapphire
YAG
eutectic
heigh@@
tens
necrosis
Fo@@
asting
gence
signs
insufficiency
GB
autoimmune
contain
cell@@
tun@@
Ar
program@@
ire
fringe
athem@@
atic@@
rent
vap@@
ocean
alarm
approximated
paramagnetic
re-@@
earth
Based
formulas
circuits
St@@
athi@@
36
did@@
hor@@
idae
Sy@@
opsi@@
collection
screening
preoperative
carcinoma
76
English
teaching
epithelium
anodic
oxidized
susceptibility
cold
cracking
capability
urine
compost
200
propos@@
Jo@@
int
Conference
ung
her
foot
slice
irregul@@
her@@
din@@
farm
HE@@
except
routine
September
DL@@
stimulating
ensuring
employment
creation
identify
IST
dyeing
cloud
resol@@
servo
uterus
reforming
ples
treatments
ster@@
ility
Dev@@
plo@@
tting
electrolytes
imported
contaminated
reproduce
dichro@@
precise
avig@@
ion@@
hydrochloric
digestive
mis@@
so@@
uce
on-line
reser@@
seat
sun
turns
Qu@@
estions
consist
regional
limb
epitaxial
reh@@
ouse
invent@@
solvent
switch
p-@@
to-@@
date
synthesizing
compounds
benzene
oxidizing
adap@@
tively
radiotherapy
retarded
wor@@
laws
accompan@@
difficulty
ught
predictions
sent
ori@@
ties
prov@@
Pol@@
Wor@@
shop
February
NET
sor@@
tium
cooking
pen@@
relevant
fil@@
tered
beams
horizontal
interferometer
2003
swe@@
CM
46
27
Improvement
GIS
che@@
ap
hypothesis
OS
BS
fractions
varied
loop
up@@
local
PN
priority
ascites
differ
isolated
continuous
films
locations
creep
characterized
ful@@
filled
radioactivity
release
floor
tain
chlorine
recl@@
sewage
Pathological
routes
abnormalities
mother
skeleton
iodine
raised
proposes
scheme
axially
Investigation
fertilization
rot
scheduled
Fermi
ff@@
vol@@
ition
alytic
deuterium
charging
ju@@
stment
freezing
preservation
CY@@
die
:
Electron
reform
1978
reliability
CRT
CS
theories
treat
ey@@
net
post
conjugate
mirror
become
survi@@
Purpose
cin@@
carcin@@
ogenic
oning
accidents
sulfide
tox@@
ici@@
ell@@
agr@@
share
infer@@
ority
hat@@
personality
motive
24@@
keV
version
coefficients
EC
157
stocks
17
TU@@
occupied
inclined
MAP
diaphragm
avi@@
Lo@@
HD
Problems
disp@@
ute
invol@@
vements
etics
PO
ales
peripheral
AlAs
acts
nano@@
pulsed
synthesize
BN
growing
Inter@@
nal
ber@@
screw
rheumatism
dding
selectivity
SEM
calculations
slide
fault
presumed
cars
71
potassium
stop
trench
emitter
n-@@
short-@@
capacity
part@@
ner
lifetime
least
coat
picture
BP
SPECT
regulations
greenhouse
actually
housing
assurance
top
crane
conve@@
band@@
ulmonary
tuberculosis
and@@
angina
pectoris
ischemia
stri@@
shifted
toxic
cular
trauma
failures
lens
deci@@
sively
advantageous
computational
KE@@
ity
guarantee
submicron
cyst@@
oma
secretion
serious
super
Gaussian
perpendicular
SAR
transform
carries
acqui@@
43
frames
wild
mping
complete
met@@
suture
frontal
79
cad@@
ver
clad
printed
circadian
infusion
nervous
CA
focal
ITO
showing
extent
rule
gallbladder
today
stacking
yt@@
Tokai
solidified
begun
stratum
chemistry
astern
Kanto
incidence
trials
myocardial
idea
Pri@@
vate
Fin@@
gr@@
ps
sev@@
cord@@
Accord@@
HLA
superiority
GF@@
fibrin@@
ogen
finger
freely
mitted
TS
moves
7-year-old
ution
estimating
plex@@
HM@@
fo@@
eth@@
equ@@
locking
convergence
AB@@
examines
controllability
Mg
dopant
boun@@
bath
Process
alk@@
manage
investigations
esophageal
student
Early
frag@@
attenuation
interaction
groundwater
HR
enter@@
aim@@
mind
stic@@
iv@@
ili@@
tors
abstr@@
pemphig@@
enhance
sorption
gaseous
constituent
viewpoints
Performance
clean@@
ineffective
ech@@
putting
whether
disc
analyzing
multi-@@
scalar
apoptosis
tilt
proportional
curve
mable
Fe@@
bit
ass@@
enger
ternary
concentr@@
scan@@
ned
osc@@
illo@@
scope
Special
paid
exten@@
sions
hal@@
expen@@
se
burden
sustainable
vill@@
administr@@
methyl@@
prednisolone
whose
lymphocyte
sulfur
auto
lor@@
viscosity
precipitated
bottom
ings
waste
Blood
artificial
diversified
acu@@
refining
indium
gallium
metals
buc@@
work@@
sheets
Ni
urea
inactive
serial
ECR
Tak@@
asaki
oration
pollinosis
erec@@
minerals
immunological
cattle
Cu
nonlinear
regression
PRL
linearity
4@@
24
Flu@@
abundant
applies
formula
summarizes
deterior@@
ens
birth
bronchial
asthma
tends
stay
lowers
DP
ser
Molecular
pipe
Monte
Carlo
MT
rever@@
sely
either
MD@@
EX@@
go
malign@@
determining
lock
dex
88
investigating
specialist
archit@@
ect
X-ray
Raman
measurements
deriv@@
Pt@@
Ox
accelerated
citizen
cle@@
insulator
iner@@
briefly
rib@@
bon
adjust
av@@
PG@@
thus
nec@@
differential
14@@
rivers
rep@@
inephrine
opposite
tended
highly
rated
inoculated
Mat@@
oxidative
polyp@@
yr@@
clusters
Na@@
H-@@
turn
suppression
ru@@
thenium
discharges
singularity
less@@
evaluates
trap
astic
rocks
runs
abundance
dr@@
markedly
driver
regulating
passes
plac@@
enta
affinity
Long
distribu@@
uc@@
tropical
Bor@@
factories
Good
ushing
Organ@@
produces
candid@@
receive
protected
max@@
illa
excision
maxillary
fishes
Compo@@
disappears
z@@
ag
decomposed
mean@@
certain
pur@@
bio
filtr@@
aques
pres@@
sive
sn@@
TB@@
judgment
nail
hair
omyel@@
dre@@
ls
validity
recurred
radi@@
Des@@
tization
overl@@
apped
DV
FDTD
lar@@
audi@@
LCA
ethane
prop@@
ethylene
conceptual
photograph
optics
NE@@
flexion
Reynolds
reflected
comprehensive
cholecystitis
kinase
moderately
rectum
tured
rectal
perfor@@
intelligent
mineral
ugh
close
joints
SI@@
aperture
cour@@
beration
acoustic
vectors
don@@
trop@@
Morph@@
rug@@
condenser
audio
uch
discharged
check
ort
dies
pin
microscopic
62
La@@
ier
bolt
set@@
intended
introducing
clone
Current
enthalpy
PM@@
60@@
polarization
consumed
fabricated
flight
helicop@@
Expression
gli@@
causing
photocatalyst
manganese
tungsten
recognizing
epithelial
dysplasia
sew@@
energy-@@
saving
aeration
challenge
interview
dent
LE
consisted
akes
demonstrates
adopts
incision
synthesized
amino
alanine
colitis
UC
symptomatic
Mie
correct
magnitude
convective
rhe@@
respective
phases
bright
investigate
statistics
tent
projection
colo@@
stomy
54
Two
designing
specificity
peritoneal
reversed
passivation
cho@@
plexus
port
rigidity
provided
rising
resin
reaches
depletion
i.e.
tract
microwave
mucosa
adhesion
track
Tohoku
Shinkansen
rolling
after@@
Hydrogen
MF@@
TAE
transient
glomerul@@
kidneys
Wel@@
bac@@
illus
GE
LV@@
fall@@
overall
squ@@
Rayleigh
arose
magnet
Nd@@
though
san@@
ator@@
Ba@@
und
capable
tubular
insulated
rail
ser@@
transplanted
newborn
infant
thymus
xes
deter@@
by-@@
gra@@
vel
TE@@
hyph@@
PAS
Gro@@
cot@@
killer
thro@@
ws
conventional
applicable
91
poly@@
polypropylene
sperm
els
rub@@
IgG
Subjects
ke
pick@@
bro@@
reasons
psychos@@
omatic
handicapped
Control
FE@@
Inv@@
call@@
pat@@
Fukuoka
nation@@
Lab@@
atories
aim
ultimate
never
broken
ambul@@
near-@@
improves
droplet
MI
developments
cy@@
statin
GFR
choice
fan
infiltration
clonal
calculate
exactly
permeability
discontinuous
Aut@@
orders
weld
Ultras@@
onic
tomography
cat@@
osteo@@
chon@@
geothermal
operate
Hy@@
advocated
Sem@@
iconduc@@
tor
emergency
need
remove
oh@@
PLL
straight
mm
outer
Bacter@@
corro@@
operations
fluid
purity
overview
BAL@@
injecting
dendritic
marrow
copper
BA
participants
repl@@
bilateral
abdomen
femoral
Na
Cl
designated
bic@@
ycle
cultivated
multimedia
manip@@
ulated
disks
ently
miniature
rel@@
ays
ems
Pre@@
diction
palsy
paste
pr@@
int@@
hetero@@
epitaxy
twice
valid
substation
rail@@
jec@@
conductive
rubber
tips
Gal@@
kin
numerically
Systems
CG
uch@@
ne
spi@@
MIC
man
excessive
leads
nausea
relieved
DF@@
contraction
lies
aiming
nar@@
physician
Er@@
them@@
blister
December
well-@@
informed
transmitting
understood
critical
noises
built
MOCVD
palli@@
eur@@
pool
namely
cirrhosis
yro@@
normalized
maintained
omal@@
polar@@
pH
grounds
pon@@
covers
insulating
deduced
ash@@
Until
pedestri@@
lacking
eless
aberration
eyes
alive
Air@@
secre@@
SQUID
microscope
tted
refraction
Sn@@
ell
Max@@
staff
preventive
worked
Consi@@
adsorb@@
boiling
sep@@
shock
trouble
turbines
collision
yn@@
anesthesia
inspec@@
GH
Tumor
middle
LS
pitch
CSP
narrow
al-@@
log@@
AP@@
Sp@@
eous
novel
complexes
luminescent
handling
ba
bron@@
ectin
pharynx
ried
tissues
pergillus
flav@@
emphysema
Rapid
ta@@
depic@@
develops
Me@@
save
approved
keeps
upl@@
ift
lim@@
sm
hierarchy
composite
anaerobic
ff
followings
Treatment
interrup@@
continuously
confirm
feasibility
hin@@
anine
commercial
general-purpose
visible
IR@@
rer
defin@@
three-@@
axial
asked
linked
collisions
Lang@@
ace
refrigerant
far
DA@@
scre@@
monitored
Hal@@
f
eating
fulfil@@
mid
‐
Experimental
agreed
precision
logic
fulness
soliton
deciding
vibrational
amplitude
variety
eren@@
seedling
flower
K.
U.S.
lanthan@@
trich@@
differen@@
tly
ren
horn
piston
hard@@
exhibits
annular
ati@@
Ti@@
prostatic
hypertrophy
epide@@
mic
excess
stomach
duodenum
Co.
recycle
Mach@@
ida
plans
bile
duct
CN
rough@@
aromatic
contains
beans
modifications
sleeping
pent@@
arb@@
ital
thoracic
aortic
aneurysm
8@@
37
satisfactorily
Wh@@
shoulder
sports
?
tives
occurrence
tre@@
ose
desi@@
cation
defl@@
ected
χ
elucidated
codon
Mar@@
ismic
diagnoses
mortality
log
breathing
hol@@
tz
aries
CB@@
parking
lot
Mit@@
Building
gently
controlling
Alumin@@
regenerative
graphs
empha@@
spac@@
e-@@
000
roent@@
gen
solutions
adjusted
immunosuppressive
LS@@
rarely
ureth@@
ral
sequ@@
extends
offering
representation
tumor
pair
Li@@
v
representing
spheric
reflects
embedding
Cryst@@
trapping
Respon@@
dominated
Landau
damping
Integr@@
ental
written
spots
converters
employe@@
configurations
traps
ation@@
109
morpho@@
genesis
epidermal
synthetic
enzymes
photosynthetic
pigment
algae
flowering
cycl@@
amen
mild
demonstrate
af@@
Increase
DSC
shrinkage
regenerated
sic
functionality
pyre@@
xia
inputs
Another
cup
synchronization
blood@@
stream
feet
feeling
miniaturization
readout
ML
righ@@
proper@@
ys
atrophy
IB
Kan@@
Kyushu
evapor@@
batch
chloroform
acetone
merits
mam@@
applicability
opportun@@
istic
gain
sumption
lead
zinc
substitu@@
optimization
paint
1@@
aircraft
resonant
agar
pation
fine
posed
terminated
demerits
AL
giant
papillary
conjunctivitis
muc@@
ball
inorganic
substances
furnace
disper@@
air@@
Technical
spinel
annealed
cholinergic
Single
screen
speech
August
epo@@
ch-@@
arthr@@
algia
drag
PCR
mitochondri@@
drop
biochemical
vivo
inhibition
supercritical
OF@@
Sol@@
sales
conclu@@
Glo@@
fish
ended
oscillatory
section
“
Ok@@
budg@@
eting
particular
incorpor@@
strategies
continuity
tangen@@
Secondly
approximate
bend
ambig@@
roll
bra@@
Kondo
Sn
ord@@
bli@@
sters
takes
PM
seri@@
ously
adhered
intermittent
dication
recognize
Simil@@
arly
diet
stopped
duc@@
scanning
obser@@
manipul@@
paradig@@
civil
Due
gravity
hopping
loco@@
midd@@
ware
read@@
principal
employing
Nis@@
ki
Mitsubishi
East
diplo@@
mac@@
poli@@
const@@
ancy
Ser@@
twenty
century
fiscal
forec@@
issues
Application
SCC
Most
encephalitis
FO@@
causative
blo@@
expensive
Fuk@@
ui
7@@
4.@@
9-year-old
Data
Ter@@
ra
satellites
transverse
blocking
distributed
organ@@
ic-@@
acks
dropped
Considering
potentials
WHO
incin@@
erated
Thermal
NS
encephal@@
esthe@@
better
chronic
expresses
BMI
academic
ened
erection
Bone
fro@@
egg
Direct
curved
manifold
topology
ultrasonic
intran@@
xy
manager
inhalation
drawing
ready
denti@@
isolation
lime
mold
disco@@
ide@@
combus@@
tible
condensed
cooling
characterize
schedule
ann@@
holes
Bel@@
States
Korea
goti@@
inhabit@@
soybean
manure
promote
mod@@
simultaneous
Besides
gaps
LH
eptide
isen@@
erg@@
majority
sy@@
somato@@
ionic
equilibri@@
employs
extr@@
insic
resistor
DMS@@
flowing
MI@@
tester
inten@@
institution
essing
matic
itary
labor
Concre@@
lege
pharmacy
Ku@@
party
pharmac@@
edi@@
planetary
gear
microscopy
fen@@
estr@@
responsibility
Ar@@
rhyth@@
mia
safely
Machine
centers
tend
reactive
pill@@
Chest
recording
halogen
had@@
ron
fluidity
OP
peroxide
AN
spine
He
computerization
sacchar@@
organisms
mas@@
AE
contacting
breakdown
ale
LT
biopsy
complexity
Mi@@
ura
discrete
Vol@@
comp@@
eted
ji
myeloid
scenari@@
os
aid
contrac@@
conservative
prior
backward
SN
dermis
FGF
yama
Symp@@
So
spe@@
Examination
analgesic
rehabil@@
dow@@
CE
Vis@@
alize
machinery
automobiles
proxim@@
ately
cutaneous
scal@@
long-term
bronchi@@
tis
oti@@
Administration
seizure
coast
ez@@
among
scar
ounds
chemicals
don
observer
derive
particul@@
welfare
sur@@
weighting
high@@
iterative
compute
lin@@
carbonate
uniformity
DLC
kle
MR
ALS
rational
determin@@
tensile
irradiated
lamp
Clinical
constituted
Java
skill
ablation
Okayama
FE
diminished
sho@@
operated
spon@@
gains
cryogenic
Nagoya
conference
climatic
held
criterion
enormous
diluted
pron@@
phon@@
turbulence
drift
threshold
Sch@@
give
satisfied
tak@@
pec@@
dust
interior
hole
filling
ife
vibr@@
ellip@@
gener@@
ality
VR
Part
sified
dissoci@@
fragments
Coul@@
mel@@
onin
urgent
enter
produce
Kuroshio
matory
swelling
erythema
curves
referred
aqu@@
eness
hydraulic
150@@
InAs
polyp
adenoma
er-@@
modes
trig@@
ometric
publ@@
collaboration
sector
correspond
aire
March
exp@@
ects
Crohn
eal
mucous
vapor
Co
DSP
200@@
parti@@
tioned
sharply
Compar@@
SAS
cylinders
cox@@
break@@
ingestion
differentiated
anchor
parent
conclusion
Rus@@
plutonium
ashi@@
aki
Niigata
responses
chromat@@
ograph
achievement
passed
scrat@@
oked
―
dimensional
VO@@
gives
voids
deposition
calcul@@
shortage
Vari@@
λ
cm
Chemical
intestine
84
all@@
ination
immediately
linear@@
machining
ption
Background
plan@@
Management
ss@@
ential
iry
sul@@
basal
cortex
speci@@
ardi@@
ocal
seriousness
sets
ito
2005
Han@@
servers
broad
expec@@
dly
mutually
IV
Micro@@
ins
appear
aining
inversely
ticular
Plasma
mal@@
steep
sizing
posterior
ulate
yp@@
generat@@
kW
9.@@
MPa
%
bearings
horse
landslide
lungs
brought
discusses
forecast
crude
counter
un
chromosomal
morphology
clones
vir
reacted
ga@@
attack
metr@@
systematically
expanding
alternative
individually
acked
replaced
throughput
2@@
Nec@@
rosis
subcutaneous
ress
23@@
Four
TDM
constitutive
concluded
bottle
norm@@
incu@@
vent@@
Sil@@
icon
alle@@
leaf
ink
CRP
Use
arti@@
1981
metaph@@
12@@
NK
contrivance
initi@@
pass@@
atten@@
GT
hot
MOSFET
44
Although
wastewater
spong@@
histopathology
AB
harmonics
giving
upd@@
plasmas
oblique
tex@@
books
lit@@
eratures
luminance
z
necro@@
eff@@
cysts
hemorrh@@
supplem@@
enting
variability
fluxes
western
judgement
DO@@
stresses
trachea
boron
zirconium
monoton@@
appro@@
ached
repetitive
energ@@
PVA
silk
wires
currents
Thus
polymorphism
photosynthesis
fulle@@
rene
forth
vaccination
perfusion
scinti@@
Method
modify
planar
HD@@
doctor
scenario
bcc
chem@@
resting
retro@@
CNT
probes
TiO2
MgO
YSZ
Fundamental
specified
detecting
fig@@
uration
Hyper@@
uro@@
format
Inte@@
shi@@
pped
nation
reasonably
lap@@
ns
businesses
Op@@
plasia
polished
stems
popular
aved
nership
Back@@
H.
som@@
astric
strains
EBV
ained
his
exceeded
allowed
leng@@
return
Ver@@
og
HDL
Nor@@
mal
boys
girls
chaotic
Gra@@
tar@@
hemic@@
anted
spin@@
chro@@
ride
dness
millimeter
non-@@
coercive
diuretic
creatinine
activating
suffering
ification
typ@@
Oh@@
kin@@
amenity
Electric
vehicle
Z
1983
drastic
oxide
ever
reflect
machines
painting
bel@@
ly@@
binary
defec@@
TN@@
group@@
visit
lumin@@
sity
stroke
belt
systematic
perturbation
artificially
biom@@
echan@@
rh@@
enium
stro@@
ensis
Cop@@
oct@@
artic@@
atus
Pan@@
cha@@
phan@@
PG
comprehensi@@
biology
chim@@
RC
vertical
Ab@@
sensation
VC
amplified
550
bp
slic@@
hydrophilic
acrylic
fibers
shadow
pole
photoelectron
again
Au@@
lat@@
chit@@
ecture
TA
atic
lattices
Josephson
γ
tary
Surface
transportation
cut
flowers
supplying
gross
prostate
mobility
alim@@
concurrent
LDH
turbine
Su@@
iro
sequences
diagram
3000
complement
purposes
pituitary
distance
pharmacist
pi@@
mi@@
electrolysis
take
olution
BR
filler
figures
integr@@
SH
converter
delivery
Sev@@
magnetron
Hg
metastatic
ile@@
LO@@
ret@@
encodes
volcan@@
style
Val@@
idity
tained
cus
liquefaction
basement
zone
ought
accelerator
brown
adhesive
chec@@
imped@@
thermally
handic@@
SB@@
ath@@
inger
reduc@@
infin@@
sim@@
infarction
SiGe
vocal
perception
deficiency
VI
confirming
attributable
grasping
titis
awa
describing
cancers
duodenal
ulcer
cross-@@
boy
junior
Tan@@
iz@@
Clo@@
dium
ultr@@
ific@@
platinum
Green
Pur@@
System
veins
latent
vitamin
prospec@@
verif@@
apha@@
bec@@
ically
oni@@
feces
ail@@
marking
heated
know
outh
directivity
dem@@
ast
Large
FS
CMV
hepatic
lip
antiferro@@
asis
plain
solu@@
circul@@
HI
proc@@
rod
void
dense
coarse
weak
cow
extremely
insi@@
individu@@
alities
ELISA
monoclonal
disposal
swing
restraint
holder
lubrication
additives
recur@@
rences
travel
0
occupies
ALP
Dist@@
urb@@
vom@@
smoothly
ecosystem
erators
leukocyte
elim@@
supporting
disabled
excited
101
phenotype
curvature
canc@@
istics
practic@@
livestock
strong@@
conjugated
hospitalized
HL
classical
denat@@
adaptive
atri@@
ack
EG@@
ull
ignition
=
II@@
soluble
status
ering
mixture
Ne
contribution
zyg@@
regulatory
activ@@
techn@@
ordered
Pt
annealing
Spec@@
ped
store
alteration
va
capture
plays
collapse
puls@@
spark
switches
fram@@
esh@@
III
anemia
80@@
nitri@@
fying
beads
cultured
floors
rho@@
predicted
compl@@
consumer
hydration
odor
ater@@
ner@@
dependences
bonds
intere@@
ils
mul@@
shaking
adequate
choose
meal
enzymatic
glucose
systemic
joined
particip@@
sel@@
Laser
diodes
tracer
New@@
16@@
compens@@
53
deficient
curing
stained
ologically
van
perf@@
ume
Mod@@
sensi@@
Ge@@
geological
veget@@
pores
ish@@
ables
py@@
raz@@
amide
icin
stre@@
ptom@@
medicines
our@@
formaldehyde
substitute
exc@@
teleph@@
ones
note
neur@@
labeled
retrograde
Num@@
bers
ve@@
transfusion
glaucoma
bring
final
places
rad@@
fa@@
fully
relationships
sectional
hemo@@
Inst@@
amyloid
grasped
Six
ma
ired
system@@
zed
urban
municipal
exceed
embolism
optimized
rating
flange
uranium
exchanged
manu@@
transc@@
bas@@
compressor
miniatur@@
100@@
00
eries
sentences
registered
choledo@@
centr@@
BC
taste
o-@@
val@@
six
anti@@
consumers
recomm@@
phytoplankton
spraying
recti@@
thy@@
EE@@
-2
clarifying
quasi-@@
radar
accompanying
sharp
navigation
polyg@@
onal
ma@@
zes
theorem
deposi@@
presentation
stom@@
Bre@@
1991
docum@@
equili@@
amin@@
huge
theoretically
linkage
S-@@
T-@@
institutions
fit@@
aphylococcus
cerebrospinal
ius
au
interfer@@
enced
embrittlement
applic@@
rit
graft
resonator
NT@@
mine
edition
geographical
DT
harve@@
smallest
intracellular
85
69
61
inference
ters
entering
completely
character@@
gall@@
PL
aling
rest
fluids
Earth
coherence
tionally
auditory
dehydration
forecasting
integrating
gy@@
ration
FD@@
disseminated
catal@@
Our
MB@@
ogenesis
eity
Total
insurance
appropri@@
κ@@
Character@@
lamps
capac@@
magnetically
vit@@
doing
Stand@@
zation
steadily
nel
architectural
120
Bi@@
ryst@@
inflow
ont@@
amination
calcin@@
quantification
segments
represent
polynom@@
ials
pictures
pharmacological
medi@@
dilat@@
arach@@
farm@@
press@@
dimin@@
peak@@
easier
ni@@
polynomial
accomplished
smo@@
testing
wn
0.5
mM
corporation
forging
guarante@@
eing
precipitate
coder
shaft
harmac@@
ticals
contributions
;
disordered
retriev@@
coloring
hardened
inertia
robust
mini
rejection
autologous
hemato@@
poiesis
examin@@
exciton
bound
Of
sen
Fluo@@
rescence
phenyl
ita
susp@@
inhibitor
activated
thrombo@@
plas@@
fif@@
wide@@
Pu@@
icity
workshop
SH@@
Saf@@
perme@@
Between
ecum
abscess
Myco@@
pul@@
thread
successful
contributed
IGF@@
bubbles
pneumoniae
arteriosclerosis
own
busin@@
irr@@
itable
bowel
numbness
appliances
mentions
databases
amounts
ension
arding
formalism
Kr@@
kov
sibility
reuse
efforts
associ@@
compil@@
blade
berg
checked
irradi@@
chir@@
bronch@@
importance
fetal
pregnancy
synchrotron
omen@@
ATP
Ox@@
ax@@
agawa
ushima
mang@@
shear
passing
maximal
nu@@
dging
parents
tility
lea@@
nanometer
sine
sch@@
handled
identical
discomfort
exothermic
anthem@@
Mechanical
prog@@
eria
angular
foun@@
ites
perturbations
correlate
formulation
manifestation
requirement
Hokkaido
allowable
south
mandible
cal
generally
prices
connect
trains
hippocampus
Project
getting
randomized
sols
lid@@
excep@@
knowledges
pati@@
voltages
α-@@
lor
adjacent
flame
tuation
blend
About
apex
suggests
paths
necessarily
crow@@
titania
More
80
lubric@@
gre@@
fractal
arterial
Chinese
CMP
pri@@
ming
address
concentrated
DH
Partic@@
ularly
condens@@
actic
coaxial
waveguides
Such
borne
gest@@
arrhythmia
Department
Health
Welfare
inflammatory
HC
compare
omes
mut@@
tobacco
ben@@
ermal
tap
diffuse
budget
ee
read
asion
message
frequencies
cool
warm
erythrocytes
platelets
OPLL
Optim@@
econom@@
contribu@@
created
equipped
magn@@
till
plasty
chick@@
town
Industrial
Standards
photoresist
coordination
nip@@
sport
albumin
anisotropy
meantime
nom@@
monkey
sold
brand
ech
TNF
percentage
symmetrical
hollow
Au
Pd
deal
inserting
transformer
plat@@
aspects
solder
cont@@
abuse
IDDM
glycemic
strip
thick
erythrocyte
coincidence
staying
ities
uric
+
oles
ugh@@
observ@@
For@@
coupl@@
wind@@
mill
suff@@
congestion
achieving
maintaining
uclear
confined
stereo
spacing
thorax
sympathetic
anesthe@@
Oe
counting
izes
Transm@@
processed
statistically
Sag@@
ami@@
hara
ading
fre@@
principles
surgically
penetrating
und@@
high-pressure
moments
coagulation
remained
hardness
entero@@
esis
mucosal
cautionary
bead
cus@@
attitude
pressed
blind
cooled
Sel@@
round
aning
pig@@
lets
wheels
damages
vacancy
assi@@
sting
Mic@@
ro
acqu@@
iring
ody
agrees
izer
intrac@@
rin@@
colon
GF
Second
snow
blowing
induce
cannot
consistently
lethal
nonlinearity
explan@@
appar@@
processors
wr@@
consecutive
izations
troph@@
institu@@
Light
Fi@@
vers@@
atile
double
cardiac
benign
pheochromo@@
cytoma
stabilization
diabetic
oven
destin@@
sake
friendly
caffe@@
identifying
spindle
wood
saturated
conservation
hall
contri@@
orated
outcome
Incre@@
prolonged
marked
facts
ainst
CL@@
Center
pol@@
cope
terms
Fourier
optimal
inert
one-dimensional
detector
uncertainty
becoming
replacing
Ti
PO@@
yl
Low@@
moist@@
eliminated
induc@@
influences
medic@@
DR@@
BG
aceous
aerosol
corpus
atum
thalamus
quant@@
pep@@
leaves
chamber
kno@@
rix
lands
fundamentally
HF
reprocessing
insectic@@
termination
broadcasting
ID@@
typical
construc@@
insul@@
cruc@@
ible
acetab@@
influ@@
candidates
documents
implementation
Ther@@
eutic
undergone
opening
elbow
arthroplasty
pathophysiology
kernel
aggravation
penetr@@
asph@@
erical
reno@@
anticip@@
wear
ocean@@
offshore
validation
anesthetic
PF
treating
Ru@@
consistency
rang@@
dissociation
pigmentation
Production
appendix
laparotomy
lympho@@
mas
see@@
actin@@
mercur@@
y-@@
lator
ji@@
Im@@
ato
trib@@
gears
ship@@
bow@@
enoid
molecul@@
ly-@@
parametric
ats
ups
relatively
toward
smell
unsaturated
subsystem
valued
eruption
limbs
checking
bones
hum@@
worker
SV@@
operates
ND@@
SAT
highest
trajectories
Committee
originates
emulsion
occlusion
equival@@
unt
wet
ama
Hum@@
polypeptide
sequential
scen@@
originated
identi@@
stochastic
salts
aster
assuming
enough
island
dyspnea
retroperitoneal
Accordingly
edges
islands
Western
substitution
ells
north
fishery
fishing
ond
tac@@
bri@@
tritium
vised
approxim@@
CB
ero
sin
movements
expendit@@
indices
sputtered
argon
ionized
lack
imming
ture@@
educational
discrepancy
CL
monitors
Ts
verse
Cs
oscill@@
hic@@
reflex
spir@@
Mo
Ga
cured
rine
can@@
eus
lightw@@
eight
viral
pharmacotherapy
young
uli@@
promin@@
SW@@
NTs
111
are@@
rot@@
leak
pad
OR@@
SR
mathematical
coke
water-@@
mar@@
IL-@@
reflective
suited
coun@@
adv@@
traditional
High@@
bridges
mus@@
eum
〜
currently
destructive
cro@@
ok@@
jump
tel@@
op
heparin
Cd
dramatically
synergistic
review@@
Moessbauer
multi
ore@@
ang
quantitative
dram@@
sizes
emergence
ficial
ising
regulator
utionary
Magnetic
top@@
vortex
columns
granules
hologram
Australia
paralysis
reliable
cranial
signature
waveforms
asyn@@
chronous
CDMA
receiver
computed
rock
monoxide
radiated
seem
nutrients
dioxins
Kawasaki
ycl@@
fam@@
centro@@
pore
cit@@
ric
asts
vitro
tenance
RB@@
indentation
removal
reveals
symb@@
iter@@
myel@@
generalization
tures
Works
st
etary
Korean
relevance
aun@@
gradi@@
92
clustering
motif
recipient
ergic
Environmental
Act
Ultra@@
posture
mark@@
attracted
zero@@
icate
arsenic
cadmium
level@@
ah@@
electr@@
prefectures
BO@@
occurring
risks
hold
bur@@
sa
tog@@
iration
ve-@@
TG
Nitro@@
'@@
scri@@
Under
atase
agre@@
enlargement
zing
linking
keys
ori
ush
influenz@@
consolidation
Standard
roller
sign@@
positional
occupation
pregnant
broth
allocation
flexi@@
bly
repeat
ing-@@
mg
holographic
toluene
c-@@
fore@@
cables
optimize
kawa
broad@@
aerial
photography
located
E.
prepa@@
red@@
thering
essive
95
ite
dem
loc@@
echo@@
rock@@
arms
kes
objectives
offices
hot@@
GP
context
acquire
intensive
1993
capacitance
whe@@
eled
specially
diaphrag@@
computing
copy@@
Pi@@
percutaneous
lear
suddenly
expand
000@@
antibacterial
ana
imper@@
fect
Struc@@
perfectly
ze
landscape
utility
13@@
Magne@@
repe@@
ided
quadrupole
HI@@
MAC
Met@@
ple@@
participating
concentrations
ai@@
Pd@@
transformed
rays
hund@@
relief
volumetric
Blo@@
hematoma
greater
omentum
slow
metropolitan
quanti@@
carrying
anterior
involvement
responsible
heater
reached
140
mA
happen@@
predic@@
strateg@@
implement
atures
rap@@
ene@@
Tr@@
fic@@
rheumatoid
arthritis
od@@
sampling
ultraf@@
e.g.
BD
ring@@
im
、
BR@@
adapted
TT
war@@
ning
dangerous
issued
supplemented
auto@@
oils
mit@@
su
exclu@@
sion@@
participate
scap@@
cosmic
gyp@@
drainage
substanti@@
leuk@@
lymphatic
oriented
Cre@@
navig@@
genomic
blast
sigh@@
seeing
phenomen@@
CK
tral
ister
During
thereafter
individuals
integer
Tur@@
ency
circle
subjected
radial
spontaneously
TH
fact@@
water@@
visualized
Engineering
plus
Hi@@
dor@@
tunn@@
elling
wo@@
ods
partially
extin@@
ishment
tubes
evaluations
reacts
adrenocortical
amic
cancell@@
bay
manufactured
transported
termin@@
usually
rhiz@@
hippo@@
newsp@@
aper
dental
reinforced
ectures
uting
benchmark
Resi@@
dual
cascade
bar@@
protons
wake
ultras@@
hort
lasers
proliferative
continuum
Even
Small
0.0@@
longitudinal
variance
ie
delayed
myocardium
ischemic
pathological
tations
tag
cumulative
exception
rats
alge@@
bir@@
show@@
concre@@
teness
sensitive
SG
bore
tunneling
bond
codes
susceptible
urs
challenges
contin@@
PSA
lithography
Impro@@
Hb@@
elongation
abra@@
sives
acidic
sulfuric
titan@@
injected
prolifer@@
synovial
melt
lamy@@
dia
symptoms
ankle
she@@
ocity
evid@@
EP
words
abl@@
uniformly
angles
evaporated
gauge
persi@@
Hosp@@
origins
diagrams
inductance
rotor
Generation
anti-@@
ris@@
imprin@@
jection
HPV
polymeric
cosme@@
barley
refined
wool
beli@@
eve
Uni@@
-year-old
nam@@
exhibit
performances
vul@@
CdS
xen@@
raft
diver@@
ula
residential
mid@@
hazardous
generations
slit
acceptor
gon@@
clin@@
kers
aduc@@
Hor@@
ontal
advancing
correc@@
diffr@@
acto@@
affecting
Multiple
AM@@
ME
condi@@
itting
institute
professional
obstac@@
allows
now@@
qualitative
phone
leth@@
boiler
emitted
operability
simplification
eptides
martensitic
exist@@
recognizes
jective
inally
organizations
Ray@@
ises
Specific
findings
elasticity
crystalline
assing
cytodiagnosis
intravenous
harmonic
dep@@
ict
MW@@
ape
seeds
transferred
occa@@
Boltz@@
mann
analy@@
reciproc@@
angi@@
omatous
ham@@
toma
fragmentation
FRP
reveal
Scan@@
aggra@@
containers
dorsal
stone
elucidate
sections
dye
IEC
apple
melon
pe@@
heterogeneous
crust
whom
leuco@@
cyte
platelet
epidural
endocrin@@
polishing
fall
expos@@
prognostic
nearby
faults
infants
olysis
productivity
usability
moderate
varieties
fcc
Fac@@
tir@@
alg@@
inate
fy
glo@@
bular
inic
branching
deflection
incomplete
83
eder
arterio@@
sclerotic
impacts
avoiding
bifurcation
1986
Tit@@
anium
composites
generic
menti@@
assembled
infra@@
parietal
Mycobacterium
Hub@@
horiz@@
formulae
kage
stores
supplies
Sur@@
faces
erosion
Significant
lupus
erythematosus
ask
lateral
tus
neonatal
roo@@
ICP
legs
co-@@
assisted
instruction
gait
nut
experiences
Station
corrections
adiabatic
moto
ko
alized
Study
elucid@@
tablet
fused
cul@@
organ
Leg@@
phil@@
native
meth@@
ionine
FR@@
CE@@
intraven@@
tric@@
permanent
cortical
thalamic
func@@
ison
ta
shed
med
simil@@
inev@@
fired
consu@@
iding
apping
dent@@
charged
corn
wider
any@@
diseased
turb@@
tom@@
paration
ilateral
SiO2
compartment
acetic
eph@@
ony
chron@@
ileus
Cur@@
illumin@@
polarized
quite
Simulation
seve@@
HA@@
uck
sin@@
pipes
kil@@
transistors
occupational
CPU
pipeline
command
chance
thermoelectric
Frac@@
septum
Ber@@
BM
fal@@
sification
apparently
allo@@
granule
acted
medullary
torque
corrug@@
spectro@@
metric
tiz@@
winding
contributing
ame
planting
Ι
intermolecular
adju@@
washing
olecular
conveni@@
automated
additive
ophil@@
prenatal
encoding
EN@@
coils
scan
cardiovascular
ae@@
enz@@
la@@
lightning
analysed
Genetic
replication
dermat@@
schemes
tely
sal@@
bleaching
thre@@
surg@@
iliac
org@@
bit@@
transgenic
modules
amycin
event
protru@@
stronger
whis@@
agon@@
elevation
alternat@@
denture
grams
alls
satisfy
anastomotic
formulated
atitis
ophen@@
zo@@
chr@@
ski
epider@@
dis
yngeal
extensive
draw
ished
spiral
sures
itself
Appl@@
streams
spo@@
reproducibility
hardening
blocks
Nagasaki
lights
RI@@
phospholipid
ligand
appearing
digit@@
pre-@@
TD@@
incorporation
counter@@
off@@
ensive
RHEED
tot@@
sliding
welling
purchase
criticality
mass-@@
osteoporosis
southern
commercialized
inoc@@
Meas@@
elementary
electron@@
max
symptom
apter
Growth
repetition
Ag
CdTe
physi@@
que
postnatal
spheres
bacteri@@
oph@@
Gn@@
ata
achi
lute@@
Ger@@
decoding
feeder
AG@@
improvements
emissions
94
dermal
RH
orbital
absence
49
palp@@
mount
monol@@
specifically
diffused
wide-@@
squamous
supplement
laboratories
Nd
interconnection
notes
alis
reflectivity
AF@@
lymphocytic
mast@@
opathy
emic
endocrine
Lat@@
clinically
SV
Auth@@
thicknesses
deodorization
merged
transl@@
86
stacked
pers@@
onally
park
street
fus@@
Zr
abol@@
superoxide
ply
sub
closing
plast@@
triglyceride
rabbit
fertilizer
psychi@@
atry
enia
benefit
resear@@
learned
nozzle
1987
Public
unch
electrolyte
ails
notic@@
est@@
tensi@@
Acute
generator
Addition
crown
solubility
contamination
ulus
graphite
extremity
drying
atigue
liness
manufac@@
em
106
branched
marketing
connector
intubation
des@@
Poisson
EB@@
procedures
protect
glow
choosing
bleeding
counts
corium
maneu@@
advancement
rods
TEM
aged
mesh@@
antigen@@
potato
sweet
fungi
tz@@
full-@@
influencing
TiN
enc@@
losed
facilitate
cem@@
aring
prescribed
receptor
ix
mitochondrial
separator
distinguish
abs@@
electron-@@
cycling
ique
arrival
prin@@
bounded
orth@@
Over@@
lap
SM
hydri@@
juice
superconductivity
mix@@
cham@@
uni@@
Distribu@@
SG@@
motility
grains
FT
Tc
notice
endogenous
ossification
weights
rect@@
laminar
arch@@
vertebra
LV
vortices
kHz
weighted
away
inductive
rf
fold
cargo
mps
teacher
mented
peaks
incident
particularly
fier
frictional
wer
coord@@
icians
GE@@
digi@@
reagent
42
neglig@@
heads
spectroscopic
abilities
enforc@@
17.@@
radicals
96
episo@@
dic
jointly
ival@@
compensate
defic@@
fluorocarbon
refinement
Non@@
determines
wash@@
adhe@@
propag@@
commod@@
vegetable
cropping
avo@@
palladium
sation
thermodynamic
consequence
ortho@@
infl@@
ces@@
refractory
slurry
dicated
Hig@@
wet@@
habitat
stably
squares
nationwide
deeply
Suc@@
actuators
born
histamine
pneumo@@
major
IFN
carotid
install@@
under@@
storm
nia
polyethylene
PVC
portal
arter@@
[
ment@@
ectomy
]
Those
ining
CNS
reng@@
IM
defective
22@@
fission
histopathological
That
preser@@
neighborhood
aminase
condensation
conditioning
storing
ime
enlarged
canal
forward
yst@@
rophy
universal
chil@@
cities
ultra-@@
Yam@@
ashi
prefecture
opened
ami
Afric@@
tactile
kV
expect
aval@@
anch@@
ule
dom@@
tically
binding
solute
kinetic
neutrons
ratios
Langmu@@
dg@@
occur@@
High-@@
idden
hibi@@
histological
refuse
incinerator
PTH
San@@
wid@@
Visual
VB
lite
zirconia
atom@@
pyrolysis
ician
aches
oting
yle@@
SF
warming
onucle@@
Transi@@
thor@@
LU@@
backgrounds
vative
neck
overhead
viable
earthquakes
critic@@
cathodic
infiltr@@
Oper@@
otic
Concentr@@
weakly
followed
Prec@@
aggregation
confirms
calibr@@
sinusoidal
t-@@
ende@@
serve
performs
ys@@
hypersensitivity
transmis@@
sivity
polyimide
sulf@@
observations
adsorbent
Vs
itter
stabilize
itro@@
acter
capacit@@
gast@@
Factors
otype
hip@@
agit@@
num@@
eral
antibodies
blot
brow@@
economics
TL
feasible
numerous
captioned
birds
flies
remains
dig@@
icated
dog
Red
compres@@
elic@@
eration
disruption
forc@@
gam@@
While
magnets
recover
melts
hydr@@
belong
Heat
write
wettability
Ul@@
eddy
latex
vascular
VE
pieces
residues
GL
NN
above-mentioned
lost
popul@@
arized
radioactive
separating
How
firing
hypoxia
apnea
long@@
figure
ending
manned
xing
refrac@@
transver@@
sal
Hubbard
remain
passenger
schedul@@
chromic
breaks
head@@
thoracotomy
prof@@
predictive
piezoelectric
awing
ens@@
ass
reductions
cen@@
random@@
I-@@
comprising
dys@@
nominal
folding
clo@@
admission
accel@@
erates
coal@@
escence
faster
etch
ries
solid-@@
realistic
west
nations
Middle
exhibited
Hall
erebral
elder@@
ITS
1-@@
materi@@
TM
fec@@
DIC
Evalu@@
atorial
conser@@
alternate
monop@@
aden@@
considers
altern@@
atives
amo@@
dominant
portion
oxal@@
ladder
glau@@
atous
contrain@@
CFC
ED
outdoor
Gl@@
athione
GSH
2-year-old
1988
Liquid
till@@
plaque
truss
relate
trusion
ench
CuO
cellulose
polysacchar@@
immobilized
Electro@@
Measurements
foil
Transmission
disc@@
meg@@
stopping
balloon
intravascular
reaching
hex@@
flag@@
ellar
cel@@
Shizuoka
powers
nur@@
Medic@@
Plant
orthorhombic
inf@@
get
qualitatively
isotopic
phar@@
mucus
usable
holding
deli@@
houses
rearrangement
Mag@@
compressive
vertebral
arch
carbide
coated
punch
Statis@@
mutual
multipl@@
exon
tigh@@
true
lumen
Service
intermedi@@
conductor
triple
rationalization
stagnation
tering
customers
aorta
venti@@
Hist@@
abund@@
antly
annel
Following
H2O2
analyses
odd
ades
RI
break
text
ba@@
vir@@
Peri@@
Cushing
caver@@
sinus
cervical
peeling
N-@@
fin
hu@@
assume
val
ei
phenol
tomato
onion
conductors
chromosomes
Ak@@
Fuj@@
ima
glycol
Li
Nb
polymerized
cosm@@
diffu@@
sion-@@
poses
stly
retaining
high-temperature
deser@@
trunk
photograph@@
obtaining
ATPase
nucleotide
other@@
wise
upward
auro@@
ras
spati@@
temporal
multiplexing
k-@@
exponentially
SAM
yed
one-@@
dimensi@@
laparo@@
stent
bronchus
keeping
symbol
strings
geographic
contr@@
ari@@
grained
lift
fitness
so-called
Am@@
Surgery
rolled
ET
too
adenomas
estrogen
MeV
vical
adopt
titudes
stool
sexual
percent
inhibits
exer@@
astr@@
prism
Three
fun@@
chromatic
TL@@
pathogens
layered
ference
tou@@
ered
divergence
river
allevi@@
63
tracks
minimization
small-@@
multiplication
eastern
snow@@
Global
Electronic
ke@@
intellectual
practically
utation
relations
acc@@
bandwidth
tail
mouth
periphery
refractive
Develop@@
6.0
infinite
administered
caus@@
pay@@
offset
Electrical
contacts
needle
ck
hygi@@
positioning
plastics
distinc@@
oxygenation
5.@@
Ab
commerce
ject
Acc@@
col
stor@@
hyp@@
ideas
and-@@
drops
promo@@
Mn@@
Candida
alb@@
ans
met
inheritance
ear
malformation
deafness
yen
seas
Econ@@
omic
papilla
fluence
explo@@
quenching
tons
gs
furn@@
aces
avoidance
pathologically
vehicles
answ@@
larg@@
Thin
polyurethane
deformity
NR
Time
cyan@@
cAMP
homologous
whole-body
ovarian
maturation
morphological
hou@@
agree
ridge
orientation
descending
intervertebral
instability
distingu@@
ishes
colors
thrombus
arteries
finding
effluent
PW@@
lamin@@
generalized
minimal
agitation
regular
menstr@@
singular
pack@@
FET
agen@@
setup
sputter
chrom@@
sian
garbage
Society
nodal
scar@@
ticul@@
tural
reversible
uterine
lik@@
station@@
amp
antihypertensive
perin@@
dop@@
recurrent
follicle
SHR
energies
tryp@@
toph@@
diagnosing
CBF
Wi@@
ener
rag@@
hydrocarbons
velocities
Pressure
shearing
Ia
polymer
Sec@@
itons
retardation
bunch
cavities
NB@@
NSA@@
fluidized
D.
×
Vo@@
32@@
tour@@
Nagano
Hok@@
ush@@
ilities
K-@@
deeper
invariant
Λ
buried
stressed
allow
flat@@
bran@@
chial
FETs
diameters
ern@@
stein
Change
packages
tung@@
coercivity
diarrhea
backache
bol@@
modern
broadening
mar
immuno@@
oside
transcrip@@
tase
tolerance
silic@@
appreci@@
Primary
retained
stimul@@
draft
escent
asymmetry
fru@@
copy
allele
totally
porphyrin
inno@@
objec@@
selves
phthal@@
ocyanine
nose
equip@@
ping
photoluminescence
signaling
manag@@
sus@@
seas@@
patho@@
quin@@
acr@@
acidity
urity
Formation
Cap@@
poro@@
hydrogenation
efin
ketone
scho@@
ums
zzy
profil@@
live
submerged
vo
tropol@@
idine
ins@@
tillation
compreh@@
transitions
negatively
donors
Is@@
elution
simplified
visited
peritonitis
sealed
allel
conjunctiv@@
colored
obstacle
Hz
membranes
permit@@
presenting
freez@@
facet
Algorith@@
Hb
persistence
1.4@@
Neu@@
tron
util@@
visi@@
pathogenicity
ruptured
idly
subsurface
plated
stere@@
ganglion
Schw@@
Endo@@
SR@@
hydroxyapatite
NR@@
Amp@@
icillin
dopamine
facil@@
village
uri@@
ku
Reg@@
Off@@
Shikoku
Rb
gold
nephritis
comple@@
isting
outpatient
pruritus
responding
isother@@
molar
breakage
tide
SQ@@
7.0
goals
ood
fiber@@
pherom@@
ALT
kA
dermatitis
propylene
microstructure
plating
boards
arbitrary
illed
min
35@@
check@@
ound
trees
resistivity
Cl@@
arif@@
HGF
estim@@
aerodynamic
DD
zon@@
ump
precur@@
charcoal
Tun@@
extracts
arbitr@@
dist@@
specialists
parame@@
Mn
home@@
page
ephal@@
hydrolysis
steric
aled
avy
grad@@
VLSI
After@@
inch
star
differenti@@
behaviour
supercooled
across
thal@@
lium
autumn
vers
mirrors
common@@
circulating
dioxines
desulfurization
17@@
thi@@
ophene
conduct
COD
microorganisms
wit@@
deoxy@@
chol@@
retur@@
thy
FR
comput@@
classes
star@@
calves
grap@@
arse
exacerbation
rin
nest
dd@@
Ising
Heisenberg
ily
column
ised
brake
narro@@
geometric
deposit
implem@@
promoting
intervals
increment
frequent
propagated
slightly
twin
SO
CI@@
initiation
mutant
ze@@
bor@@
colorectal
transpa@@
trabec@@
puberty
boil@@
ually
impul@@
siveness
ression
connects
photochemical
quasi
expert
coincided
dietary
Super@@
tera
Å
ayer
fol@@
gar@@
ano@@
iter
ex
row
dra@@
regard
design@@
expl@@
research@@
visibility
amplifiers
theophylline
volution
capsule
unclear
dosing
encountered
engineers
dle
launched
November
spacer
union
vas@@
sensitization
rystall@@
concave
ias
sixth
regurgitation
gul@@
porphy@@
diam@@
agnetic
doub@@
intensities
ailed
template
genic
KY
stabilizing
pu@@
ocyte
orange
meters
sequently
semic@@
neces@@
sit@@
onset
gri@@
finish
fri@@
hemorrhagic
El@@
entary
ients
ISDN
plug
distur@@
aver@@
ophy@@
sil@@
investigates
proof
worse
bismuth
ine@@
teen
Direc@@
aked
solidi@@
operator
RNAs
injuries
arth@@
inferred
Chem@@
istry
Hodg@@
Hu@@
variously
ef@@
intellig@@
ibility
Only
pancreas
polymerase
immature
ker@@
frequ@@
kar@@
telecommun@@
ications
Gr@@
asp@@
pinch
german@@
reality
involving
250
coccus
honey@@
comb
Fuji
distances
scores
incontinence
approximately
ments
sla@@
SU@@
scin@@
Analy@@
fail@@
Loren@@
Numerical
0.1@@
cloning
valent
five
competi@@
once
mono@@
aberr@@
marine
EF
towards
blockage
prophyl@@
coagulant
lowest
poten@@
cy
deals
optim@@
eb@@
phen@@
otypes
clay
antennas
temporary
BF
parasitic
Plas@@
ileum
elf
radic@@
tizing
columnar
pip@@
elines
iliary
chemo@@
trophic
researched
sclerosis
roentgenogram
flo@@
bambo@@
insomnia
ight@@
d-@@
fications
gastro@@
enteritis
January
Aichi
-type
restored
Telecommun@@
asp
bud
uki
Food
stratification
al.
sar@@
tan
Multi@@
tite
Kin@@
etic
reflector
high-performance
solids
evolutionary
alph@@
pixels
Land@@
ands
elled
sper@@
polar
transf@@
6th
dendri@@
mer
scopy
things
incid@@
promp@@
negl@@
child@@
abor@@
premature
ger
glyco@@
fibro@@
Gy
label
glu@@
ali@@
1979
damper
worm
erally
viscous
strictly
reciprocal
eliminating
bladder
limiting
harvest
omat@@
eliminate
hydro@@
Perform@@
formul@@
ato@@
Stre@@
iri@@
ica
elev@@
cerebrovascular
crops
rigo@@
rous
Rap@@
phag@@
ocytosis
cytes
ancing
layout
judge
130
conventionally
cladding
segregation
facial
derm@@
abrasion
appe@@
plates
fingers
hands
len@@
vitreous
axes
oscillator
alizing
mid-@@
oceanic
dges
drain@@
ichi
syndromes
spl@@
Kon@@
Oxy@@
edo@@
noted
Low
contra@@
ect@@
PL@@
fluidi@@
diff@@
carefully
eller
ut
correctly
0.6
NAD@@
2-@@
libraries
unlike
category
inates
bip@@
sk@@
*
dilute
ultrasonography
tomy
responded
proliferated
formations
tow@@
XY
Langmuir
mostly
ka@@
outlin@@
unusual
oming
G1
emit@@
hedr@@
coordinates
planes
broadcast
tance
frozen
oleic
inhibitory
preparing
speedup
closely
cab@@
qual@@
Cell
E-@@
fabrication
glutamate
transporter
wells
abrup@@
uly
twenty-@@
cyclic
AMP
dimer
convert
fs
analogue
tap@@
nurses
Trans@@
Pharmac@@
tine
vast@@
atin
mW
Proper@@
50@@
progno@@
refriger@@
focus@@
confl@@
seeding
PEG
mast
orized
conception
classifying
40@@
lipos@@
thinking
schizophrenia
125
μm
distinguished
erythro@@
mycin
coupler
acking
multivariate
Kansai
Hiroshima
Eight
genera
chus
nex@@
Mel@@
Alzheimer
residue
biosynthesis
mutagen@@
actively
periodical
radiological
hypophysis
seven
bromo@@
remedy
sted
ocarcin@@
inquiry
ark
MHD
granuloma
ordering
quenched
halide
sputum
slow@@
dary
atop@@
93
simplic@@
arri@@
vals
Nan@@
Line
Railway
Major
ous@@
1500
peroxidase
fed
high-precision
era@@
67
ferrous
Imag@@
spectrometry
D-@@
seldom
piezo@@
electrics
corner
believed
CG@@
underwent
structur@@
MC@@
MB
judging
shot
laparoscopic
exclusive
liquids
dant
ecting
divid@@
nets
marks
emotional
lengths
ZT
transp@@
orts
stations
stars
aw
tanks
custom@@
atively
levels
photons
kg
comparable
psor@@
fu@@
Treat@@
paroxys@@
trip@@
reflec@@
Kal@@
enabling
high-quality
NF@@
flying
DP@@
quadr@@
cyclo@@
p53
positively
confinement
Islands
ulcers
ci@@
younger
progression
enum@@
hydrodynamic
simplif@@
GC
antile
Nag@@
acetylene
ate-@@
preparations
empirical
optically
traveling
GABA
oxidase
humans
erential
reasoning
inherent
lingu@@
Ren@@
wastes
sli@@
endoscope
ified
autonomic
psych@@
monthly
facing
EMC
Clin@@
CV@@
uncertain
RD
sy
fifth
grazing
vacu@@
tyrosine
equivalence
neutroph@@
ort@@
hereditary
resistive
considerations
stering
succe@@
eds
administrative
longer
olar
sof@@
pressur@@
bibli@@
ographical
Gd
adequ@@
phosphoric
phospholip@@
phosphor@@
time-dependent
Histopath@@
lign@@
heights
Sim@@
medul@@
la
sou@@
dian
ND
Cri@@
lo
preserving
amplification
sme@@
welded
ensure
arily
aly@@
capillary
Proto@@
sandwich
reflecting
ogr@@
utions
ANCA
vasculitis
convex
inactivation
induces
periodically
TE
lake
des
largely
alloying
itr@@
perpendic@@
similarly
preference
policies
bles
grass
dwar@@
metastable
tablets
analyz@@
tent@@
mounted
touch
panels
isomer
π
Tra@@
semiconductors
Chil@@
radiography
frequently
on-@@
pinning
aplasia
tropo@@
KrF
excimer
ar-@@
offic@@
Du@@
structuring
embolization
elding
modul@@
tetr@@
hydroxide
employees
idase
ubles
pulsive
local@@
rural
obstruc@@
curative
tokamak
roads
prevented
aily
pain@@
decline
ductility
sky
two-@@
tino@@
domin@@
requiring
G-@@
filtration
inverted
vesti@@
polluted
receives
broadband
nematic
tensor
envelope
Dep@@
Indon@@
slo@@
prevent
subsequently
employ
occ@@
respir@@
bet@@
neighboring
maint@@
utter@@
gamma
η
initio
drilling
cent@@
uries
designers
cap@@
decar@@
box@@
ylation
Et@@
ek
FY
institutes
Lag@@
exponential
mil@@
invari@@
regul@@
stimuli
resistances
Rh
0.7@@
household
attribu@@
myco@@
rella
pathogen
70@@
antim@@
doped
MO
ifying
Bro@@
angu@@
tann@@
streng@@
vid@@
bil@@
myces
far@@
ino@@
sus
mell@@
orient@@
bled
forces
cave
suitability
mits
creating
anim@@
seismic
droplets
pediatr@@
pulsion
NE
sh
fistula
correlations
emed
indicators
TI@@
plantation
Posi@@
0.1
pollutants
familial
polypo@@
fuzzy
quantization
sex@@
comfor@@
GVHD
excavation
methylation
estro@@
attening
FP
bypass
mining
calf
mechan@@
iodide
reacting
predict
PP@@
mun@@
helix
expressing
somatic
plasticity
losure
Fer@@
entin
mineralization
focuses
logarith@@
ferrite
basi@@
transcri@@
ucl@@
grafting
decre@@
dam@@
ascen@@
drawn
constitu@@
tes
immunotherapy
synthe@@
promoter
silk@@
-like
comfort
antic@@
tidal
circular
striction
moun@@
tains
inary
soun@@
focused
istr@@
arthro@@
pathy
speeds
radii
fractional
exclusion
tioning
tex
constituents
300@@
m-@@
waf@@
condu@@
function@@
ball@@
chiral
inc
PTFE
profes@@
River
batteries
apl@@
ulcerative
xed
suction
boo@@
citr@@
Ms
classify
partitioning
vibrating
normalization
implant
2.1
U.S.@@
.This
aves
Exc@@
97
emphasis
gl@@
disinfec@@
dilatation
sug@@
signific@@
atal
ye@@
extracellular
polysaccharide
tho@@
roughly
imag@@
1960
impro@@
ent-@@
mass@@
universe
integrate
ester
variables
asymptomatic
carriers
alkali
obese
mite
hyperglycemia
kit
delirium
aneurysms
constituting
semi-@@
measur@@
aneous
carbox@@
injured
pier
express@@
Ba
verte@@
cytoplasm
topographic
onecrosis
450
visually
Mu@@
present@@
acetate
oman
Ori@@
mak@@
pollut@@
Post@@
sedimentation
4-@@
japonica
saf@@
vertebrae
viscer@@
rib
num
hon@@
Mob@@
Communication
ishi
bundle
swir@@
hydrocarbon
falling
slot
segment
q
interstitial
PAP
farmland
Pref@@
ectural
carcinomas
SST
dipping
filtering
zones
pressing
ache
ees
microbes
ges
vary
scleroderma
chains
overlap
chloric
instrumentation
adaptability
dings
0.@@
sustained
logical
mortar
anthro@@
fat@@
inking
beforehand
nephro@@
neighb@@
Age
east
intrahepatic
stainless
PMA
Left
sci@@
mature
hypertroph@@
combinations
predicting
onomic
epidemi@@
lig@@
agi
Yamag@@
actu@@
Aomori
traum@@
atism
l-@@
photo-@@
converting
files
PB
pil@@
consider@@
availability
mutants
Kobe
otherapy
gene@@
alogy
impurities
ocular
asymp@@
athetic
boilers
conjug@@
acet@@
commercialization
cool@@
assu@@
cryp@@
reless
twisted
intra
overlapping
sensitized
impression
carbohydrate
implic@@
cru@@
stal
LDL
anatomical
nucleon
non
eminal
1984
manifest@@
1.@@
-positive
mus
landing
crop
inese
hepatocellular
compatibility
attachment
boson
obacter@@
mor@@
vent
scat@@
syl@@
lab@@
sitis
θ
orig@@
oden@@
alcohols
fruits
satisfying
hedral
flash
Ultr@@
antibiotics
insects
governments
appli@@
6.@@
atrophic
connections
cellent
nano-@@
limit@@
stiff@@
connective
fasc@@
ounc@@
pulp
endoscopic
13.@@
walls
ferroelectric
thinning
juvenile
OL
dur@@
pigments
Comparing
VP
ports
lum@@
iton
3d
workers
gates
ifu
ii
apse
weak@@
diar@@
irs
experi@@
entially
immersed
lubricant
unior
exogenous
DO
ducts
infantile
Curie
aplastic
glutathione
resolved
exacerbated
1970
inhibited
coronary
arteri@@
shelf
rip@@
besides
favor@@
decade
ono@@
vistic
ronic
quantitatively
SMA
erat@@
coolant
ete
Thermo@@
view@@
sap@@
ere@@
Dig@@
estive
momentum
sec
synchron@@
Linear
promis@@
lived
bred
closure
complaining
rem@@
fulminant
germination
valence
poll@@
medium-@@
ind@@
beta
pois@@
HV
residents
Pen@@
metallurg@@
hepatocyte
Estim@@
glomer@@
brady@@
cardia
bits
proximal
Dom@@
estic
potenti@@
ometer
electrically
illumination
selenium
sush@@
Toy@@
eau
unsteady
tability
balanced
cake
incineration
excitations
eco@@
Eul@@
analgesia
emerg@@
tomatic
roph@@
Mt
ej@@
Lewis
shu
thio@@
esterase
access@@
Hodgkin
occul@@
acetylcholine
geometry
canonical
serotonin
gastr@@
Gre@@
dres@@
emerged
MMC
Bur@@
deg@@
Char@@
py
commonly
preventing
actor
catar@@
phosphatase
ina
bif@@
Northern
endurance
108
polymorphic
wil@@
ylo@@
monella
opath@@
ient
formal@@
milling
meso@@
peritoneum
tol@@
highway
ests
motors
cent
nanoparticles
arities
comparative
iller
frac@@
Bacillus
lining
anisotropic
ultrasound
muscul@@
anastomosis
angiography
endur@@
heavily
toner
tening
youn@@
ophilic
autoantibody
acids
bank
escape
anus
curren@@
atopic
0001
00@@
intesti@@
effusion
absc@@
esses
analytically
discre@@
jejunum
smooth@@
oned
histor@@
ICA
neutrophils
selling
air-@@
adipose
Metropolitan
ov@@
Bureau
digestion
KI
labeling
grades
m-3
fewer
bral
passage
La
Ce
fluoride
epoxy
Government
eline
neutr@@
lers
SDS
interact
craft
AFP
A-@@
CEA
calibration
sand
neuropathy
ambient
dealing
EXAFS
Pb
Seven
abolished
drum
Other
sional
recombination
Experim@@
entally
curv@@
inear
heal@@
constriction
Eu
embryo
fibroblasts
Tg
-based
accre@@
ich
rab@@
uous
shifting
intering
38@@
arctic
somewhat
sing@@
ACE
PK
broncho@@
delta
ophila
cores
epti@@
stitu@@
exper@@
ano
0.4
6-year-old
alloys
nitric
sediment
catalysis
ambulatory
diab@@
Sat@@
ellite
30@@
coastal
Ben@@
ces
omy@@
superconductor
accep@@
Mean
cyst
responsiveness
morphine
Medical
ger@@
atric
approaching
accommod@@
weaker
erenti@@
scrap@@
gray
eye@@
crystallization
dynam@@
vig@@
airway
Auger
spectrometer
vacancies
silane
suppl@@
spic@@
overex@@
flare
indicator
discrimin@@
amino@@
transferase
stu@@
libr@@
intramolecular
superconductive
ths
dc
instructions
treat@@
oton@@
aux@@
distinctive
ppb
pg
normal@@
million
coordinated
cohe@@
locus
500@@
Ker@@
dase
alveolar
transcriptional
accounted
bacter@@
icidal
ECG
neg@@
cholangitis
Ten
1.0
exter@@
intellec@@
irrigation
schools
cks
th-@@
north@@
lipo@@
mu@@
formal
eping
properly
diastolic
mm@@
road@@
HCl
resi@@
gonad@@
otrop@@
react
itor
volumes
PID
epitope
atrial
crystallinity
mismatch
psychiatric
terrestrial
telecommunication
lowing
plots
dynamical
Sea
Similar
indicating
mV
Ly@@
resins
isolate
propyl@@
TRA@@
forearm
interpreted
olic
conjunction
electrochemical
amous
monomer
nylon
fluor@@
inated
sacri@@
apparent
coverage
fluorine
hull
opsis
iana
eng@@
cong@@
Austr@@
odes
ocycl@@
Ta
decel@@
morbidity
partic@@
aws
cubic
wrist
arrays
inventory
PKC
R-@@
fertilized
raph@@
prob@@
vascul@@
uld
spite
harvesting
played
ellular
initially
onn@@
ileoc@@
ecal
Buil@@
released
kDa
systolic
mmHg
pm
tracheal
homogen@@
sm@@
neumo@@
hyperplasia
key@@
cover@@
organo@@
Th1
plasmid
oscillating
tere@@
absorbing
fix@@
lyso@@
careful
lag
Lac@@
derivatives
moiety
guest
exerted
48@@
coincid@@
limestone
recrystallization
amorph@@
porosity
tail@@
ored
vement
ola
redundant
selec@@
haplo@@
pal@@
assign@@
casc@@
bifur@@
cations
aven@@
dish
spores
wi@@
homology
incubation
Mer@@
prospective
sulfate
complex@@
undergoing
cortico@@
dar@@
umin@@
cotton
olog@@
uring
nar
sor
tendon
Faraday
minimized
iden@@
Corp.
angiotensin
Sak@@
themselves
meals
earing
hematopoietic
localized
tubules
ogenous
instantaneous
osmotic
atization
Bri@@
Rail@@
poss@@
myosin
X-@@
tetra@@
TI
airs
CC@@
leaf@@
substituted
lamina
sionally
dissemination
transduc@@
sole
exclusively
lastic
thigh
filaments
accounts
scintigraphy
bility
retino@@
reserve
deco@@
-up
presum@@
antimicrobial
Hyogo
questionnair@@
idence
etes
gravit@@
clos@@
kal@@
Decre@@
blasts
untreated
subscri@@
1200
fertility
99
tup
totic
populations
stationary
Network
probabilistic
dissem@@
inating
rently
pseudo
remain@@
2.5
admitted
oro@@
consequently
bent
varic@@
insert
ave
siz@@
urin@@
tubule
departments
pas@@
mush@@
spore
gingiv@@
vice
oidal
abo@@
vesi@@
interlayer
drip
caudal
HV@@
singlet
triplet
matched
robustness
encies
bipolar
VEGF
accharo@@
cere@@
univer@@
astig@@
restricted
elded
fabric
cucumber
vus
Conventional
anges
microscop@@
networ@@
dence
iratory
21st
bulb
gan@@
compan@@
connec@@
contain@@
stra@@
allowing
compiled
placement
carb@@
reflux
Shim@@
Yokohama
ng
mL
OT
adenocarcinoma
aggreg@@
BCG
dead
dislocations
del
vs.
interchange
Ishi@@
U-@@
tled
stain@@
cess@@
necrotic
Contin@@
acidosis
orthogonal
>
tum@@
computer@@
LF
PBC
fast@@
isol@@
theses
brief
thromb@@
ept
pharmaceu@@
enteral
feed@@
occu@@
lever
gal@@
strand
callus
assessing
leaving
anatom@@
pyl@@
rectomy
tracing
jug@@
ptions
confidence
dying
homo@@
zygo@@
dilated
cardiomyopathy
Power
lex
terat@@
inte@@
ting@@
cum@@
endothelium
erature
marg@@
aug@@
Sal@@
trou@@
salmon
nucleation
shallow
fitted
freeze
Secon@@
Mass
90@@
playing
subtype
chiefly
roots
ounding
hydra@@
detergent
enhancing
there@@
glass@@
person@@
get@@
slur@@
eta
likelihood
cardi@@
otonic
rece@@
truck
Schottky
environment@@
mem@@
evalu@@
hydride
Inc.
intrinsic
nitrous
down@@
doubling
Kuro@@
bump
struction
retri@@
couple
homeo@@
stasis
antioxidant
exchanger
dged
bonded
finishing
ove@@
timate
metrically
soy@@
spin-@@
stellate
osteotomy
nine
alu@@
Kerr
Tb@@
qualities
transitional
dit@@
enrichment
Bio@@
calori@@
vin@@
multilayered
tosecond
PSS
synchronous
Thir@@
nem@@
unchanged
arization
involves
restor@@
XPS
S2
Contro@@
crystall@@
coexisting
120@@
,000
persist@@
symmetry
evap@@
put@@
tt@@
ceiling
torsional
prevents
Neither
Fundam@@
tubercul@@
lin
drawings
distal
superconducting
guinea
Distribution
bon@@
conical
fici@@
coagul@@
aking
Nippon
CM@@
Gas
light-@@
granul@@
ation-@@
going
erm@@
λ@@
forced
municip@@
titanate
amation
corresponds
hc@@
vertically
situated
Ra@@
dical
Sb
tru@@
tables
laminated
Advanced
ectors
leading
luminous
speaker
exfoli@@
Ha@@
shipment
Sap@@
phire
pector@@
larva
Gi@@
steril@@
Maximum
relax@@
bis
large-@@
positioned
vering
ove
A1@@
performing
PCNA
antiviral
achi@@
Questionn@@
impairment
inter-@@
entrance
burn@@
extending
orbit@@
degenerate
ags
simp@@
bub@@
nerves
synthase
gels
SF6
Syn@@
infiltrating
icing
enhanc@@
dyst@@
colony
intraperitoneal
possess
reach
moduli
WH@@
rich@@
anomalies
reco@@
evolved
span
cap
instant@@
pit@@
falls
pelvis
sized
concep@@
casting
kerato@@
conjunc@@
esel
analytic
diure@@
anti
duced
uling
ordin@@
anter@@
coccal
ritis
absorbance
beam@@
prescri@@
bes
ulic
extrem@@
solubil@@
eigh@@
earch
elemental
Hamiltonian
sudden
sible
aires
dichloro@@
entrop@@
logistic
alogue
soot
precursors
Neuro@@
detachment
Structural
aque
2.3
interacting
Eu@@
compensated
ices
contro@@
soldering
uss
interferometry
1,@@
farms
1985
diverticulum
insoluble
Safety
clou@@
TD
minimize
knock@@
bin
Hit@@
fts
agglutin@@
bed@@
veness
sha@@
emitting
polycrystalline
typic
maternal
ither
thermore
reac@@
CaO
sat@@
epidemiological
appear@@
mosaic
QoS
entif@@
thrombocytopenia
Stress
sensory
igh
aligned
projected
hundred
ever@@
decid@@
geometrical
diversification
fertil@@
elds
variant
itely
Navi@@
Stokes
jima
lam@@
align@@
cationic
homogeneity
omagnetic
invasive
melanoma
azole
attracting
idal
stiffness
Rob@@
commun@@
ticket
energetic
antifungal
Ig@@
yl@@
semiconduc@@
cross@@
entia
para
samp@@
dyl@@
thesis
LB@@
umb@@
oci@@
spins
Gri@@
liquid-@@
sitting
ric@@
manent
quarter
balancing
Laboratory
Ltd.
JR
2mm
controllers
standardized
immunostaining
baseline
ections
stat@@
histologically
ryp@@
transplant
chair
77@@
wearing
stoc@@
GR
fetus
7.@@
・
hyperthermia
angio@@
phosph@@
graf@@
remission
Sm@@
kJ
morb@@
enhances
idosis
generators
3-year-old
satur@@
cleavage
tra
accordance
accounting
Fun@@
gi
epid@@
opsy
sick@@
stances
lactation
ectic
run@@
Gaus@@
hig@@
conscious
roentgen@@
ET@@
attacks
methodology
assumptions
disclosed
aly
concomitant
follicles
1.8
oms
obviously
renin
ves@@
uma
cm@@
dol@@
fix
wave@@
randomly
outflow
sounds
interpolation
las@@
G2
lith@@
cuc@@
reson@@
neurological
inver@@
delivered
circumferential
Aug@@
mating
lar
PV@@
obliqu@@
cotyle@@
divisions
phthalate
plastic@@
izers
obenz@@
heterogeneity
shar@@
dispersive
age-@@
wt
appl@@
vec@@
sched@@
ules
tribu@@
off-@@
aching
thir@@
O-@@
projec@@
ari
tele@@
ventricle
echocardi@@
big@@
continuation
asses
somal
ansen
antiallergic
1.6@@
intro@@
denitri@@
μ@@
run
ogly@@
TPA
TM@@
testis
ede@@
anne@@
complem@@
potency
IL@@
localization
diffusivity
Elec@@
woven
ailing
cache
outlet
lymphocytes
FFT
convenience
mud
antibiotic
NF
ean
Earthquake
55@@
Long@@
diversity
Sr
pho@@
confocal
synap@@
aboration
Endoscopic
′
nois@@
wetting
39@@
excluding
ged
granulation
uter@@
2.@@
pharmaceutical
increasingly
attained
chromo@@
hypertensive
Tre@@
volu@@
Lagrangian
ylate
suppressive
supersonic
Lyapunov
difficulties
electrocardi@@
No.
fair@@
indications
erase
mening@@
lay@@
respon@@
ingly
fum@@
δ
longit@@
ude
woo@@
dy
isotopes
urethane
tiles
rheum@@
hemodialysis
measure@@
3-D
vitrectomy
Commun@@
suit@@
3.0
SHG
bare
Ham@@
micro-@@
hered@@
extra
thous@@
￣
ument
satisfies
Agency
refrig@@
ibr@@
settlement
vac@@
chlo@@
Carbon
aerobic
beneath
bench@@
immersion
method@@
guid@@
ferro@@
umes
atin@@
periodicity
agement
icro@@
detail@@
weigh@@
flurane
ZnSe
Water
gly@@
conformation
deline@@
infarc@@
fluoro@@
plex
Highly
devi@@
communic@@
sical
Cro@@
s-@@
myelo@@
redund@@
year@@
helical
proceeded
regime
belong@@
ultrathin
coron@@
thered
attentions
counsel@@
prolong@@
LPS
periodontal
ging@@
arge
ologists
primitive
assembling
plankton
Shink@@
lou@@
Mid@@
Engine@@
operatively
orph@@
displacements
pedi@@
birefringence
tear
Assuming
vable
corona
achieves
possibilities
dine
coma
soon
fore
ynx
surveyed
viol@@
extru@@
ethyl@@
enic
rhea
104
conductivities
spectrophoto@@
mesenteric
circumf@@
ousness
lun@@
198@@
0s
hang@@
PK@@
fish@@
ylene
intestinum
charges
Af@@
han@@
clouds
bal@@
ancer
isolates
Intell@@
incre@@
2nd
pyram@@
characterization
cervix
iers
CI
acceptable
adol@@
inium
ecological
sandw@@
cou@@
Emer@@
gency
ascending
genotype
thyro@@
idectomy
kerat@@
glob@@
TSH
0.3@@
equi@@
phase-@@
gastrectomy
ambi@@
breed
hybridization
ady
packing
LL
oratory
mit
du@@
exce@@
texture
Tok@@
lip@@
hormones
cathe@@
consist@@
leak@@
hypotension
palm
nic@@
overe@@
valu@@
abr@@
tumors
peo@@
Be
hepatectomy
transmittance
tab@@
advoc@@
recommend@@
cage
laying
success@@
stretching
splitting
intraocular
matous
ough@@
petro@@
deple@@
enriched
220
pharmacokinetics
categ@@
explicit
gel@@
shunt
embank@@
pond
ior
malignancy
te-@@
sensor@@
27@@
runoff
amplif@@
story
perforated
variational
cardiopulmonary
compaction
editing
organized
centered
bark
neutrino
fermented
liberation
versus
birefr@@
´
charg@@
acces@@
maj@@
alleng@@
nucl@@
3-@@
ophthal@@
stator
particulate
mediately
titude
800@@
ingredi@@
polic@@
tesis
amel
aggregates
spermat@@
isotope
carri@@
arre@@
iono@@
disturbed
epic@@
deform@@
win@@
lectin
flavor
surve@@
uted
partly
inde@@
Er
logarithmic
fear
extrap@@
clearance
receptors
clarification
q@@
cm-3
infections
underwater
Oc@@
Tw@@
enty-@@
constitute
chlor@@
consent
neo@@
supernatant
retinopathy
tion-@@
pumping
congenital
passi@@
dried
purple
allerg@@
scatter
bombar@@
modulator
reflectance
concern
esti@@
199@@
visu@@
pulver@@
pit
greatest
think
sten@@
superi@@
orly
ripening
mol@@
chann@@
Ω
anced
Ang@@
here@@
hybrids
F1
-old
1.5@@
half-@@
larval
3.5
frame@@
olig@@
tuber@@
MON
0.2
mach@@
ini@@
viruses
shap@@
On@@
hydroxy@@
prac@@
tices
a-@@
sealing
exha@@
industri@@
south@@
State
triggered
rophic
alt
metal@@
regulate
resected
engaged
arrest
epi@@
rs
sigmoid
assessed
ylase
kan@@
atyp@@
preferable
double-@@
orthog@@
aff
cognitive
traff@@
clinicopath@@
laun@@
ophilia
isons
ditional
Shin@@
Mach
sowing
bi
brachi@@
Sou@@
0.3
represents
percent@@
coast@@
Fe-@@
0.01
Fs
hexagonal
attributed
erythem@@
cei@@
aphy@@
bite
questionnairing
aort@@
pathway
lifesty@@
le-@@
impor@@
ittle
mesenchymal
onco@@
dial
ester@@
TN
ure-@@
bean
junc@@
diffusive
preferential
accid@@
insula
reservo@@
salinity
Surve@@
illance
lati@@
tudes
desc@@
pump@@
aded
forestry
primarily
cabbage
ca
harden@@
carbons
fell
add@@
absorber
axisymmetric
conserved
bra
AML
stirring
nitrite
behind
sedim@@
concentrate
di
T2
sig@@
OD
soci@@
RT-PCR
ested
hyalur@@
lox@@
past@@
plateau
dilution
dil@@
stac@@
packed
hemopoietic
CFRP
japon@@
icus
propell@@
remark@@
methyl
formulate
antitumor
meningitis
cocci
8-year-old
certific@@
guan@@
excav@@
need@@
ode
10-5
udes
FU@@
plank@@
carr@@
aspiration
linearly
resis@@
oupl@@
ω
shaped
sour@@
cing
plural
tol
180
mol
permeation
tened
characteris@@
dou@@
ancies
Human
inform@@
achiev@@
ushed
idne@@
generative
cartil@@
Xe
follow@@
strang@@
calcification
ph
disasters
Quanti@@
tative
scav@@
poi@@
etin
Lap@@
Rh@@
faction
integrity
Meth@@
hydrogen@@
ith
periph@@
-1
dichroism
metabolite
fron@@
4-year-old
airport
cystic
acid-@@
quen@@
high-resolution
unity
efflu@@
Foc@@
annihilation
awa@@
una
ea
ferring
pathogenic
cogn@@
tensive
use@@
photoemission
SIMS
Six@@
iae
hyperlipidemia
Central
help
uveitis
pacem@@
aker
Hyog@@
ken
groun@@
grounding
blades
urg@@
elong@@
turbin@@
firm
oppor@@
ido
permittivity
hydrox@@
xy@@
oxides
clear@@
<
0.05
strained
trypsin
low-cost
provid@@
st-@@
yl-@@
CoA
synthetase
1.9
Univ.
temperature-@@
loro@@
situ
mort@@
herpes
simplex
CD8
mutations
hemostasis
oglobin
catech@@
el-@@
period@@
primi@@
gol@@
neonates
recombinant
farmers
writ@@
vertex
atis@@
agne@@
nas@@
hr
dependently
Pb@@
syring@@
eth
requi@@
photonic
mediastinum
ograms
cultiv@@
bilayer
ν
rea
percep@@
ease
substituent
cholester@@
ective
zen
robo@@
represent@@
difficul@@
steels
tibial
eut@@
successively
tane
subunits
Kar@@
eld
Sci@@
destro@@
behavioral
hemodynamics
sprayed
engers
depressant
develop@@
fulmin@@
Possible
bow
main@@
traumatic
effic@@
pseudo@@
oline
Km
uptake
stitis
bloc@@
Al-@@
Not
efficacy
perfec@@
harm@@
eyn@@
orbits
gir@@
suffered
reness
wal@@
wan
osa
asthmatic
mp
dering
azol@@
encapsul@@
hydroly@@
lipoprotein
al-purpose
mess@@
Iw@@
chondro@@
Anti@@
manif@@
oxid@@
oy@@
lysis
hydrate
eric
doses
altered
cultures
inve@@
detectors
multic@@
τ
capabilities
quadratic
asic
metallo@@
ance-@@
granular
pathogenesis
ht
exchang@@
depolarization
ower
dosage
fluctuating
isotropic
sexes
Hol@@
erent
hemisph@@
hypoglycemia
ζ
conform@@
ace@@
administering
semi@@
obe@@
inity
laid
5,@@
Rho@@
ase-@@
degrad@@
suc@@
kling
NH3
Intr@@
Fish@@
ISO@@
,@@
implanted
tolerant
underst@@
Hiro@@
ink@@
sque@@
tling
foils
impeller
bling
N2O
CH4
failed
x-ray
income
sided
nant
rain@@
Computed
tomograph
endocardi@@
blow@@
YS@@
discharging
sucrose
autopsy
luc@@
lean
stres@@
57@@
BL
renormalization
immobilization
C-@@
hydrophobic
5mm
hepati@@
Additionally
implementing
stratified
turing
assay
platin@@
avascular
shri@@
online
enem@@
addres@@
surfactant
ocy@@
dispos@@
distant
struc@@
exterior
tok@@
asi
phospho@@
modifying
natal
productive
acchar@@
transparency
bars
monolayer
cysteine
Studies
dogs
yon
ranged
low-temperature
ground@@
fis@@
idus
2.0
thereby
HT
visco@@
plasm@@
locally
glycer@@
1.5
precursor
endo@@
rup@@
laryngeal
photocatalytic
cows
ezo@@
first-@@
fouling
names
interpol@@
lined
ago@@
ole@@
or-@@
Program
Fur@@
withdrawal
Continuous
geo@@
36@@
amorphous
ripple
repeat@@
eps
organizing
lasts
draw@@
vegetative
simulating
potent
tig@@
anol
Tor@@
ino
milli@@
DI@@
pto@@
Bec@@
pepti@@
Immun@@
Over
resid@@
combin@@
suming
stant
split
minim@@
lying
periodic@@
DNAs
appendic@@
resist@@
furthermore
securing
slower
plot
hierarch@@
hypertrophic
manifestations
aint
grassland
metast@@
sular
numer@@
abolic
ucid@@
astro@@
81
QT
anyl
whereas
pharmacists
adic
ferri@@
visualize
μg
Town
ithel@@
Comparison
teeth
IG
sintering
build
path@@
omorph@@
segmental
6.5
compositional
uncture
apon@@
seedlings
lings
Out
physically
Toshiba
euro@@
pumped
methacrylate
desmo@@
acetyl
intraoperative
ince
foli@@
alkal@@
fins
vention
eply
surance
osin@@
whol@@
arsen@@
abrasive
smoothing
expon@@
resultant
sed-@@
C1
pyridine
F-@@
d.@@
c.
reinforcing
parity
shrin@@
colonic
encap@@
enlarg@@
inclin@@
cam@@
MDA
District
mamm@@
subsequent
Rayle@@
impo@@
genotypes
ipal
intracranial
germin@@
renormal@@
deaths
vehic@@
proceed
Council
Coll@@
modelling
V-@@
attributes
time-@@
pronounced
epig@@
styrene
foc@@
bull@@
sump@@
minor
Maj@@
cleft
extir@@
synaptic
probl@@
sandy
encour@@
slu@@
mix
cyto@@
onate
erythemato@@
mothers
impl@@
intra-@@
P-@@
prepar@@
DR
minimizing
theore@@
m3
sterone
vinyl@@
Arab@@
77K
initiated
enema
opia
mentally
tropic
yi@@
distorted
Gly@@
schizophren@@
Ru
ean@@
±
directed
iomy@@
epilepsy
Consequently
suspended
deletion
all-@@
't
disrup@@
pull
blastoma
sities
propi@@
bust
locked
sustain@@
averaged
portions
34@@
upgrading
phosphor
volunteers
defici@@
blin@@
bromide
ity-@@
T1
μs
redox
cleared
geal
adverse
functionally
perceived
commercially
sup@@
atio
iral
verage
dise@@
cytokine
comprised
ed-@@
trained
median
pseud@@
Promotion
earthqu@@
ake-@@
communities
reasonable
Ti-@@
adjac@@
occipital
dosi@@
powders
blockade
monom@@
specialized
ethyl
→
haz@@
inguinal
C.@@
trem@@
pening
pyr@@
polystyrene
s.The
1,2
TiC
cholecystectomy
segreg@@
mirro@@
atr@@
commensurate
cir@@
house@@
i-@@
SU
sampled
copolymers
Local
substantial
accordingly
10-@@
senile
Preoperative
shoot
Cat@@
tight
strengths
sac@@
mandibular
scher@@
slopes
practi@@
O2
kb
day@@
cytokines
vor@@
mesenter@@
ission
ce@@
cylindr@@
bund@@
patterned
Exper@@
contractile
actin
yielding
aluminium
superficial
fet@@
zine
olec@@
2-
fung@@
iton@@
wooden
sured
seawater
declined
detec@@
proximity
dele@@
aldehyde
ses@@
groo@@
repeatedly
moreover
Intro@@
cm2
barriers
undergo
pros@@
sediments
ign@@
elec@@
friend@@
flex@@
in-situ
monit@@
Nx
blow
Steel
amethasone
Sm
Yb
acetyl@@
dization
restim@@
an-@@
assemb@@
pressurized
tonic
eosinophil
prominent
resp@@
ylon
uria
cytology
oug@@
Immuno@@
histochemical
RFLP
cran@@
ives
stry
ed.@@
brittle
erciv@@
ylic
YBCO
indu@@
≒
3.@@
1-year-old
precautions
M1
ligands
administ@@
viron@@
chy@@
Prote@@
chrome
oscopic
alog@@
fisheries
vessels
Fif@@
parturition
0.5@@
litis
aut@@
ventric@@
juven@@
PN@@
recep@@
TF@@
cholin@@
choline
2.6
swimming
jets
short@@
uneventful
peric@@
assess@@
160
Phy@@
amylo@@
fibrils
exciting
11@@
isothermal
deri@@
dang@@
Or@@
65@@
instruc@@
a.@@
aka
nurse
zeol@@
indo@@
sty@@
multivari@@
oxy@@
LPE
lac@@
convey@@
depths
accur@@
chromatographic
fibr@@
ultra@@
modal
hidden
‰
H3
possessing
issu@@
fibrous
wee@@
prolongation
embryos
ticated
distil@@
transducer
lenses
wth
H2O
‘
shall
four-@@
NiO
magneto
otides
Ir
Navier
ite-@@
standardi@@
Tsuk@@
uba
vomiting
fibrin
tubation
parenchyma
atro@@
sulph@@
comparisons
abrupt
Δ@@
breaking
restrial
embryonic
descriptions
swit@@
intravenously
railroad
65-year-old
gas-@@
PZT
encoded
iris
jected
immunoglobulin
sheep
clip@@
recycl@@
Heal@@
monolayers
ury
dimension@@
concer@@
neurons
xanth@@
skills
cm3
query
experim@@
auer
.The
brush
dows
sand@@
ayers
icos@@
interleukin
Gbit
Aiming
4.5
dip
clamp
last@@
coatings
ubiquit@@
ressive
tenue
osteob@@
tubul@@
ico@@
distin@@
350
periton@@
Scal@@
azepine
itic
dialogue
aspar@@
ada
batter@@
itsu
topo@@
ry@@
intim@@
swallowing
eo@@
istration
physicians
aming
cloned
myeloma
amin
lev@@
piec@@
computations
dissipation
.2
diap@@
pestic@@
pharmaceuticals
ocar@@
esophag@@
75@@
600@@
precipitates
alcohol@@
cessation
skelet@@
reservoir
implies
noc@@
quick@@
oku
polymers
coag@@
tomic
convul@@
bation
cyt@@
inous
ZnS
antagonists
ceram@@
purified
dair@@
fetuses
gestation
pose
vag@@
teoro@@
blotting
inhal@@
sol
eV
lightening
EGF
aints
consi@@
skull
encing
ske@@
clamp@@
4th
lignin
fare
Wistar
tough@@
MH
jejun@@
diurnal
aran@@
tee
philic
phosphorylation
gluco@@
embol@@
knowle@@
uments
ather@@
field-@@
evacu@@
meV
hydrostatic
orporeal
environ@@
anes
EDs
uco@@
power@@
histo@@
occip@@
erro@@
affor@@
instrum@@
ovirus
gn@@
aperiton@@
#
harbor
depend@@
gender
asth@@
nearest
violet
scop@@
chemically
kaol@@
suspensions
alysis
une
outpatients
ists
WR
recycled
asym@@
metries
glucocortico@@
prove
-free
ange
umber
atine
Ram@@
Photo@@
educ@@
aya
humidi@@
gang@@
estig@@
allel@@
Ta@@
nodules
crystallized
compati@@
Fabr@@
intram@@
γ-@@
inflam@@
lipids
wedge
commerci@@
AES
um-@@
grafted
Zr@@
propan@@
attemp@@
Infra@@
alco@@
Nip@@
false
tuations
gradu@@
angioma
Phil@@
Stu@@
thicker
300K
LiNbO3
inste@@
sp.
v.
sium
arthrosis
indic@@
extremities
tration
relativistic
hypophy@@
analge@@
cs
YB@@
tam@@
denum
disulfide
D2
bis@@
naph@@
NaOH
successive
hydroxyl
Temp@@
nodular
nozz@@
pac@@
89
thetic
radiative
ain-@@
nico@@
Parkinson
week@@
fabricate
certi@@
sacr@@
caro@@
tene
coloration
sequencing
inhibitors
Nb@@
ptococcus
ICs
carboxylic
recei@@
64@@
aris
exhibiting
phantom
predomin@@
inclu@@
habits
aspirin
vasodi@@
pellets
Admin@@
teorological
pancre@@
ultrahigh
pou@@
pathways
sophis@@
benz@@
keywords
ovary
histories
pathologic
proteinase
pleural
dation
asphalt
ointment
nd
ichia
toughness
anticancer
long-@@
tandem
tom
liber@@
ense
arrhythmic
hybri@@
.It
-related
refr@@
silicate
With@@
adenosine
aternary
subunit
Qo@@
essentially
atur@@
ese
histologic
thinner
tren@@
glomerular
atil@@
attenuated
oki
month@@
subst@@
ma-@@
1-x@@
Mor@@
toroidal
syno@@
leaching
Mal@@
HLA-@@
nesses
1.7
anese
Re
beneficial
stagland@@
compliance
NG
pyro@@
tetragonal
Pc
circu@@
schem@@
inhibit
Fre@@
combustor
wavel@@
B6
inelastic
ophylline
asia
Relation@@
degraded
screened
doc@@
erentially
antiferromagnetic
chromatin
recip@@
arc@@
anding
opathic
mat
osteocl@@
osteoclast
lumber
neoplastic
otide
macrophages
osteoarthritis
degenerative
etched
bovine
alkyl
shared
rom
heur@@
superlattice
suggesting
originating
escap@@
Lu@@
myocardi@@
Gs
pendic@@
tica
mycel@@
succes@@
450@@
fabricating
aps
adium
targ@@
ocardi@@
regi@@
dl
effici@@
prostaglandin
Bs
3D
trif@@
fractionation
vial
IOL
toler@@
5-@@
sequent
coded
atherosclero@@
stret@@
densi@@
blocked
ven
substantially
psycho@@
shor@@
uminescence
170
boat
lifting
eccentr@@
blastic
Stage
P1
me-@@
adhesives
ribu@@
ancement
manner
Theore@@
hab@@
Bridge
enty
seventh
4.1
dless
managed
″
fungal
suppress@@
remia
aerob@@
iotic
PPA@@
platel@@
bin@@
ration@@
mediastinal
F2
shut@@
rpm
8.@@
astically
Iso@@
graphical
open@@
ter-@@
fentanyl
asone
hypothyroidism
cath@@
anni@@
orally
unilateral
icide
polymer@@
mobil@@
Cancer
Ry@@
chemiluminescence
5th
barium
tants
ues
carbo@@
stereo@@
expres@@
ligation
Scho@@
tic-@@
compon@@
phyto@@
inning
pest
2K
byp@@
eosin@@
steroids
Pr
oint@@
san
cine
idance
remnant
fecal
avian
gyro@@
id-@@
stromal
grin@@
progesterone
single-@@
macular
tyro@@
β1
lobes
medial
pneumon@@
tually
test@@
intra@@
translocation
1982
phenolic
interf@@
chloro@@
satis@@
Jap@@
evoked
Nam@@
DN
marginal
ext
ld
horm@@
Eng@@
specific@@
tiary
ane@@
vated
hemolytic
shad@@
graph@@
springs
Cul@@
tripl@@
3O@@
7-@@
304
tum
above-@@
propyl
acrylamide
acrylate
hydrated
activator
caten@@
wri@@
g-@@
captured
vaginal
fairly
viscoelastic
tend@@
shif@@
1.3@@
jaundice
ed.The
thin-@@
opulmonary
cumul@@
illary
drug@@
-induced
ava
Far@@
mers
ditionally
T3
buckling
irrespective
spinning
liqu@@
imid@@
ticity
TGF-@@
°
phylo@@
butyl
mountain@@
kel
consen@@
pref@@
odi@@
flap
testi@@
catechol@@
dealt
M-@@
investig@@
cys@@
ventral
superlattices
uniform@@
kne@@
possesses
Ano@@
inlet
CSF
structive
plant@@
aquatic
paro@@
tid
hosts
orientations
26@@
conn@@
grading
necess@@
crystallographic
aceae
hypothe@@
amate
intact
discipl@@
plast
absorb@@
pediatric
onephritis
aided
aic
dams
85@@
titers
osacchar@@
sidase
repres@@
se-@@
spleen
corneal
stroma
ema
metam@@
Intellig@@
3rd
severely
multiv@@
enor@@
psychotic
anti-inflammatory
Radiation
planted
discus@@
massive
los@@
aor@@
hospit@@
vitis
inhomogeneous
proteinuria
Frequ@@
W-@@
rein@@
postoperatively
perioperative
compli@@
torsion
neum@@
onia
hol
TH@@
expenses
casp@@
atical
tosis
helpful
nodule
gue
alcoholic
thorac@@
Nov@@
cataly@@
tric
ultrason@@
possibly
yz@@
tob@@
N2
immer@@
isom@@
CO3
process@@
moid
mater@@
numb@@
en-@@
spent
pad@@
SQU@@
SPE@@
Dou@@
ery@@
athe@@
elas@@
Th2
probably
proof@@
efflorescence
lymphadenectomy
Upon
pits
melted
brigh@@
dents
labor@@
intercal@@
retin@@
buil@@
wed
pra@@
2,@@
demonstr@@
β-@@
ipl@@
phosphatidyl@@
salivary
metrical
inter
Pa
transfer@@
swollen
dentin
dos@@
splen@@
keratin
p.
propor@@
Cl2
400@@
epitaxially
Dop@@
suscepti@@
bilities
EDTA
decompression
21@@
conditioners
exhibi@@
Heavy
carp@@
lamellar
tachycardia
explicitly
Detailed
tunnels
Industries
glycine
ligament
Liqu@@
BU@@
loci
enthal@@
lapse
anal@@
probabilities
SUS@@
0.8
monkeys
deod@@
anion
photocurrent
osclero@@
succin@@
dism
waters
linac
GeV
0-@@
Ls
cyclohex@@
tonian
heimer
lary
poly-@@
effec@@
phenols
girder
orbitals
invasi@@
.5
guides
cyclosporin
corne@@
osmo@@
oxygen@@
narrowing
-gel
contral@@
ateral
alve@@
olus
transform@@
ascorbic
trapped
KCl
spher@@
s.
histi@@
with@@
rati@@
ventr@@
$
plasmon
menopausal
tempor@@
spatially
y.@@
ether
techniqu@@
eses
thrombocytop@@
microscopically
owing
ieties
glycoprotein
dehydrogen@@
suppor@@
prur@@
dysplastic
oglo@@
abs
usting
dox@@
.S@@
retar@@
ranial
deuter@@
ific
Concer@@
ovari@@
neuronal
ascribed
anal
impregn@@
NO2
hypox@@
123
transformations
mediate
C60
tachy@@
2D
sintered
cereb@@
Kaw@@
moly@@
Tai@@
beyond
blast@@
axis@@
{
}
consum@@
CD4
mosa@@
fur
5.6
3.2
descen@@
ion-@@
2.2
F3
preoperatively
anning
lymp@@
deposits
electrophoresis
glutin@@
sens@@
staff@@
telom@@
asc@@
floo@@
impaired
cein
≦
pressu@@
neighbor
mites
liberated
mir@@
vices
chor@@
Sb@@
DS-@@
capsules
buff@@
thousand
reconstruc@@
sarco@@
parathyroid
gran@@
3.3
Simul@@
stood
algorith@@
M.
0.9@@
yielded
ket@@
tunable
poly
obtain@@
correcting
germ
yrene
sera
CDDP
Os@@
gratings
entirely
Fol@@
lavage
dextr@@
biodegradable
epitop@@
H-
manipulator
mixtures
irreversible
tub@@
devel@@
machin@@
x-@@
neoplasm
likely
disast@@
lact@@
enes
hydrothermal
despite
dment
arachnoid
0.7
F.
anch
drivers
erator
distor@@
tissu@@
maturity
capsul@@
tokam@@
ABA
graded
Nat@@
linewidth
damp@@
AMI
perturb@@
Amon@@
metri@@
10-4
ello@@
vs
99.@@
1.3
10-3
reared
topological
iditis
anions
immunohistochemistry
EDM
emer@@
Wist@@
aneously
onation
87
curr@@
icular
δ@@
Jan@@
where@@
amyloidosis
fiel@@
constr@@
pellet
oids
variants
lorescence
concretely
envelop@@
liter@@
urtic@@
PU@@
angiogenesis
teral
Conclusion
Sign@@
nally
ISA
semi
sulfur@@
FU
nitro@@
biore@@
allow@@
37@@
merg@@
stoichiometric
pational
cytoplasmic
ophils
RN@@
Σ
exerc@@
attempts
tensin
Ant@@
sial@@
olfactory
clarif@@
compressible
sero@@
rele@@
involve
evident
omer
ISO14@@
galacto@@
2.5@@
izophren@@
hn
A.
aspir@@
scaled
omas
seed@@
Euro@@
lion
deman@@
Histological
Bu@@
ti
fauna
accessory
aine
f-@@
immunohistochemical
aniline
volt@@
4.8
propofol
O3
exacer@@
θ@@
stones
MOSFETs
sac
recogn@@
cutoff
vities
corn@@
parabolic
fab@@
charge-@@
antagon@@
Is
orific@@
spaces
explore
sinus@@
Δ
cardio@@
perform@@
workability
some@@
neoplas@@
leiomy@@
secon@@
auricular
ty@@
Candid@@
anaphy@@
H2@@
agonist
transit
myx@@
complementary
ocytop@@
fasting
Before
yr
chondri@@
ocellular
R.
1000@@
thermia
canopy
vena
cava
urination
μ
20-@@
analogous
S.@@
membran@@
proce@@
ANP
Cu-@@
endoscopy
ov
ophi@@
calc@@
lysozyme
gastrointestinal
secret@@
Mei@@
colonies
psoriasis
B1
stoch@@
scl@@
autom@@
diox@@
iod@@
φ@@
synth@@
para@@
hippocamp@@
sors
100-@@
cm-1
hombic
establ@@
explained.@@
7th
M2
ophil
polyacrylamide
dose-@@
triglycer@@
1mm
criter@@
ArF
diame@@
adj@@
leptin
earli@@
Cl-
isely
degrading
resul@@
entific
dendr@@
anorexia
Reactor
outcomes
fing@@
perg@@
ellum
ovi@@
plasts
proced@@
ulf@@
quantit@@
。
electro
myo@@
metrial
een
adec@@
transport@@
immunoassay
IU
natur@@
atrium
symptom@@
BaTiO3
3,@@
seman@@
s.@@
stands
ameth@@
grass@@
terization
-1@@
gasi@@
inus
BER
piles
desulfur@@
Multi
med@@
C4@@
follicular
L.
iasis
sever@@
superconduc@@
antagonist
biotic
mammalian
cytometry
biodegrad@@
ops
ci
insulators
polymorph@@
hence
demon@@
super-@@
quadru@@
cles
confir@@
isotrop@@
miner@@
mosph@@
1.2
β@@
hil@@
ine-@@
stabil@@
rite
martensite
discrep@@
brom@@
rency
tas@@
Helic@@
igata
zoster
l-1
hoku
readily
oll@@
member@@
pear@@
deviations
of-@@
lactate
dehydrogenase
taxa
piv@@
echocardiography
bom@@
cis
hot-@@
suscep@@
alled
inhibiting
CYP@@
spasm
quad@@
nan@@
gradual
1.4
thym@@
somes
endotoxin
TNF-α
ashing
η@@
antimicro@@
sphero@@
exud@@
enh@@
yu
chip@@
grow@@
Hence
physici@@
cell-@@
tetrac@@
hydrogenated
bilirubin
onucl@@
gut
toff
transmit@@
glyc@@
eyel@@
estic@@
predicts
conformal
choroidal
ally-@@
PO4
epileptic
load@@
fluorescein
fluores@@
permits
histopath@@
dim@@
preferentially
pitu@@
8.5
choo@@
ubi@@
0.6@@
neph@@
lymphocy@@
ophyl@@
scape
acceler@@
cin
rd
1-x
mediastin@@
six@@
amines
2.8
fraction@@
ubiqui@@
aton
stir@@
karyotype
fabric@@
Gd@@
erarch@@
spra@@
configur@@
beds
moment@@
T4
sub-@@
vaso@@
collo@@
ein
ingdom
laser-@@
administrated
avage
elem@@
older
redo@@
cribed
mononuclear
depressive
B-@@
3.0@@
deck
neigh@@
clon@@
typically
↓
stero@@
nick@@
isson
zy@@
commensur@@
til
saliv@@
stepwise
lobectomy
ermis
ε@@
confin@@
C2@@
sud@@
osine
vide@@
vered
centrif@@
stress-@@
-time
androgen
attenu@@
shadows
erization
holog@@
rams
assive
suffici@@
voltam@@
immunoreactivity
corticosteroid
tween
flexural
pericardi@@
pher@@
therm@@
Lake
ulcer@@
olip@@
〔
ventional
〕
ultrafine
occlu@@
pyri@@
cally
intermetallic
citrate
ogenetic
33@@
ductile
succ@@
cylin@@
antiv@@
greenh@@
precip@@
originate
Bay
Y-@@
metall@@
inser@@
50-@@
restr@@
2.0@@
tibia
j
strength@@
0.25
macro
iling
pharmaco@@
import@@
mini@@
subarachnoid
itan
methoxy@@
smokers
□
canti@@
karyo@@
pathophysi@@
acetonitrile
hystere@@
4.2
whole-@@
enzy@@
elihood
atically
2O3
azep@@
nerv@@
pel@@
metastases
mechanically
RT-@@
Scanning
C2
endometri@@
micel@@
ulo@@
kai
worl@@
megal@@
poorly
adenocarcin@@
reperfusion
Distr@@
S.
suspen@@
e-
esia
MMP@@
L1
amplit@@
3.5@@
aths
Al2O3
retrospectively
fra@@
transi@@
andom@@
debris
wea@@
preven@@
Histologically
zircon@@
anil@@
displac@@
O4
Φ@@
Fas
hepatoma
superconductors
illin
methan@@
surge@@
toid
thers
eties
spawning
ometry
moderat@@
9-@@
gangli@@
stal@@
idy
strepto@@
diagonal
cardiomy@@
ept@@
0.8@@
itly
Ky@@
Nak@@
not@@
trans
hepat@@
trimethyl@@
endothel@@
blic
Da
C3
achment
gravi@@
Gover@@
encoun@@
presumably
inclusions
constrained
obut@@
〈
〉
.3
impreg@@
inqu@@
Si-@@
bust@@
prolif@@
ocytic
putative
sociation
behavi@@
probable
solitary
aldosterone
papillo@@
opac@@
shima
3.4
substr@@
four@@
dimethyl@@
bound@@
ary-@@
bial
enedi@@
dry@@
8-@@
uric@@
wheel@@
globulin
250@@
aphylo@@
≧
methylene
0.4@@
0.9
phore@@
octa@@
bundles
fluc@@
pathohistological
varices
uncertainties
compu@@
catalyzed
deterministic
≪
nanop@@
heav@@
austenitic
Isl@@
JAERI
arrang@@
veloci@@
zer
chitosan
2.4
current-@@
plasmic
dissi@@
nanotube
derma
disulf@@
cisplatin
sligh@@
na@@
versity
vertigo
stell@@
tia
AZ@@
1.1
cryst@@
anol@@
intussuscep@@
Apri@@
testosterone
photocoagulation
Co-@@
twor@@
cytokin@@
lad@@
quinone
splenic
detectable
Despite
cultivars
isomers
μM
1.8@@
Ltd
preferred
sphe@@
glassy
sp
molec@@
recor@@
neutrophil
herbic@@
patter@@
enamel
photovoltaic
bio-@@
capillaries
A1
Reyn@@
itri@@
ard@@
crystallo@@
depress@@
relapse
annihil@@
metabolites
sugars
icks
agno@@
No.@@
MOS@@
cephalus
phylogenetic
onuclear
canop@@
acin
calcemia
lymph@@
mm2
temperat@@
dysp@@
ty-@@
clinic@@
thrombin
∞
accord@@
osan
Almost
HIV@@
precipit@@
nary
poro
billion
decentr@@
skel@@
colli@@
liposomes
endoc@@
dural
isted
umn
adop@@
odon@@
α@@
immunohistochemically
buds
\
extre@@
quinol@@
chrotron
epit@@
fav@@
ylated
microstructural
helic@@
esters
embry@@
1.6
enanti@@
sil
depen@@
Arabidopsis
primers
ardous
osen
NA-@@
tude
pre
π@@
γ@@
tlement
teles@@
filam@@
UV-@@
vesicles
nig@@
quasi@@
consecu@@
4,@@
copolymer
saline
g.
P.
conspic@@
electroly@@
6-@@
endoplasmic
reticulum
hematuria
m2
assium
orption
1.0@@
ped@@
prefer@@
ayered
mitral
uning
adrenergic
platin
acidi@@
easi@@
exemp@@
genetically
obstructive
4.3
releasing
second-@@
decomp@@
B.
collagen@@
bene@@
shore
SO2
cholecyst@@
worsen@@
intell@@
benzo@@
glandular
monary
ozo@@
progres@@
0.001
residu@@
igen@@
E1
anthrac@@
spectr@@
agic
1,000
σ@@
B2
studi@@
orb@@
submucosal
tem
6,@@
hepatocytes
glycerol
centrifug@@
multilayers
consci@@
leuko@@
.In
monomers
paraff@@
125@@
ko@@
isomerization
megaly
1st
allin@@
0.2@@
esty@@
7.5
inhe@@
colon@@
anisotrop@@
audit@@
Pse@@
ichi@@
ingu@@
6.8
phenyl@@
hexa@@
opposi@@
atmosph@@
adreno@@
amphi@@
tigo
admin@@
Bure@@
foci
cerebro@@
3.7
accum@@
rophyl@@
ammon@@
herein
describ@@
examined.@@
asto@@
cholesterol@@
apo@@
Ni-@@
Ear@@
itance
hydropho@@
sufficiency
thern
diagno@@
Cl3
discri@@
Ω@@
yclo@@
2Cu@@
bauer
umin
nov
augmented
oking
trifluoro@@
stered
ophosph@@
mucinous
shoots
Thail@@
immunoreactive
2O@@
vesicle
conv@@
longitud@@
SnO2
d-type
idin
sput@@
lymphoid
glands
situ@@
life@@
3.8
Si2
proceeds
S1
ady@@
31@@
reductase
naphthal@@
meas@@
factor@@
ithiasis
30-@@
SiH4
espec@@
cytotoxic
colum@@
electrophoretic
diag@@
midine
enterpri@@
u-@@
roun@@
ω@@
Four@@
fashi@@
amoun@@
2.7
mesen@@
e.
polyst@@
metalorganic
conventi@@
leukin
dehy@@
G.
yellow@@
Ca2
alumin@@
spectively
thyroidism
WW@@
tories
abdo@@
dnisolone
4.0
metic
apical
α1
anastomo@@
cytotoxicity
poreal
manufacture@@
3.6
excitons
alia
reticul@@
princ@@
Twenty
β2
machined
mito@@
κ
event@@
secu@@
oocytes
porcine
ficially
uter
spontan@@
ots
73K
5.0
atings
Counc@@
4.7
6.2
omori
apoptotic
abst
us-@@
reas@@
introduced.@@
epil@@
ary@@
e.@@
omers
IFN-@@
R1
12-@@
NbO3
abec@@
ade@@
multil@@
pix@@
psy@@
yri@@
Γ
onas
3K
surfactants
perio@@
∂
amen@@
osteoporo@@
alkyl@@
700@@
estradiol
lanth@@
gered
Pac@@
questionn@@
bered
coer@@
01
Pase
Amer@@
ERI
5cm
-3
nanoc@@
.1
ectom@@
condition@@
nod@@
HIV-1
anionic
cephal@@
irrig@@
relation@@
acillus
astin@@
inhibi@@
E2
Shiz@@
pseu@@
as-@@
otomy
famil@@
fos@@
icon@@
ows
metal-@@
ξ
sumptions
aper@@
step@@
pneum@@
15.@@
intersti@@
opho@@
0.0
control@@
lubr@@
Tsu@@
near@@
predominantly
advantag@@
depres@@
septal
T.
2p
ferred
tri
Kore@@
kg@@
2O
d.
NF-@@
a-Si
azo
imer
prelim@@
hemodi@@
stoichi@@
anomal@@
gone
perovskite
pating
fruc@@
aldehydes
speed@@
CH3@@
tose
responsive
bal
《
volun@@
13C
Measure@@
autions
accoun@@
pene@@
IL-6
Λ@@
yar@@
absent
oxy
4.2K
Tum@@
oneph@@
elecom@@
Kyo@@
velop@@
diets
H1
glac@@
sten
param@@
puber@@
yolk
ced@@
crosslinking
prep@@
0.15
0.00@@
acryl@@
onitrile
Cl4
let@@
erup@@
aneur@@
duoden@@
incubated
withdraw@@
apun@@
rangian
fund@@
endometrial
block@@
antenn@@
Golgi
cm-2
distric@@
9.5
reinforc@@
elongated
Cr-@@
andro@@
thymo@@
hyperlipi@@
,000@@
pollin@@
possi@@
acade@@
wild-type
pede@@
viability
olds
extinc@@
Histopathological
5.5
blems
1D
10-6
1.2@@
okine
conformational
Alg@@
aldo@@
pse@@
deaf@@
testic@@
ocene
hep@@
tid@@
nanotubes
ectopic
3-
fist@@
insec@@
seven@@
uary
Si3N4
follic@@
light@@
heterogen@@
grafts
thickening
seph@@
1H
NO3
topical
pler
shio
A2
suppres@@
Agr@@
s-1
2O4
imens
6.7
ocyanate
his@@
sporin
es.@@
described@@
murine
injections
10mm
diabatic
√
concomit@@
yel@@
κB
istered
microstructures
emphysem@@
phrine
3cm
ZrO2
enrich@@
recombin@@
lup@@
synerg@@
parathyro@@
syndro@@
commer@@
←
mammal@@
glomerulonephritis
citrus
assembl@@
comb@@
cis@@
inhib@@
engine@@
eras
izoph@@
none
canine
∝
echn@@
BMD
barri@@
comit@@
joint@@
blad@@
propo@@
carbonyl
2cm
domonas
morphologically
embr@@
lymphaden@@
axia
_
turition
cadian
vol
immunodeficiency
voltaic
ologous
incis@@
munic@@
strati@@
austenite
respec@@
More@@
D1
singul@@
H4
lysine
14.@@
conclusions
pregn@@
3He
Institu@@
imide
datab@@
GF-@@
cry@@
mes
bov@@
ulc@@
muth
ψ
Σ@@
atite
arrhyth@@
ubin
pop@@
qualit@@
Lew@@
cobal@@
bear@@
shiba
parathyroidism
world@@
avas@@
neighbor@@
υ@@
1s
undifferentiated
D3
chymal
parenchy@@
N.
magnit@@
oligosacchar@@
nox@@
combust@@
drained
Environ@@
aber@@
cyste@@
charo@@
resour@@
mion
4f
substituents
O2-@@
3.1
bol
nited
Surg@@
assays
simultan@@
iming
mandi@@
99@@
hydroxy
N1
turbul@@
pall@@
Soci@@
cav@@
spaw@@
i.@@
odic
τ@@
perovsk@@
chlorophyl@@
ble-@@
crosso@@
acyl@@
SrTiO3
Υ
dix
hormon@@
SO4
recrystall@@
2.9
glycemia
chemil@@
cholecy@@
Europe@@
Americ@@
emplo@@
4.4
lipi@@
Lt@@
parently
uve@@
Ψ@@
Ψ
agonal
arith@@
dimethyl
NH4
poietic
leukemic
^
trun@@
dn@@
exhib@@
Bol@@
V.
angitis
increas@@
pist@@
seizures
ductal
ρ@@
16.@@
Sept@@
.4
≠
pathogen@@
structurally
depart@@
ν@@
undoped
papill@@
satell@@
kinson
protein@@
pendul@@
stim@@
…
progr@@
waste@@
regar@@
How@@
epitax@@
thalam@@
ults
-year@@
reci@@
eved
roidal
ttky
lycer@@
fric@@
quit@@
Fir@@
F4
0.02
dodec@@
Cu2
2O5
demia
Okin@@
eosinophilic
U.S@@
strat@@
garb@@
usea
hosph@@
apunov
7,@@
benef@@
ember
hepar@@
iety
pon
pren@@
noid
aser
lime@@
purpur@@
ted.@@
ー@@
fol
fent@@
empir@@
pesticides
ation.@@
Indu@@
efly
poration
redi@@
impair@@
RHE@@
phosphati@@
vestock
moti@@
examp@@
dice
I.
commerc@@
pari@@
explic@@
hyal@@
bulin
marten@@
immunoglo@@
lamp@@
alterations
antation
uoka
umbil@@
PAGE
Engl@@
reason@@
diploid
parox@@
bam@@
dog@@
mitotic
so-@@
capill@@
vie@@
arcoma
ballo@@
entum
mobiles
.As
μl
Γ@@
Ba2Cu3O@@
spas@@
♯
epilep@@
feasi@@
aneurys@@
.A
testo@@
iodi@@
ο
onitr@@
dominal
Θ@@
Ln
@
atoid
astomo@@
coeffici@@
P2
agricul@@
intered
3H
dm-3
ircon@@
prostagland@@
cirrho@@
apop@@
axisym@@
chemic@@
membr@@
bey@@
calorimetry
eeded
fluo@@
embed@@
opin@@
menop@@
kidne@@
⊆
austen@@
diaph@@
ipating
Ο
ancial
seroton@@
CH3
gland@@
engths
ingence
esterone
YBa2Cu3O@@
bard
LA-@@
var.
ercivity
composi@@
compri@@
Bi2@@
Industri@@
more@@
electrophore@@
onec@@
inhibit@@
ormal@@
flur@@
initis
2n
kine
intus@@
Φ
neon@@
tolu@@
‖
immobil@@
enab@@
Mitsub@@
≫
ascor@@
ceived
TiO3
Univ@@
continence
∇
ι
ejun@@
isolone
arest
ζ@@
s.1
dropl@@
ο@@
Π
bated
alter@@
⇔
fres@@
advant@@
veral
aired
Govern@@
bilir@@
giv@@
intraperiton@@
rhy@@
≡
molyb@@
ounced
sudden@@
phosp@@
Å@@
princi@@
ustr@@
‡
Conclu@@
Febr@@
grasp@@
d.The
triflu@@
cols
previ@@
oung
exac@@
Earthqu@@
【
】
controll@@
reme@@
△
algebra@@
cervi@@
aundice
⊥
Hokka@@
actile
bris
regurg@@
collag@@
2Cu3O@@
rices
aday
macroph@@
¨
↑
aldehy@@
Shik@@
mous
sai
vitre@@
χ@@
ationic
TNF-@@
cytoplas@@
「
」
tizens
onical
∽
immunore@@
supernat@@
Ferm@@
abled
trajec@@
estradi@@
§
hysem@@
Ξ@@
dispensable
Ξ
throm@@
Escher@@
∈
exca@@
Kago@@
require@@
creatin@@
Brag@@
ophis@@
obvi@@
ξ@@
instr@@
coerci@@
Π@@
isotop@@
Joseph@@
cence
Pati@@
dyspl@@
oya
ischem@@
unevent@@
bage
Β
primar@@
hiba
bectomy
▽
idopsis
ohama
suspensi@@
♀
cording
aure@@
ausal
crystallin@@
ψ@@
Χ
♂
sent@@
uncer@@
3N@@
corti@@
countr@@
before@@
seiz@@
Alz@@
Τ
hypoten@@
yol@@
⊂
∫
ticulum
embl@@
surfact@@
abnormal@@
ffe@@
`
anore@@
embrit@@
☆
plut@@
strial
insom@@
`@@
pemp@@
ovsk@@
harv@@
aph
antibio@@
÷
individ@@
vess@@
martensi@@
Ι@@
great@@
Octob@@
¬
mittee
∩
υ
∧
probabil@@
sedi@@
Stok@@
apoplex@@
thqu@@
deteri@@
robust@@
Κ
idism
arching
satisfactor@@
．
imu@@
Ε@@
luted
£
uncertain@@
ι@@
brae
ossible
help@@
Moess@@
orthor@@
hemis@@
citi@@
Ν
『
』
＼
∪
lero@@
Κ@@
Heisen@@
orith@@
с
estionn@@
cholec@@
partment
immunohisto@@
adily
Β@@
†
ollen
−
parath@@
tivitis
Ρ
Χ@@
Si3N@@
（
）
suggest@@
larv@@
Η
⊃
》
∠
Τ@@
Η@@
П@@
eochromo@@
tropolitan
Ζ@@
‥
mities
◎
fabr@@
elecommun@@
，
Ο@@
pelv@@
