at
present
,
the
document
manual
is
used
in
transfer
assistance
of
muscular
dystrophy
patient
.
finally
future
perspective
described
then
important
technologies
common
to
inver@@
ters
are
summarized
they
explained
technology
dna
analysis
utilization
disease
relation
gene
medical
treatment
12
6
fields
introduced
this
an
introduction
a
liquid
crystal
property
evaluation
apparatus
it
expected
contribute
for
establishment
plan
and
diagnosis
guideline
by
these
ebm
clinical
epidemiology
research
which
accuracy
high
has
been
required
partial
oxidation
reaction
methane
cases
died
europe
same
trends
insolation
heat
single
sheet
glass
compound
was
analyzed
usage
inside
relay
treated
external
preparation
diagnosed
as
sclero@@
sing
pan@@
n@@
icul@@
itis
case
1
female
64
years
old
necessary
point
through
viewpoint
assist
confirmed
factors
characteristics
prediction
ma@@
yor
judges
propriety
acceptance
electric
power
china
india
indonesia
thailand
philippine
world
bank
types
tire
manufacturing
system
parameters
ed@@
ited
database
insufficient
there
exist
many
absorption
bands
stored
with
in@@
accurate
value
typical
application
inverter
tree
illu@@
stration
showed
item
composition
new
standard
today
classification
3
)
eng@@
el
widely
operation
result
fixed
verified
experiments
sle
kidney
transplantation
results
good
group
plate
fixation
energy
amplifier
depends
upon
its
transform@@
ers
conden@@
sers
functions
pat@@
sy@@
s
were
example
support
systems
state
hospice
relaxation
care
recent
dvd
rapidly
spreading
arranging
while
p@@
ct
's
history
significance
problem
ideal
way
proposed
no
side
effect
vas
improvement
accepted
person
cerebellum
stimulus
addition
grating
photo
ick
k@@
asi
knowledge
about
schizophrenia
interview
specification
helium
refrigeration
detection
rate
lesion
rose
pulse
inversion
harmonic
imaging
using
lev@@
o@@
vis@@
t
postoperative
course
observation
mra
seems
have
already
established
palliative
team
(
consultation
type
general
ward
noticed
suggest
nutritional
us
pork
exemplified
ent@@
re@@
pre@@
neu@@
r
network
bo@@
ston
region
promotion
mechanism
mit
outline
purpose
features
qa
cr
shown
variable
dispersion
compensation
vessel
developed
sewerage
promoting
organization
1992
paper
introduces
circumstance
fiber
apparel
industries
vietnam
complications
observed
several
rom
improved
ps
drug
therapy
deterioration
improving
tendency
circulation
nitrogen
global
environment
main
posi@@
tioner
process
industry
following
reported
emul@@
ator
mat@@
roid
presented
unjust
program
arising
internet
design
characters
circuit
first
half
thermal
decomposition
pmma
combined
product
hap@@
ten
b@@
sa
obtained
pattern
shape
substrate
antenna
examined
increase
allergic
chemical
substance
living
indicated
straight
line
fitting
hough
transformation
man@@
h@@
att@@
clothing
district
u.s.a.
york
pl@@
ec@@
tran@@
th@@
ol
radical
erasure
activity
mainly
two
subjects
be
studied
electron
ffag
nuclei
black
sphere
catalyst
producing
mixed
gas
clean
h2
from
co2
co
recently
evaluated
urely
fit
prognosis
surgery
committee
il@@
ae
ap
scoring
points
hip
joint
risk
carcinogenesis
radiation
exposure
modified
various
development
trend
demands
jis
voluntary
third
inspection
thought
certification
75
fresh
fracture
mri
bearing
concepts
growth
gan
algan
including
aln
tried
structure
oscillation
principle
laser
smes
amino
acid
hplc
difficult
that
electrode
connected
nano
scale
wiring
concept
small
control
multipurpose
complication
block
advantage
limit
d@@
qe
describes
definition
judgement
therapeutic
ethanol
injection
volume
furthermore
model
hardware
softwares
hot
swa@@
p
degree
obesity
japan
may
differed
those
west
jd
goal
action
stated
discovery
genes
related
life
their
function
revealed
participation
signal
transmitter
topics
researches
on
aging
20
pairs
contrast
usefulness
answer
proposal
technique
mounting
ship
noise
uses
sea
method
cell
polarity
mentioned
basic
constitution
consists
ram
cartridge
connection
cable
c@@
com@@
m
handles
nc
data
between
pc
bone
density
outlines
equipment
protocol
next
explains
sources
move
parts
mo@@
v@@
ing@@
hand@@
ler
assembl@@
y@@
events
plo@@
t@@
poin@@
objects
methods
surveillance
integrating
f@@
sensor
actuator
prospect
shows
activities
develop
floating
container
terminal
smon
report
questionnaire
conducted
request
guidance
side@@
walk
collected
shi@@
bu@@
ya
photographs
condition
trna
molecular
mim@@
ic
translation
protein
factor
clarified
extraction
strength
neural
discussed
production
dependent
petroleum
most
raw
material
fossil
resources
causative
expectation
plug
long
period
having
large
supply
potential
revision
quality
title
situation
crps
early
demonstration
reactor
optimum
source
personal
computer
private
capital
ip@@
business
rotational
temperature
spectrum
oh
band
understanding
self-@@
medication
basis
education
otc
answers
107
hospitals
recognized
examination
standpoint
influenced
defense
reports
organic
flexible
display
pdp
q
15@@
001
privacy
mark
multi@@
project
discusses
software
structures
an@@
ap@@
hor@@
processing
machine
information
i@@
he
dicom
reviewed
integration
profile
hamil@@
ton
lowering
motor
area
quantum
deformation
vir@@
as@@
oro
algebra
defined
explanation
article
lan
oxygen
concentration
three-dimensional
image
acquisition
heart
rat
coal
esr
probe
traders
who
familiar
metal
department
few
cri@@
es
symbiosis
nature
qol
gradually
rises
9
equal
before
crisis
residual
strain
must
avoided
order
shorten
electronic
module
tissue
ln
ventilation
copd
patients
limits
daily
economy
easy
ecology
web
service
started
response
behaviors
species
against
soils
though
dispersed
each
session
being
announced
papers
monitor
measuring
space
shut@@
tle
experiment
se@@
pac
combine
engine
cv@@
conductance
strongly
semiconductor
surfaces
serial
physiological
brain
follow-up
test
abnormality
pseudomonas
genus
hydrogen@@
ophag@@
bacteria
effectiveness
simulations
applications
performance
correlation
fibrillation
cartilage
sensors
wide
enlightenment
unknown
determined
powder
diffraction
10
beginning
guided
ref@@
rain
bathing
inoculation
day
avoid
intense
motions
cluster
different
target
fingerprint
input
39
expansion
governmental
desired
evaluate
merit
such
em@@
f
comparison
ammonia
molecules
adsorbed
zeolite
ammonium
ions
detected
ir
spectroscopy
pd
home
helper
central
utilizing
ne@@
eding
nursing
proper
accompanied
slight
pressure
pain
2
34
male
41
discussion
summary
symposium
night
duty
much
proportion
sleepiness
langu@@
or
fatigue
occupy
catalytic
kept
constant
weeks
examinations
effects
ion
bombardment
diamond
investigated
pressures
below
100
mtorr
low-pressure
inductively
coupled
plasma
smart
media
market
suicide
transition
authors
illustrated
contents
services
hbv
infection
destroyed
ctl
kill@@
traceability
security
beef
similar
sterilization
foods
situations
idea
devised
france
problems
change
communication
infrastructure
barriers
existed
introducing
psychological
vegetation
distribution
remote
sensing
causes
ou@@
l
bre@@
ath
skin
measured
thermography
gap
existence
dark
assumed
origin
acceleration
mhz
beat
wave
without
constructed
macroscopically
dividing
into
8
districts
displayed
map
stable
decreases
higher
temperatures
positions
ionization
filament
economical
efficiencies
compared
taking
reducing
environmental
loading
anthocyanin
called
ma
excellent
steering
l@@
ting
especially
remarkable
lower
m@@
mg
alcohol
drinking
lifestyle
significant
relationship
steroid
definite
descriptive
ep@@
rise
families
persons
another
investigation
contributes
improve
movement
international
con@@
ferences
engineering
nedo
tel@@
atics
device
supports
air
conditioner
refrigerator
countermeasure
comprises
programming
neuron@@
c
sn@@
vt
lon@@
talk
genome
reduction
evolution
chromium
essential
nutrient
separ@@
ations
adenovirus
effective
g@@
utter
repair
hour
shortened
management
wheelchair
use
tackled
campaign
national
place
dioxin
germany
tof
analyzer
si
enumerated
dynamic
memory
alloy
initially
occurs
step
edge
interface
segmentation
organism
full
color
tomographic
all
possible
exact
scattering
amplitudes
calculated
properties
remodeling
pixel
advanced
ccd
cause
spinal
cord
injury
incorporating
language
simulator
simulates
more
tasks
parallel
harmon@@
ization
standards
advances
internationally
walking
cr@@
utch
analytic
inf@@
li@@
ximab
she
ra
also
carry
out
simultaneously
slope
means
achieve
robot
simulation
can
utilized
periods
suppression
frequency
combustion
vibrations
rocket
dyspnea
sv@@
looks
like
to@@
wing
science
cmos
definitions
advantages
etc.
successfully
approach
selected
targets
hop
direction
speed
working
tetanus
toxin
nox
so@@
x
theories
discharge
impact
tsp
nuclear
pu
burning
core
diameter
acquired
aluminum
33
microns
ssg
accumulated
difference
score
subject
attribute
malignant
lymphoma
genetic
will
shield
room
removes
circumference
facilitates
emission
size
grain
5
micron
meter
destruction
useful
oa
if
prevention
allergy
however
content
cis@@
enable
direct
telescope
focus
amount
cd
differences
depended
resist
dementia
progressed
recurrence
abdominal
whole
printing
measurement
hydrogen
diffusion
fl@@
ames
dvt
not
orthopedics
confirmation
simple
account
excit@@
ability
company
generating
steroidal
abnormal
prion
prote@@
olytic
enzyme
secreted
soil
rheumatoid
vasculitis
chief
complaint
purpura
leg
indispensable
installation
socket
anticipated
pelvic
inclination
demand
magnesium
spot
gun@@
j@@
ig@@
position
administration
tribology
tool
maintenance
pathophysiology
ad
pathogenesis
very
strict
welding
sub@@
urb
rearing
adam
family
ecm
crushed
exposed
extra@@
corpo@@
really
monolithic
mlld
objective
timing
fap
prospects
sc
bul@@
ky
significantly
low
consider
optical
transmission
path
convention
resolution
timer
role
brightness
seen
north
america
primary
np
practice
exercise
statistical
joa
31
72
chromatography
planned
construct
association
available
edema
obvious
goods
800
torr
particle
peak
count
30
45
nm
directions
some
informations
investment
relating
cost
asian
areas
directly
generation
efficiency
ozone
one
ultra
impedance
capacitors
hospitalization
mg@@
zn@@
cdse
luminescence
indicates
healthy
lowered
scales
observing
mrna
cells
real-time
tcp
popular
networks
pe
tka
decided
enterprise
becomes
uniform
bes@@
sel
br
poisoning
inferior
when
fuel
severe
carbon
dioxide
increases
purification
therefore
sufficient
list
largest
intr@@
usion
tongue
palate
crt
cl@@
ears
transmit
safe
comfortable
short
st@@
ature
had
intelligence
guessed
wat@@
son
syndrome
combination
molding
sp@@
aring
habit
instrument
learning
scene
troubles
exception
fat
dry
weight
bat
ol@@
etf
smaller
than
le@@
ch@@
e
manufactured
united
kingdom
chip
array
infec@@
tivity
hcv
presents
examples
unstable
degrees
bending
ac
web@@
de@@
fax
moving
windows
nt
other
field
implementation
wi@@
visualization
needs
explo@@
red
solving
stock
103
decompose
competition
argin@@
ase
arginine
nos
suppresses
works
what
kind
should
recommended
solution
surveyed
behavior
ice
food
stages
calculation
algorithm
employed
rare
find
members
show
positive
cic@@
computation
integral
theoretical
mechanics
continuous
over
qos
guarantee
pm@@
sp
gv@@
commented
nas
battery
reconstruction
artery
processes
height
regulated
dipole
formation
clear
interfacial
phase
coulomb
buffer
criteria
resonance
crossing
charge
times
analyze
customer
felt
health
taken
actual
every
opinion
time
we
dm@@
u
would
har@@
ness
representative
soft
object
fcc
flow
divided
cad
rec@@
tification
active
mel@@
ody
created
ga
evolved
video
made
reduce
accurately
reason
visual
sense
strategy
adopting
movpe
steps
succeeded
manufacture
revised
expression
terminology
sentence
rietveld
refin@@
ements
neutron
structural
kinds
comparing
lumbar
femur
ade
approximation
bas@@
dev@@
ant
aimed
ρ
generated
dynamically
plc
controls
supplied
heat@@
accident
measure
extracted
normal
did
afterwards
quantity
changed
titled
pretreatment
details
name
soap
x@@
ds
en@@
w@@
sd@@
bin@@
d
eded
ro@@
pes
replacement
excluded
writing
frame
work
danger
reception
girl
sa@@
accelerate
extension
automobile
specific
exponent
layer
lattice
reviews
iter
physics
&
diagnostics
proteins
listed
could
controlled
interruption
cal@@
vin
average
fmri
disk
produced
gaas@@
b
photolithography
makes
observe
magnetic
domain
finer
rv@@
h
suspected
table
gui
linux
offered
since
students
beginners
previous
periodical
motion
realized
keeping
total
specified
cv
division
transcription
pursued
level
elucidation
fpd
polyvinyl
binder
survi@@
strong
ra@@
eb
mds
satisfied
elasticity
equation
grasp
got
3@@
4@@
59
mouse
enc@@
clo@@
pedi@@
4
phases
functional
br@@
ace
conservative
obtain
profiles
liver
decrease
virus
term
inflammation
attractiveness
rit@@
ual
establishing
unification
regulation
trace
electrolytic
dressing
rb
ceramic
surface
wheel
formed
configuration
fast
reactors
we@@
ling
pigs
protecting
zn
stress
proven
processor
nec
deployment
sed@@
kinematic
rigid
body
restoration
sequence
assumption
correspondence
facilities
asia
limitation
correspondent
anomaly
valve
pro@@
fi@@
bus@@
pa
varying
rotating
distinct
morph@@
ologies
governed
separate
culture
arranged
file
purch@@
ased
al
phil@@
ips
electronics
conclude
adm
effectively
config@@
ure
large-scale
switched
bi@@
-@@
directional
rings
samples
thick@@
ly
deposited
substrates
so
interference
negligible
surgical
resection
only
pancreatic
cancer
poor
ar
knockout
revolution
them
multilayer
applied
magnetism
film
uc
solve
controller
almost
enforcement
un@@
pleas@@
social
automotive
water
obtains
thrust
accelerating
et@@
electrostatic
grid
smooth
calculating
di@@
poles
arm
acous@@
tical
school
gym@@
asi@@
um
cultural
festival
lecture
resistance
computers
2004
elisa
monoclonal
antibody
attractive
tuning
raising
determination
bragg
reflections
number
states
automatically
italy
child
months
light
cone
z@@
w
finite
correction
disposal
adsor@@
ptive
appropriate
realization
hf@@
steady
piping
lithium
desorption
thin
parameter
diagnostic
gists
construction
simply
rainfall
limited
adjusting
irregular
homes
do
end@@
depression
kumamoto
cooperative
probability
real
weather
agreement
bad
followings
great
dd@@
ha
detail
blood
anxious
failure
cotton
yarn
hem@@
cloth
plant
dyes
convenient
make
pass
appointment
direc@@
tory
mag@@
placed
pseudo@@
tax@@
phy@@
ll@@
po@@
a@@
ar@@
r@@
hy@@
ti@@
dia@@
del@@
ph@@
pin@@
atus
nepal
resulting
orbit
uniqu@@
ely
reference
spec@@
ify
pneumonia
septicemia
changing
conditions
proved
task
description
execution
entire
axially
asymmetric
bodies
ast@@
ero@@
ids
complicated
elliptic
gm
go@@
here
select
pr
nodes
hello
messages
techniques
fm
feature
neutralization
capability
wavelength
chosen
irradiation
atmosphere
topic
mul@@
snps
eeg
later
headache
latter
boundary
zno
varistor
rem
skill@@
program@@
me
29
solvents
compatible
stripe
sm@@
ectic
instant
reversal
risks
benefits
focusing
gn
feat@@
ured
physical
ce@@
follows
along
progress
imposed
increased
severity
ratio
oc@@
usal
adjustment
changes
ano@@
va
bon@@
fer@@
ron@@
i
studying
index
modi@@
fies
rtp
ho@@
can@@
o
op@@
tro@@
ics
put
sale
patch
spreads
easily
ring
ku@@
gel
tmr
estimated
current
histogram
stratosphere
absorbs
ultraviolet
ray
harmful
acting
barrier
igm
peptide
basin
inhabitants
bear
costs
flood
pointed
cgs
achieved
cat
domestic
7
55
spike
loss
big
membrane
introductions
volunteer
categories
dose
identification
genom@@
app@@
er
pefc
electrodes
vanadium
niob@@
ium
tantalum
chi@@
tin
cra@@
sh@@
ells
survey
suggestion
fourth
part
filter
lactic
markov
renewal
adopted
micro
operative
natural
burn
eus
lymph
node
metastasis
images
monitoring
refuge
fire
fighting
ad@@
ams
stage
door
rv
car
lo
com
integrated
2000
applying
matter
saturation
reproduced
press
moved
incorporated
microcomputer
mainstream
electrical
conduction
oper@@
preserved
duplication
coinc@@
ide
atomic
titanium
rehabilitation
presence
suppress
hysteresis
overcome
complicatedly
minute
causal
antigens
anaphylaxis
initial
cement
velocity
our
bm
supers@@
aturation
dissection
moder@@
gpt
500
cnc
added
sometimes
affected
meteorological
selection
preceding
phenomena
key
ethical
nor@@
ms
impossible
reagents
acs
reduced
nutrition
climacter@@
emphasized
dram
sram
lubricating
pca
popularization
min@@
neither
papillo@@
osis
nor
amyloid
thyroid
statistic
sample
user
view
cf
items
vaccine
provide
selecting
materials
rooms
adsorption
contaminants
silicone
wafer
reactivity
greatly
fractures
programs
road
maps
usa
eu
propose
combines
wall
auxiliary
anode
markers
removed
arrangement
belongs
gp@@
alignment
dyed
blue
examine
clock
par@@
ox
theory
relati@@
vity
medium
differs
solid
tft
realize
vi@@
sions
architecture
packet
engines
experimental
normally
cortisol
acth
load
ox@@
ical
bron@@
cho@@
asm
questionnaires
2@@
93
kit@@
relatively
compact
excep@@
camera
zo@@
om@@
ing
his
enter@@
ob@@
acter
aer@@
ogen@@
bacterial
streptococcus
ag@@
al@@
ac@@
pus
staphylococcus
haem@@
oly@@
tic@@
gps
latitude
characteristic
sps
error
continuing
em
nitrate
analytical
spinach
modification
optimization
less
sleep
disorders
ur@@
basically
corresponding
seaweed
community
inhabiting
location
bag
seemed
influence
background
news
waveform
decreased
mitochondrial
lin@@
ker
nucleic
raise
cutting
ble@@
omycin
derivative
heartbeat
syst@@
ole
diast@@
mac@@
wil@@
identity
coding
included
vapor
cylindrical
coordinate
package
stack
sip
begin
technological
soi
expanded
random
marker
estimation
chromosome
pul@@
s@@
ating
transport
discovered
well
magnetized
propagation
pulses
previously
export
import
fruit
range
provided
welfare
ut@@
ensi@@
solidified
opportunity
society
leukemia
agriculture
aria
36
molybdenum
tube
decomposes
cast
iron
elid
grinding
tools
under
traffic
japanese
manufacturers
'
advance
cooperation
existing
facilitated
published
literature
attached
opll
variously
bulk
approval
recycling
lcd
panel
fluorescent
patterning
tp
resource
given
matching
damping
notch
60
variations
received
pilot
signals
fd
fading
percolation
helicobacter
pylori
gastric
base
human
ends
search
progressing
originally
ju@@
im@@
migr@@
moreover
chaos
pwm
rf
biased
up
150
v
indicate
scaling
magnetization
gover@@
n
languages
gelatin
appeared
doppler
care@@
activation
economic
solved
rotation
charges
cheap
proton
consistent
framework
based
fra@@
fer
patent
named
mesh
come
cfd
herniation
hcc
32
51
enforced
saw
summarizes
tactile
agreed
electromagnetic
considered
dependency
tl
kl@@
mc
atoms
defects
site
ic@@
xrd
rr
overseas
enterprises
conspicuous
replace
desirable
population
sex
age
epider@@
floc@@
co@@
sum
separated
lif
dat@@
therapeu@@
tics
targeted
fever
bifurcation
contains
according
ick@@
for@@
da
class@@
electropositive
outlined
carried
inter@@
viewing
hiv
intervention
sms
san
fr@@
anc@@
is@@
residence
collect
constructing
msm
green
tea
handle
bubble
theme
setting
tir
migration
internal
branches
compression
fundamental
electricity
defect
densities
restrictions
thickness
vo@@
wel
insertion
chemotherapy
fashion
nv
2002
earlier
year
month
interval
empty
induced
ships
ai
anxiety
hardly
degeneration
bent@@
onite
contact
concrete
among
gol@@
lan@@
ia
tur@@
gen@@
macro@@
amn@@
lepto@@
men@@
io@@
ides
addi@@
tions
ss
ora
hand
bigger
often
tor@@
typhoon
holography
art
adult
acute
fill
ht@@
performed
photon
periodic
vibration
electrons
searching
products
job
class
week
prepared
operators
know@@
mission
form
focused
animal
completed
positron
spectra
high-density
sign
said
late
toxicity
price
explaines
patterns
ulation
era
came
authentication
bridg@@
reactions
mechanisms
extend
Θ
include
selective
switching
multiplex@@
structured
waveguide
original
knee
prosthesis
retrieval
cdna
mapping
near
spm
tip
moment
technical
alternating
arc
wel@@
der
advertisement
abounding
extr@@
hernia
/
debu@@
g
executed
bar
starting
mode@@
sim
reno@@
gasoline
oil
legis@@
lation
chain
fatty
metabolism
mitochondria
lb
mox
clearly
denied
rev@@
ment
cellulase
biomass
component
degradation
thereafter
slowly
mil@@
gram
algaas
gaas
selectively
grown
mbe
appearance
hemangioma
least
structuring
psychology
educational
series
filling
voltage
adoption
di
increasing
verification
synthesis
record
cylinder
drive
articular
promoted
self
mm
portable
measures
surrounded
breast
mutation
inserted
uc@@
ine
glut@@
amine
56
peptides
ptc
ther@@
mist@@
partition
depending
ways
estimate
sites
mass
outbreak
facility
surveys
friction
sti@@
tank
prescription
powerful
until
corpuscle
recovered
hc@@
chs
silica
alumina
procedure
assessment
entropy
study
seg@@
independently
minimum
bowen
adi@@
forest
aims
infrared
mems
creation
artificial
machines
actively
attempted
skill
repeating
methodology
evaluating
constraints
limitations
protection
supposed
α
assigned
represent@@
nickel
spray
coating
proliferation
host
associated
sensitivity
induction
hypodermic
drain
detainment
wound
healing
extracting
interesting
surrounds
studies
crystals
regions
hard
java
flexibility
leakage
injector
repaired
lc
roughness
grooves
hazard
68
inducing
differentiation
retinal
sufficiently
yet
building
landform
flat
slab
ground
cvd
instances
inoculated
lipase
elastase
pancreatitis
neutral
now
fi
motor@@
cycles
occur
independent
dimension
appropriately
eigenvalue
stric@@
ter
opto@@
beam
gun
menstruation
analyzes
peculiar
game
found
output
depend
experienced
phenomenon
verify
estimates
centered
euv
mask
reservation
ked
restaur@@
nih@@
precious
success
reflection
atr
covered
land
tobacco
cultivation
around
cas@@
tings
survived
went
downstream
where
fem
decide
relations
es@@
gastritis
illustr@@
si@@
ence
io
immunity
targeting
biliary
lineage
transduction
fa
tc@@
shouldered
immune
identified
cleaning
suggested
ole@@
galaxy
soc.
radiological
examining
offering
geographical
mantle
start
duc@@
tion
nutritive
salt
but
chlorophyll
pacific
ocean
apatite
polymerization
capacities
polyester
meg
centrifu@@
ge
always
detailed
appended
chart
honda
super
cu@@
19@@
58
boom
50
cc
motorcycle
occurred
equivalent
meson
dynamics
contained
σ
durability
metallic
74
oscillations
vicinity
cathode
contour
distributions
tokyo
osaka
still
secular
pcb
high-speed
photographic
tha
lumbago
dds
expressions
genital
organs
mammary
quo@@
tation
11
tw@@
analog
digital
any
dots
spatial
end
lives
bed
play
designer
tra@@
dition
indoor
require
automation
practical
training
ry
groups
translational
coexistence
waves
atypical
epithel@@
driven
two-dimensional
slider
guide
because
beha@@
ves
aggregate
flows
through@@
puts
bps
government
depressed
losing
experience
neuro@@
tic
satisfaction
explain
containing
graphics
attempt
assess
keep
became
easiness
cor@@
pain@@
ve
equations
j
kb
bs
demonstrating
degre@@
asing
additional
lane
bottlen@@
eck
23
wards
reading
closed
he@@
aving
firstly
review
cornea
others
ews
factory
university
disappeared
post@@
regarding
snp
exons
fundamentals
public
disaster
planning
14
azimuth
lichen
aureus
26
respond
provides
communications
access
end-to-end
adsl
pollution
latest
eo
step@@
per
searched
scanner
rapid
prototyping
hemoglobin
little
delay
ff@@
mode
detects
twist
displacement
cantilever
concerning
autism
shielding
sapporo
kagoshima
insulation
pal
expressed
three
dimensions
sd
card
pock@@
et
bluetooth
cap
judged
dendritic
even
lp
belonging
no@@
gi
saliva
ibs
1980
turning
cavitation
tracking
vision
width
depth
groove
molded
ld
iso@@
bj@@
serum
urinary
components
ppm
describe
radiocommunication
ir@@
mer@@
scs
seminar
assignment
mail
roll@@
belt
affect
adrenal
gland
diseases
57
65
larger
spin
correlated
tc
wafers
fermentation
amylase
discrimination
negative
transposition
nitride
moisture
modulated
mos
capacitor
gate
woman
disturbance
electrocardiogram
sarcoidosis
bse
countermeasures
sputtering
etching
completely
concerned
trying
myo@@
fibroblast
matrix
protective
collagen
agg@@
author
fact
best
phenol
responding
stimulation
left
cerebellar
hemisphere
viewed
imp@@
inging
onto
sheath
take
fluorescence
driving
mediated
calcium
intake
1999
epidermis
thermo@@
equipments
implemented
requires
foam
e@@
jection
volcanic
smoke
radius
ater
center
rais@@
ventricular
muscle
channel
adren@@
aline
gluc@@
nst
remarkably
respectively
throughout
past
seasons
sodium
chloride
season
together
shortening
gmpls
sharing
roles
american
european
consensus
conference
eliminating
pe@@
ep
themselves
adaptation
try
learn
dictionary
asymptotic
algorithms
derived
diode
excitation
importance
everyday
earthquake
noaa
satellite
classified
deletion
unnecessary
similarity
ribo@@
regenerating
hgf
gg
ns
embedding
dog
regeneration
performing
exists
prototype
soc
tmp
pump
coherence
making
stain
tax
april
establish
separately
instruments
ill@@
tms
alpha
nucleus
retention
stem
appendicitis
id
exploration
mobile
robots
scientific
relative
values
mathem@@
q@@
lq
question
vote
starts
dx@@
ach@@
ate
ok@@
am@@
ura
challeng@@
ed
office
furnit@@
ures
former
phs
regards
kinetics
convection
spherical
shell
reproducing
esco
pfi
transl@@
micro@@
tubule
layers
executes
tl@@
system@@
unique
quickly
deteriorated
rather
mountain
clim@@
bing
bar@@
ton@@
ella
ophthalmology
optic
nerve
discuss
particles
decel@@
er@@
ated
cosmic
angle
glasses
transparent
wavelengths
ranging
300
1000
men
38
women
preliminary
tlingaas
dot
variation
jack@@
truncation
influenza
st
ved
axis
deviation
cw
conducts
interfaces
stm
paying
attention
adjuvant
therapies
crossover
remaining
operating
nondestructive
bum@@
indexes
1989
expendit@@
projects
minal
percentage
flowchart
lifesaving
hemat@@
esis
maintain
memories
ecu
route
coral
reef
annual
after
25
70
compac@@
pci
reli@@
ab@@
ile
avail@@
constraint
open
took
consideration
submicron
me@@
nh
finger@@
illustrate
travelling
considering
lighting
the@@
flexion
automatic
sem@@
antic
requirements
thom@@
measles
known
corrosion
rust
compos@@
crushing
-
distillation
demanded
utilize
sludge
dam
ver@@
thel@@
ess
paren@@
tal
females
males
stayed
progen@@
y
larvae
finished
feeding
trial
menopause
ts@@
ls
dc
ev@@
ens
tss
freshness
second
running
km
phosphorus
metabol@@
isms
pet
ake
uniaxial
supplement
frequencies
du@@
unds
fair
law
interpretation
silicon
cycle
igbt
defecation
dmards
intensity
represent
participated
gue
safety
ige
adding
staining
nmr
steel
tower
exceeds
outside
front
hyper@@
pne@@
word
flu@@
ent
rear
aberration
eye
projected
retina
ders
www
accumulates
gravitational
gradient
underground
laboratory
absolute
fas@@
nkt
hepatitis
both
sam@@
ung
lg
boo@@
th
exhibition
conversion
drastically
propulsion
during
satisfactory
questions
biological
weap@@
ons
childhood
coupling
pp
arrangements
harb@@
ors
nasal
eased
balance
adl
overwhelmingly
cobalt
mercury
follow
realizing
imaginary
train
server
terminals
dairy
showa
restriction
premise
caloric
reduces
supported
bri@@
ages
sweat
northern
okinawa
island
api
concerns
ss@@
db
pathway
users
pcs
rfid
caught
codes
storing
collective
magneto-@@
fragment
operational
marketed
tohoku
white
universities
2001
neuron
reinforcement
personnel
morning
ening
element
insect
cock@@
ach
allergen
rhinitis
acarine
taiwan
enthalpy
hospital
precancerous
silver
sscp
modeling
ordinary
installing
surge
protector
connecting
tf
maximum
projection
fluctuation
appears
fabrics
kn@@
decreasing
northeast
railway
completion
outlook
fet
oxidi@@
solidification
her
free
sof@@
resonances
lesions
links
freedom
offers
cataract
ghz
philippines
mongolia
pap@@
ua
guinea
brazil
bol@@
via
u@@
colo@@
mb@@
ay
per@@
yok@@
osu@@
ka
city
kanagawa
prefecture
tv
des
exceeding
macroscopic
rm
carrier
fel@@
lows
titles
kochi
prefectural
iso
within
at@@
platform
chips
cavity
ht
hemorrhage
6@@
ml
repeated
wireless
generates
simulated
atm
ip
packets
continue
nr@@
cam
extensively
loosening
occured
hydraulic
servo
demerit
res@@
emble
9@@
00
nematode
be@@
te
inp
vd
dialysis
mother
rast
usual
exchange
opinions
citizens
valuable
developing
ntt
themes
tracheostomy
respiratory
wind
complex
ter@@
meet
vaccines
bases
10@@
correspon@@
dences
phonon
certainly
specifications
lsi
cure
decision
right
dependence
reproduces
spontaneous
hel@@
essness
pi@@
afs
link
channels
etiology
antigen
tric@@
hosp@@
or@@
asa@@
hi@@
muco@@
kitakyushu
views
insulin
medicine
journal
peculiarity
surfac@@
sides
grow
goes
comments
shapes
valves
july
jus@@
tice
began
requ@@
esting
money
expenditure
suspension
shim@@
wa
progressive
enabled
alis
inher@@
impurity
due
mixing
18@@
20@@
municipalities
salmonella
ten@@
see
taste
ines
vegetables
four
climate
smoking
hypertension
ca@@
res
molten
worldwide
pow@@
dered
milk
mexico
figures
numerical
call
hearing
disorder
regarded
flux
precipitation
evaporation
tr@@
match
sarcoma
47
strengthening
competitive
trade
custom
policy
talent
icars
accumulate
library
bloody
excrement
favorable
varieties
66
hit@@
ran
researchers
complained
82
mechanical
seal
centrifugal
rotary
pumps
institute
1994
offer
contract
ession
1996
98
packaging
ards
combining
sf@@
autonomous
decentralized
domains
yield
us@@
uchi
innovation
modeled
collecting
feedback
coefficient
ri
bang@@
ok
stand
chapter
inner
femtosecond
rabbits
client
converted
suitable
classroom
saitama
discussions
β
blocker
sod
fault
loops
secure
resorption
comparatively
progresses
promotes
pg
cerebral
apoplexy
consisting
movable
na
resulted
weakness
nucle@@
agents
catalysts
df
subsi@@
diary
ech
june
110
mw
105
ha@@
stri@@
k
neg@@
ara
pharmacological
tests
embedded
adults
vein
echo
1990
collapsed
kl-6
underlying
idiopathic
pulmonary
fibrosis
implantation
exothermic
controllable
micromachine
composed
devices
recognition
enables
virtual
ba
substitution
extinction
designs
dl
gging
interactive
excised
esophagus
bat@@
ches
efficient
recovery
autonom@@
suppressed
death
pbc
clarifies
aih
junctions
widths
tunnel
magnetoresistance
perceptual
oppression
root
cpt
kel@@
sho@@
ck@@
ley
en
tain
transistor
express
above-mentioned
decubitus
28
ash
carbonization
evidence
instead
realizes
intu@@
itive
transformed
necessity
excretion
sto@@
ols
hours
aav
vector
avp
manifested
secretory
thing
mosfet
paddy
rice
fd@@
systematic
procedures
dro@@
silent
corona
discharges
anomalous
manufacturer
independence
mr
fluids
cau@@
date
lobe
reconstructed
40
above
hind
down
axon
bdnf
aids
atmospheric
stability
emphasis
dis@@
die
head
margin
errors
afm
code@@
phosphate
opioid
units
forming
extreme
goals
pollen
caused
iv@@
hl@@
los
rdc
spread
note@@
book
markets
radio
"
gases
quick
fibrill@@
wa@@
emi
ems
ch
iss
copies
condom
wide-band
seismo@@
graph
records
south
pole
ideas
might
consciousness
triangular
modulation
sweden
1995
agen@@
21
set
routing
done
hyperfine
steam
wh@@
ist@@
le
compressed
diesel
haccp
guidelines
canada
inception
ml@@
basedow
immunization
actions
suppressing
starch
apply
ceramics
heat-@@
resistant
humidity
bmp
bamboo
inters
dispens@@
pri@@
designed
73
stops
winter
reveals
further
volatile
aero@@
scattered
character
string
35
hpn
shift
arise
crosstalk
fire@@
proofing
tracked
magazine
special
issue
articles
foundation
agricultural
dm
encephalopathy
fh
removing
governing
slag
foaming
mistaken
spectroscopic
ellipso@@
metry
fuzz@@
iness
involved
subjective
thai
centering
lipid
illness
tm
microbial
textile
clothes
represented
reexamined
am
young
modulus
7@@
℃
shorter
add
drop
wdm
cellular
gfp
og@@
aw@@
summertime
pure
sem
recorded
topography
chiba
ultrasonic
hitachi
circumstances
yields
derivation
decay
cue
queue
amend@@
back@@
wavelet
evol@@
ving
fluctuations
consolidation
prtr
inclusion
registration
differentiate
intestinal
ame@@
bic
dy@@
sen@@
tery
diagnose
teachers
biopsy
necessarily
duration
16
mice
pf@@
aff@@
ian
neurologic
rat@@
ets
extended
microorganism
infectious
exchanging
syn@@
ergy
coil
elements
just
reproduction
ethics
refl@@
ex@@
ive
ib
member
hood
zyme
deflection
crack
joining
latency
mn
sugar
newly
piece
dislocation
13
amd
candidate
primer
brings
enhancement
mmp
ser@@
protease
mental
quartz
sic
psp
oid
sc@@
ars
lung
bomb
explosion
meaning
country
force
nn
pn
heating
600
700
breeding
macrophage
conductivity
biotechnology
consumption
fuels
efficiently
loads
mutually
fluctuates
specimens
handling
ago
re
perthes
out@@
gas@@
modules
enhanced
intermediate
kyoto
cdm
fem@@
la@@
77
superior
stand@@
alone
option
hp
storage
parallel@@
deep@@
specialty
clinic
diabetes
mellitus
distortion
grows
relates
requested
experimentally
propagating
pc@@
contamin@@
ates
ik@@
perform
displays
patter@@
rules
quark
whether
pv
icon
hybrid
dsc@@
mf
staffs
chest
code
cyclotron
matrices
affects
ridge
axes
rates
characterized
seismic
letter
char@@
mon@@
qcd
vacuum
dissatisfaction
spermatozoon
est
epbd
calculus
hu
remove
intracellular
ebv
absor@@
metabolic
assimilation
complaints
oral
elderly
erg
arises
stimulated
dysfunction
gist
considerably
400
odor
station
toilet
gave
router
49
joints
financial
banks
sec@@
ities
companies
contrary
rotated
bc
plane
vely
thres@@
holds
eth
pth
investigating
ww
np@@
possessed
activate
plastic
installed
nippv
meat
equilibrium
vic@@
inal
individual
inverse
filters
lear@@
nes
outputs
newest
implications
trigger
ca
48
umbilical
hypotensive
turbo@@
expan@@
lng
promising
catch
vascularization
rich
models
telephone
contracted
clarify
pile
osse@@
ous
shoulders
preced@@
ents
invention
indirect
infringement
rectal
demonstrated
pa@@
oli
photo@@
days
simulate
cogeneration
buildings
vital
farming
but@@
def@@
plants
animals
people
forging
peri@@
hue
ligh@@
tness
crypto@@
spor@@
idi@@
arousal
rhythm
arranges
bridge
approaches
eps
ant@@
adine
hydrochloride
disturbances
receiving
damaged
master
transmitted
aspect
solar
jo@@
yo
1998
requests
ur
chel@@
rs
corrected
hormone
skeletal
synchronized
mers
regardless
astronom@@
observatory
ess@@
enti@@
als
mean
corresponded
dissolution
alkaline
post-@@
profit
sound
surrounding
zealand
15
knees
includes
functioning
board
local
impurities
entry
generate
22
multiple
music
tested
elimination
parasitism
neo@@
heter@@
rium
spring
elevated
summer
length
varies
inc
turbulent
ー
ε
spp
in-line
accumul@@
entered
grew
respect
gain@@
mqw
simultaneous
allows
colloidal
pbx
merchandis@@
repairing
perforation
ty@@
panic
mpu
rank
say
dominant
dr@@
waveforms
origins
var@@
ish
acuity
linear
algebraic
pi
cut@@
over@@
turned
rectangular
ran@@
providing
harmony
placing
voice
bus
sap
nearly
zero
october
window
invasion
heteromorph@@
melan@@
ocytes
upper
search@@
5@@
52
rou@@
tin@@
picking
form@@
erly
naturally
detect
jaw
nutri@@
tious
cross-sectional
environments
ph
28@@
unit
developmental
intention
absorbed
cere@@
dwelling
house
graphic
fundus
uli
bi
nacl
78
unified
oxidant
strengthened
kc
molecule
yeast
vari@@
ances
eigen@@
seed
pig
1973
clavicle
incoherent
rough
rich@@
let
um@@
ann
iled
repeti@@
summarizing
historical
atom
bt
illustrates
cad@@
helix
ati@@
90
able
execute
border
drives
pun@@
cher
assembly
last
curriculum
determine
ranges
losses
renal
pathology
standardization
iga
nephropathy
escherichia
coli
built-in
sno@@
mankind
ministry
pr@@
bl@@
passive
resemblance
conducting
face
ell@@
glutamic
gh
continued
reverse
junction
interpret
rp
free@@
manipulation
sure
how
hierarchical
real@@
izable
consol@@
idated
tone
ill
flo@@
loaded
akita
sonic
deformed
hs
0@@
spur
noxious
high-@@
grade
pb@@
de
etc
..
maxim@@
separation
summarize
heavy
quar@@
onium
scoliosis
pay
interest
why
af
miyazaki
stabilized
levitation
doping
deep
venous
thrombosis
mrcp
my@@
ri@@
cracks
explaining
cy@@
ber
epo@@
!
meeting
cover
sei@@
dome
television
photographing
feed
back
referring
electro@@
pneumatic
my
singapore
norm
box
la
sight
needed
obstruction
yellow
tu@@
ram@@
courses
ssc
cross
shortest
led
five
inorganic
fixing
terrace
begins
disappearance
imit@@
hoped
inoc@@
ulate
mistake
sw
ii
smallpox
.c.
feared
fat@@
teflon
penetration
exit
converts
rene@@
wable
countries
utilizes
transporting
forms
liquefied
methanol
constants
branch
bga
tab
tape
wire
bonding
join@@
nonvolatile
lap@@
possibility
dh
chicken
extract
blueberry
standing
impulse
18
seconds
fe
cre@@
ators
movie
disinfection
cf@@
infected
son@@
titer
contrivance
indication
horizontal
trajectory
mt@@
hib@@
denmark
rac
legal
respiration
children
urgent
intractable
wakayama
ferromagnetic
scheduling
orifice
effort
accompl@@
ishing
by@@
cytochrome
contrac@@
eption
divisions
rupture
24
presentations
continuance
secondary
resuscitation
compartment
softening
melting
fundamentally
exchanged
xml
format
epithelioid
arithmetic
sulfuric
aqueous
dissolved
immediate
eggs
wheat
stag@@
comes
muscles
considerable
compar@@
ably
suit
produc@@
ted
pot@@
interactions
perfect
gasification
fusion
nk@@
corporation
osteosarcoma
fus@@
arium
cyclic
ict
malaysia
optimizing
fw@@
whe@@
eling
brillouin
anvil
gpa
cameras
entrusted
dri@@
fted
φ
returned
rt
bias
quantities
hypothesis
pavement
butter@@
fly
gro@@
regi@@
ris
consequently
bandwidth
consumed
consultant
war
contracts
surely
porous
burner
kerosene
slow
slip
boundaries
exhaust
trade-off
spectral
antinuclear
upstream
accumulation
altitude
cae
diverse
stereoscopic
engineer
compares
visiting
undertaken
doctors
vac@@
disturb@@
persistent
bacterium
compositions
agent
printer
homogeneous
elastic
ster@@
ak
ologic
coming
endothelial
cholesterol
matters
square
counseling
drugs
prepare
interferon
hbe
hg@@
continues
analog@@
ched
immunotherapy
bun@@
lines
detector
oka
miyaz@@
reporter
showing
figure
generally
fungus
cough
shifts
masses
mole
fraction
gets
ull
1997
does
lobule
dexter
au@@
ghter
donor
aw
dielectric
temporal
cp@@
hatching
survival
stenosis
voxel
seasonal
crucial
reproductive
temper@@
authorization
although
southern
her@@
cep@@
fish
paraffin
specimen
cp
coping
pupil
numbers
emotion
ta@@
cre
unchangeable
pendulum
stepping
discovering
cedar
mrsa
catheter
vancomycin
prevalence
burst
intermit@@
ce
streaming
minutes
protocols
ativity
industrial
leader
understand
create
introduce
circulatory
damage
jump
jet
define
illegal
static
collector
dur@@
ham
roof
19
swelling
buccal
mucosa
foreign
too@@
pick
sending
precisely
daytime
downward
iferous
forests
findings
coch@@
view@@
sapphire
yag
microscopic
morphology
heightens
necrosis
forecasting
convergence
signs
insufficiency
rigidity
column
reasons
sgb
autoimmune
contain
excell@@
tuned
moire
fringe
mathemati@@
vaporization
hab@@
itu@@
ation
alarm
approximated
param@@
agnetic
re-@@
earth
van
lec@@
bb
formulas
circuits
electrolyte
math@@
ie@@
str@@
ange
dimensional
pas@@
cal
triangle
dol@@
idae
collection
usb
screening
preoperative
carcinoma
76
tae
english
teaching
epithelium
anodic
oxidized
susceptibility
cold
cracking
urine
compost
200
proposals
foot
slice
irregularity
immunologic
psc
%
workers
it@@
din@@
farm
hev
except
deer
routine
september
dl@@
resol@@
stimulating
ensuring
employment
tack@@
identify
dyeing
cloud
resolving
ress
uterus
reforming
principles
treatments
sterility
ny@@
qu@@
ist
tting
electrolytes
imported
contaminated
vre
reproduce
dich@@
precise
navigation
ion@@
hydrochloric
digestive
mis@@
soy
sauce
brewing
on-line
reser@@
seat
sun
turns
super@@
consist
regional
limb
epitaxial
warehouse
invent@@
ories
case@@
solvent
switch
up@@
-to-@@
formative
synthesizing
compounds
benzene
oxidizing
adap@@
tively
radiotherapy
retarded
wor@@
laws
accompanies
difficulty
drought
predictions
sent
author@@
inc@@
rob@@
workshop
february
ech@@
on@@
consortium
cooking
pen@@
na@@
relevant
fil@@
tered
beams
interferometer
2003
minor
sweating
pcm
mcm
hin@@
ingan
46
27
gis
os
fractions
varied
loop
update
priority
ascites
pre-
differ
isolated
films
broadcasting
bidirectional
dislocations
creep
fulfilled
radioactivity
release
floor
tron
ris@@
retain
chlorine
recl@@
sewage
pathological
routes
abnormalities
skeleton
iodine
raised
peaks
proposes
scheme
superfluous
fertilization
carrot
scheduled
fermi
off@@
volition
outing
dialy@@
deuterium
charging
freezing
preservation
:
reform
1978
reliability
dcs
treat
ks
key@@
mol@@
net
post
conjugate
mirror
become
cin@@
notice
carcinogenic
accidents
sulfide
tox@@
ici@@
ties
agr@@
share
infer@@
ior@@
ity
pursuit
el@@
hat@@
personality
motive
24@@
kev
coefficients
ehe@@
o157
stocks
17
tun@@
occupied
inclined
diaphragm
aviation
lhd
biosensor
disp@@
ute
invol@@
vements
genetics
npo
wal@@
thus
cards
peripheral
options
alas
acts
stop@@
nano@@
pulsed
synthesize
bn
growing
ber@@
screw
pages
rheumatism
dding
selectivity
sirna
calculations
slide
presumed
cars
71
potassium
stop
trench
emitter
turn-off
short-@@
capacity
partner
lifetime
coat
picture
bp
os@@
spect
regulations
greenhouse
actually
enactment
housing
assurance
top
crane
conve@@
ying
band@@
tuberculosis
don@@
pol@@
and@@
angina
pectoris
ischemia
king
shifted
toxic
ocular
trauma
failures
lens
deci@@
sively
advantageous
sco@@
computational
kegg
dex@@
fine
insurance
cystoma
dec@@
itation
secretion
apc
serious
gaussian
perpendicular
sar
transform
carries
acquires
43
frames
rna
wild
rope
jumping
complete
met@@
suture
frontal
79
ver
clad
printed
circadian
infusion
nervous
psl
udca
focal
ito
extent
rule
gallbladder
exhibit
stacking
yttri@@
tokai
tackling
begun
stratum
disposition
radio@@
chemistry
eastern
kanto
incidence
ssi
trials
myocardial
finance
initiative
grasps
sev@@
measurements
dance
broad
gating
accordance
hla
superiority
ve@@
fibrinogen
finger
freely
permitted
ts
mobility
moves
7-year-old
rtms
scd
ution
estimating
plex@@
fo@@
ethnic
ow
locking
abc
examines
campus
controllability
dopant
alg@@
ain@@
extra
fully
visible
foot@@
bath
beijing
shanghai
tal@@
managed
?
manage
investigations
esophageal
student
cc@@
fragility
attenuation
interaction
groundwater
hr
ial
mind
sticking
ci@@
ili@@
tors
abstract
pemphigus
ender
enhance
gaseous
constituent
viewpoints
clean@@
cables
ineffective
swelled
mechatronics
putting
disc
analyzing
ay@@
multi-layer
scalar
apoptosis
tilt
proportional
curve
programmable
bit
passenger
ternary
concentr@@
scan@@
ned
osc@@
illo@@
scope
paid
exten@@
halo
expense
burden
sustainable
villages
administr@@
methyl@@
prednisolone
whose
lymphocyte
sulfur
auto
viscosity
precipit@@
bottom
polishing
ings
intestine
epithelial
waste
hepatic
diversified
refining
indium
gallium
metals
coma
buc@@
ket
work@@
sheets
chromatic
ni
urea
inactive
ecr
tak@@
asaki
inst@@
ement
pollinosis
erec@@
tile
rare@@
fied
minerals
immunological
cattle
cu
se
nonlinear
regression
prl
arrange
linearity
abundant
applies
formula
deteriorate
omen@@
birth
moon
bronchial
asthma
ner
tends
stay
lowers
ud@@
pipe
monte
carlo
proceeding
mt
reversely
jo
either
ex
go
mal@@
determining
lock
overflow
treating
thel
88
specialist
architec@@
x-ray
raman
deri@@
pto@@
accelerated
rnai
citizen
insulator
low-@@
superspeed
inertial
briefly
ribbon
adjust
gb
nec@@
differential
14001
consulting
rivers
rep@@
inephrine
analy@@
zers
opposite
tended
highly
diphtheria
pert@@
sis
ard
binary
oxidative
poly@@
pyr@@
clusters
nafion
h-@@
turn
ruthenium
singularity
less@@
evaluates
trap
astic
rocks
runs
abund@@
ance
eph@@
markedly
driver
regulating
passes
placenta
affinity
distrib@@
tional
luc@@
tropical
bor@@
factories
ushing
produces
databases
candida
soc@@
ially
receive
protected
max@@
illa
excision
illary
fishes
disappears
zigzag
decomposed
meaning@@
ful
certain
opc
pur@@
bio
infiltr@@
aqu@@
pressive
judgment
enforce
nail
hair
ova
sexual
sphing@@
omyel@@
dre@@
validity
recurred
radiogram
desensitization
coherent
overlapped
dv
dv@@
fdtd
declaration
audit
lca
eth@@
ane
propane
ethylene
conceptual
photograph
optics
reynolds
tension
reflected
comprehensive
cholecystitis
kinase
ately
rectum
sutured
perfor@@
intelligent
mineral
trough
close
stoma
aperture
nis
court
rever@@
beration
acoustic
magnet
casting
singular
vectors
ald
symmetric
trop@@
ism
morphine
lateral
condenser
audio
discharged
check
dies
pin
62
lau@@
gi@@
bolt
set@@
abs
intended
unix
clone
mit@@
60@@
polarization
fabricated
flight
helicopter
gli@@
oma
causing
photocatalyst
manganese
tungsten
recognizing
dysplasia
energy-saving
aeration
challenge
heard
presi@@
dent
jc
scm
consisted
ak@@
demonstrates
overturn
adopts
incision
synthesized
alanine
suggests
li
diffused
col@@
colitis
symptomatic
mie
correct
magnitude
convective
rheology
liable
line@@
respective
acked
generalized
bright
investigate
statistics
tent
stomy
54
fc
buses
sl@@
designing
53
specificity
peritoneal
dpc
reversed
passi@@
vation
ttr
plexus
hematopoietic
tumor
rising
resin
reaches
depletion
i.e.
tract
precedent
microwave
adhesion
track
shinkansen
rolling
after@@
fb
transient
glomer@@
ulus
kidneys
bacillus
pfge
lv@@
fall@@
overall
squ@@
rayleigh
arose
nd@@
fe@@
matured
sanatorium
ba@@
und
capable
transverse
icing
tubular
insulated
rail
servomotor
transplanted
newborn
infant
thymus
references
xes
deter@@
clu@@
by-products
gra@@
vel
sj@@
pha
pas
tt
thro@@
ws
conventional
applicable
luminance
sequential
scanning
looseness
91
polypropylene
sperm
eels
rubella
igg
pcr
better
yo@@
ke
pickup
uk
bro@@
off
psycho@@
somatic
handicapped
fukuoka
nation@@
ally
laboratories
aim
ultimate
never
broken
ambul@@
near-@@
improves
droplet
hmi
scada
developments
cyst@@
atin
gfr
perception
choice
fan
regard
obtaining
infiltration
referred
reactive
coll@@
clonal
calculate
exactly
permeability
discontinuous
orders
weld
tomography
catches
unhealthy
osteo@@
chondr@@
geothermal
operate
hygiene
advocated
ag
emergency
aga
need
dg
hn@@
sty
outer
bacter@@
frag@@
ei@@
ken@@
corro@@
dens
operations
fluid
purity
overview
bal@@
immun@@
ized
hypo@@
der@@
mic@@
injecting
marrow
copper
ery
hd
participants
reply
bilateral
abdomen
femoral
biochemistry
cl
hbs
designated
electromotive
bicycle
cultivated
multimedia
manipulated
disks
presently
miniature
rel@@
ays
pal@@
sy
paste
int@@
hetero@@
epitaxy
twice
valid
sanitation
reconstitution
substation
railways
projec@@
conductive
rubber
tips
gal@@
kin
numerically
stabil@@
izes
ax
collation
cg
duchenne
spi@@
mic
man
excessive
leads
nausea
relieved
contraction
lies
aiming
arr@@
ative
physician
erythema
blister
december
well-@@
informed
transmitting
audi@@
tail
multidimensional
understood
critical
noises
built
mocvd
sorting
motoneuron
pool
identical
namely
cirrhosis
normalized
sab
maintained
polar@@
grounds
pon@@
emc
covers
specially
insulating
ll
deduced
wash@@
exhibits
pedestrian
lacking
eless
typing
eyes
veget@@
ali@@
air@@
secretional
squid
microscope
tted
refraction
ell
maxwell
staff
preventive
worked
adsorbents
exempl@@
ifies
hong
kong
boiling
septic
shock
trouble
seals
turbines
collision
laryn@@
anesthesia
inspecting
cgh
middle
advancing
cals
ec
pitch
csp
narrow
log@@
ging
novel
complexes
luminescent
pharynx
anterior
fis@@
worried
momentum
tissues
asperg@@
illus
flav@@
emphysema
depicted
develops
sims
mps
meal
myd
save
approved
miss
keeps
ift
limbic
sm
hierarchy
composite
anaerobic
ff
interrupted
continuously
confirm
feasibility
hint
guanine
semiconductors
commercial
general-purpose
iris
expl@@
ore@@
three-@@
axial
asked
linked
collisions
lang@@
pace
refrigerant
far
ast
screens
monitored
eating
fulfils
‐
87
hm
ban@@
ded
clouds
aircraft
precision
vol@@
logic
pt
soliton
deciding
vibrational
amplitude
variety
ren@@
seedling
flower
u.@@
u.s.
lanthan@@
trich@@
lor@@
differently
ren
horn
piston
hard@@
hierarch@@
ies
annular
wish
lid@@
c.
trac@@
hom@@
sr@@
tio
ro
prostatic
hypertrophy
epidemic
excess
stomach
duodenum
co.
recycle
mach@@
ida
grasped
plans
bile
duct
mc@@
aromatic
cac@@
ao
beans
modifications
metabolizing
sleeping
pill
pent@@
ital
thoracic
aortic
aneurysm
8@@
37
satis@@
factor@@
ily
shoulder
happen
sports
perspec@@
tives
occurrence
tre@@
hal@@
ose
protec@@
tant
des@@
cation
defl@@
ected
χ
elucidated
codon
marangoni
aseismic
diagnoses
mortality
log
breathing
hol@@
tz
pte
dic@@
tion@@
aries
cbn
infections
parking
lot
shinjuku
su@@
urgently
controlling
regenerative
graphs
observations
aff
flowering
emphasi@@
ze
space-@@
9000
spiral
mes
schedul@@
roentgen
wrestle
solutions
adjusted
immunosuppressive
rely
ureth@@
ral
stricture
sequela
bby
extends
equ@@
representation
vill@@
pair
libraries
representing
magneto@@
spheric
reflects
trapping
fragmentation
aic
dominated
landau
integrity
dental
caries
written
spots
converters
employee
essence
configurations
traps
station@@
109
14@@
ace@@
morpho@@
genesis
epidermal
synthetic
enzymes
photosynthetic
pigment
car@@
yotic
algae
cycl@@
mild
know-how
demonstrate
leadership
mdct
dsc
shrinkage
regenerated
cellul@@
dmd
functionality
pyre@@
xia
inputs
cup
synchronization
blood@@
stream
feet
feeling
radial
reach
miniaturization
readout
gratings
ultra@@
rightly
proper@@
supporting
compreh@@
ension
atrophy
prophylaxis
kan@@
mon
kyushu
evapor@@
batch
chloro@@
acetone
merits
mammography
applicability
upgrade
opportunistic
gain
equalization
lead
zinc
substitu@@
paint
115
resonant
non@@
agar
constipation
terminated
demerits
giant
papillary
conjunctivitis
muc@@
ball
substances
gy@@
rating
furnace
disper@@
sts
staircase
spin@@
annealed
lo@@
prof@@
indo@@
prescribed
chol@@
ergic
screen
speech
cti
ds@@
august
epoch-making
arthralgia
dropped
drag
mitochondrion
filled
biochemical
vivo
inhibition
supercritical
solute
him@@
acquiring
customers
sales
conclu@@
sive
glo@@
ended
oscillatory
section
“
budg@@
eting
particular
incorporate
strategies
ven@@
fpga
asic
continuity
discontinuity
tangential
secondly
approximate
bend
ambiguity
roll
traction
bra@@
minority
kondo
cen@@
recor@@
takes
pd@@
tpm
seriously
adhered
intermittent
dication
recognize
similarly
diet
stopped
ub@@
observes
manipul@@
paradigm
civil
ud
gravity
hopping
locomo@@
middleware
port
reader
principal
theoretically
employing
nis@@
ki
mitsubishi
east
acy
politics
special@@
izing
const@@
ancy
ological
ewing
twent@@
century
fiscal
forecasted
issues
scc
encephalitis
expensive
aa
fukui
4.@@
9-year-old
nas@@
terra
satellites
blocking
distributed
ultrafast
organ@@
ic-@@
thicker
stac@@
af@@
potentials
incinerated
antibacterial
zns
electroencephalogram
thetic
chronic
expresses
bmi
academic
ened
patrol
erection
fro@@
egg
new@@
curved
manifold
topology
distance
intran@@
xy
manager
inhalation
drawing
ready
biomechanics
isolation
lime
mold
disco@@
ide@@
84
combustible
ashes
condensed
cooling
characterize
kno@@
ise
schedule
announcement
by-product
holes
exporting
belgium
korea
negotiation
inhabitant
evulsion
soybean
promote
modular
gd
magnetosphere
pathogens
besides
gaps
lh
isen@@
erg@@
oi
majority
som@@
ato@@
ionic
equilibria
lcc
employs
insic
dge
resistor
flowing
mi@@
mag
tester
intends
institution
bottles
losed
droplets
chondro@@
mesenchymal
ham@@
sanitary
labor
college
pharmacy
motivation
party
pharmaco@@
planetary
gear
tured
microscopy
fen@@
estr@@
doctor
responsibility
affection
arrhythmia
safely
centers
tend
pill@@
radi@@
ograph@@
heart@@
recording
halogen
hadron
superflu@@
idity
op
peroxide
binding
lastly
wan
spine
mtx
computerization
sacchar@@
organisms
masks
contacting
breakdown
malt
contamination
photoelectron
complexity
discrete
hun@@
gr@@
dy
comp@@
eted
ji
myeloid
scenarios
aid
beg@@
contracting
prior
pelvis
backward
til@@
sn
dermis
bfgf
fuse
yama
spe@@
hope
analgesic
rehab@@
ilit@@
window@@
sce
visualize
machinery
automobiles
approximately
cutaneous
scalp
long-term
bronch@@
titis
seizure
ev
contribution
coast
eze
scar
wo@@
chemicals
london
observer
derive
particul@@
tochigi
sur@@
weighting
high@@
iterative
compute
polycarbonate
uniformity
dlc
kle
interven@@
rational
pl
determinant
tensile
irradiated
lamp
constituted
max
voc@@
ational
ablation
sen
okayama
hop@@
tfe
dimin@@
ished
cooperated
std
ga@@
spon@@
gains
cryogenic
nagoya
climatic
held
criterion
enormous
diluted
unc@@
iation
phon@@
turbulence
drift
threshold
sch@@
give
whit@@
collap@@
dust
interior
hole
knife
vibr@@
elliptical
generality
vr
intensified
dissoci@@
fragments
coul@@
om
thromb@@
melatonin
enter
produce
kuroshio
inflammatory
curves
lip@@
eness
150@@
inas
heterojunction
polyp
adenoma
las@@
er-@@
modes
trig@@
ometric
publ@@
collaboration
sector
correspond
ug@@
gab@@
sud@@
march
sidewall
expec@@
crohn
eal
mucous
dsp
2006
parti@@
tioned
sharply
analogous
td@@
hf
comparative
sas
cylinders
coxalgia
break@@
ingestion
acks
differentiated
anchor
parent
conclusion
brit@@
ain
russia
forum
plutonium
kas@@
aki
niigata
responses
chromat@@
ograph
achievement
suffered
passed
ite
scratch
oked
saving
―
gives
voids
substituting
electrodeposition
relief
calculates
shortage
etal
λ
cm
directive
immuno@@
hallucination
immediately
linear@@
machining
inquiry
ica
kenya
vegetable
basal
cortex
speci@@
alization
lim@@
cardio@@
seriousness
sets
reveal
ko@@
2005
han@@
nover
asp
servers
tedly
les
piv
microorganisms
ins
appear
cer@@
taining
inversely
dispatch
ticular
malfunction
steep
rationalization
print
sizing
posterior
kyphosis
gener@@
ato
kw
9.@@
mpa
bearings
horse
riding
send
ear@@
land@@
lungs
brought
forecast
crude
jam
encounter
chromosomal
clones
reacted
nef
attack
sym@@
metri@@
zation
systematically
submitted
expanding
alternative
individually
pan
replaced
throughput
270
emr
subcutaneous
thumb
tdm
constitutive
concluded
bottle
incub@@
venture
valley
strawberry
leaf
coc@@
drink
crp
artifact
mor@@
1981
aph@@
1@@
nk
pass@@
atten@@
hardness
gt
pm
44
wastewater
ong@@
histopathology
ophy@@
ru@@
brum
ab
harmonics
giving
md
dates
argon
plasmas
oblique
text@@
books
literatures
eno
z
necro@@
ses
eff@@
cysts
hemorrh@@
supplem@@
enting
variability
fluxes
western
don
stresses
trachea
boron
zircon@@
fewer
monotonous
approached
repetitive
energe@@
pva
silk
wires
currents
flowed
stiffness
che@@
ply
polymorphism
sold
photosynthesis
fullerene
forth
sil
vaccination
perfusion
scintigram
ups
modify
planar
hdd
hypothe@@
scenario
bcc
chemo@@
xis
alon
resting
retrovirus
thin@@
cnt
probes
tio2
mgo
ysz
met
detecting
uro@@
logy
intel
shipped
nation
reas@@
businesses
plasia
polished
heaved
partnership
backgrounds
mp
h.
nus
strains
ained
exceeded
allowed
length@@
return
og
hdl
ys
girls
chaotic
ot@@
tar@@
hemicrania
chan@@
ret
chro@@
ride
ivc
millimeter
wrestled
non-@@
coerci@@
diuretic
creatinine
activating
suffering
cornification
typ@@
oh@@
kin@@
amenity
vehicle
ka@@
198@@
drastic
23@@
oxide
ever
reflect
intersection
ranking
painting
bell@@
bt@@
group@@
visit
lumin@@
sity
lu@@
stroke
conver@@
gent
perturbation
artificially
rh@@
enium
astro@@
thri@@
ensis
cop@@
id@@
ul@@
cha@@
ste@@
phan@@
comprehensively
biology
chim@@
ney
rc
vertical
sensation
ov@@
amplified
550
ices
hydrophilic
acrylic
fibers
shadow
again
tb
toyota
nissan
lattices
josephson
γ
tary
transportation
cut
flowers
supplying
hash
gross
prostate
ky@@
jaeri
av@@
january
alim@@
entation
concurrent
ldh
turbine
hir@@
fran@@
sequences
diagram
ure@@
3000
complement
purposes
pituitary
pharmacist
electrolysis
cooperate
filler
integrates
mash
converter
delivery
magnetron
hg
pu@@
vl
metastatic
ile@@
union
gl@@
ass
reg@@
ret@@
bly
encodes
volcano
style
tained
sul@@
cus
liquefaction
basement
zone
ought
accelerator
brown
adhesive
chec@@
impe@@
thermally
handicap
sb@@
schroedinger
reduc@@
tive
infin@@
sim@@
galaxies
infarction
sige
deficiency
vi
confirming
attrib@@
utable
grasping
mastitis
kawa
describing
waist
cancers
duodenal
ulcer
cross-@@
boy
junior
tan@@
abe
izu
az@@
dium
tri@@
fic@@
tancy
qt
platinum
purchase
latent
vitamin
prospec@@
verifies
apha@@
sia
seebeck
ically
propi@@
oni@@
feces
marking
heated
know
youth
directivity
dem@@
projector
vl@@
fs
cm@@
η
predicted
van@@
ishes
flip
anti@@
ferro@@
plain
solu@@
circul@@
pt@@
hi
procurement
rod
void
dense
coarse
weak
cow
extremely
insi@@
pid
mac
emo@@
individu@@
alities
swing
restraint
qc
holder
ank
qualitative
lubrication
additives
asks
recurrences
travel
0
occupies
alp
vom@@
echan@@
smoothly
ecosystem
forb@@
incinerators
leukocyte
elimin@@
disabled
excited
101
phenotype
hpv
streamer
curvature
canc@@
erous
ethernet
controllers
istics
practicing
livestock
strongest
conjugated
hospitalized
hl
classical
den@@
adaptive
cur@@
stones
atrioventricular
pack
mct
rfa
ignition
deal
=
ii@@
soluble
iz@@
status
ear
synchronous
frequently
conqu@@
ering
mixture
ne
zyg@@
obstin@@
choke
regulatory
activates
ci
technically
ordered
fept
annealing
ped
store
alteration
frin@@
supernova
capture
plays
collapse
educ@@
thermoelectric
bite
ser
trigg@@
spark
switches
reproduc@@
iii
fanconi
anemia
80@@
nitri@@
fying
beads
cultured
floors
orrho@@
compl@@
consumer
hydration
cope
biom@@
ater@@
ner@@
dependences
bonds
intere@@
pup@@
ils
ucle@@
sha@@
inadequate
choose
enzymatic
glucose
systemic
joined
wto
particip@@
gs
deeply
diodes
tracer
traced
16@@
compensator
deficient
curing
opn
stained
ologically
intensi@@
perfume
sedative
sensitivities
geological
ality
spo@@
bles
py@@
amide
fam@@
pic@@
stre@@
ptom@@
ycin
medicines
asynchronous
polynomials
formaldehyde
substitute
do@@
excel
telephones
note
lab@@
eled
retro@@
activ@@
mutual
transfusion
argu@@
glaucoma
microsoft
bring
ens@@
final
places
med@@
radars
faithfully
relationships
sectional
hemo@@
benchmark
six
sigma
zed
urban
municipal
exceed
embolism
optimized
flange
uranium
manu@@
transc@@
base@@
compressor
miniatur@@
ize
pathophysi@@
100@@
eries
sentences
registered
edo@@
cent@@
rip@@
so-called
hill
computing
integer
multiplication
consumers
thalidomide
recomm@@
phytoplankton
spraying
ple
recti@@
thyristor
see@@
k-@@
clarifying
quasi-@@
radar
accompanying
political
vg
sharp
solves
polyg@@
onal
zes
od@@
theorem
deposi@@
presentation
1991
docum@@
equili@@
vitamins
huge
linkage
s-@@
t-@@
institutions
profitability
cerebrospinal
arrhenius
ore
mean@@
interfer@@
embr@@
applic@@
spirit
graft
resonator
wbc
anium
mine
edition
dt
smallest
vpr
85
69
61
inference
sw@@
chose
dys@@
synchron@@
entering
character@@
gallery
correlates
ats
rest
tionally
auditory
dehydration
ration
disseminated
catalog
mfm
osteogenesis
heterogeneity
appropri@@
ateness
κ@@
lamps
operated
capacitively
magnetically
switzerland
beautification
ty
doing
substantiality
corporations
steadily
inches
fresnel
architectural
120
conservation
wounded
ryst@@
inflow
denitration
decontamination
calcin@@
quantification
segments
pictures
cya
remedi@@
dilator
arachid@@
onic
farmhouse
presses
aking
easier
zer@@
ni@@
polynomial
accomplished
func@@
smo@@
testing
0.5
shin
guarante@@
eing
encoder
shaft
eu@@
ticals
contributions
;
disordered
retrieved
collects
cosmological
coloring
uv
inertia
robust
mini
rejection
aut@@
ologous
hemato@@
poiesis
examin@@
ined
exciton
bound
lar@@
iv
phenyl
miy@@
ash@@
ita
practiced
suspec@@
inhibitor
activated
thrombo@@
plas@@
wide@@
instability
remains
publicity
safer
ached
perme@@
ept
chap@@
abscess
decoration
mycoplasma
thread
successful
dyne
contributed
ensured
bubbles
pneumoniae
arteriosclerosis
own
business@@
sars
irritable
bowel
numbness
appliances
dless
mentions
eco@@
amounts
dist@@
guar@@
ding
formalism
sibility
reuse
efforts
associ@@
certain@@
vegf
angio@@
poietin
blade
berg
antennas
checked
irradiating
chir@@
fetal
pregnancy
synchrotron
atp
ford
kagawa
fukushima
itb
shear
passing
maximal
rms
nu@@
dg@@
parents
tility
gii
high-priced
leave
nanometer
sine
handled
stratospheric
discomfort
exanthema
prog@@
eria
spice
angular
mete@@
ites
perturbations
correlate
formulation
mar@@
bling
manifestation
requirement
hokkaido
allowable
mandi@@
ble
prices
connect
trains
hippocampus
getting
25@@
randomized
aerosols
lidar
alaska
knowledges
unexpected
pati@@
fulfil
voltages
α-@@
yl@@
adjacent
flame
tuation
blend
apex
paths
cro@@
sub
titania
80
lubr@@
icated
grease
fractal
arterial
chinese
ase@@
cmp
ming
address
lesson
concentrated
functionally
particularly
condens@@
lc@@
coaxial
waveguides
borne
gest@@
hc
compare
genomes
mut@@
agen
ben@@
intradermal
tap
diffuse
budget
examinee
read
asion
message
cool
warm
erythrocytes
platel@@
econom@@
contrib@@
equipped
magnification
till
plasty
chick@@
town
photoresist
vous
coordination
nipple
sport
albumin
anisotropy
meantime
monkey
brand
tech
kl
tn@@
oled
symmetrical
hollow
au
inserting
transformer
plat@@
aspects
solder
cont@@
abuse
nid@@
glycemic
strip
sinusoidal
forcing
modul@@
thick
erythrocyte
elder
sister
coincidence
staying
uric
neon
+
candi@@
ghts
mongol@@
observ@@
atories
couplings
cooperating
echanics
windmill
suffers
congestion
achieving
maintaining
uclear
confined
stereo
spacing
thorax
sympathetic
anesthesi@@
ology
counting
characterizes
processed
statistically
sagamihara
ading
fre@@
ight
surg@@
ria
firing
sted
penetrating
inund@@
high-pressure
vil@@
moments
coagulation
obturator
remained
nile
okin@@
mucosal
cautionary
bead
ush@@
attitude
pressed
radiant
blind
cooled
selenium
surro@@
determin@@
ants
all@@
icin
weaning
pig@@
lets
vitality
rail@@
wheels
damages
vacancy
entr@@
assisting
race
agrees
izer
intrac@@
rin@@
colon
epl
hrt
po
snow
blowing
induce
cannot
consistently
lethal
val@@
nonlinearity
explan@@
atory
apparatuses
processors
wrong
utive
tritium
concentrations
izations
umig@@
aur@@
eutrophication
instituted
versatile
double
cardiac
benign
pheochromocytoma
stabilization
diabetic
oven
tiny
sake
friendly
caffeine
identifying
spindle
wood
saturated
pol
hall
contrivances
abor@@
outcome
prolonged
marked
arti@@
facts
simil@@
hypoxia
terms
integrals
fourier
optimal
inert
lost
conserved
one-dimensional
multichannel
uncertainty
becoming
replacing
ti
apo@@
yl
wrinkle
moist@@
cream
eliminated
proli@@
induc@@
influences
medic@@
pps
fbg
carbon@@
aceous
aerosol
thalamus
quan@@
ta
wax
pep@@
leaves
chamber
atrix
lands
thf
reprocessing
insectic@@
termination
beings
hex@@
dor
north@@
permanent
construc@@
insul@@
crucible
gu@@
acetabular
influential
candidates
ulsi
texture
documents
under@@
gone
injec@@
opening
elbow
arthroplasty
confi@@
kernel
gran@@
meso@@
circum@@
ferential
aggravation
bureau
fee
penetr@@
aspherical
renovation
anticip@@
wear
ocean@@
ographic
offshore
validation
small@@
anesthetic
pf
edi
ahp
consistency
cs
dissociation
pigmentation
appendix
laparotomy
lympho@@
mas
explanations
upgrad@@
actin@@
mercur@@
y-@@
metr@@
partially
roots
pediat@@
ric
resembled
expect
fuj@@
ef
gears
shipbuilding
bow@@
enoid
molecul@@
ly-@@
parametric
rats
mn@@
toward
smell
unsaturated
subsystem
valued
balanced
eruption
limbs
checking
ink
ones
humerus
worker
operates
landsat
faces
airframe
highest
trajectories
originates
fwm
emulsion
occlusion
equi@@
unt
wet
ama
sum@@
hum@@
anin
polypeptide
scenes
originated
identi@@
stochastic
salts
assuming
enough
ft
sensed
accordingly
edges
islands
wells
fishery
fishing
tac@@
optional
fibril
vised
approxim@@
cb
sin
movements
stic
indices
sputtered
ionized
lack
rer
gat@@
eway
discrepancy
ced@@
cou@@
doors
fa@@
monitors
gmr
oscill@@
hic@@
reflex
spir@@
mo
cured
yer
nt@@
lightweight
viral
pharmacotherapy
promin@@
ently
111
are@@
rot@@
leak
pad
sr
mathematical
coke
water-@@
blo@@
kes
il-@@
nanotube
transistors
ankle
reflective
suited
coun@@
chang@@
advent
traditional
proc@@
stream@@
highway
bridges
museum
〜
currently
destructive
thrombus
heparin
fibrin@@
dramatically
synergistic
microbe
sct
viewer
moessbauer
multi
ang
kle@@
bsiella
quantitative
ail
dramatic
phot@@
od
emphasizes
emergence
diment
adv@@
ising
regulator
evolutionary
top@@
vortex
columns
granules
hologram
australia
paralysis
reliable
cranial
signature
cdma
receiver
computed
rock
monoxide
radiated
seem
nutrients
picosecond
dioxins
kawasaki
famous
centro@@
pore
citric
baseball
interlock
forecasts
vitro
indentation
removal
symbols
nom@@
icd
civilization
myel@@
ography
92
generalization
jec@@
tures
orthop@@
etary
kore@@
relevance
una
ccp
autoantibody
gradients
clustering
motif
recipient
islet
lengthening
act
zu@@
ultras@@
posture
attracted
zero@@
delicate
pen
arsenic
cadmium
cle@@
vel@@
electrification
prefectures
occurring
hold
sed
ental
bur@@
tog@@
expiration
tg
constructs
'@@
atase
agre@@
enlargement
zing
linking
keys
ori
ush
influenzal
sds
roller
sign@@
fence
captioned
positional
occupation
pregnant
allocation
flexibly
repeat
5000
ping-@@
cmc
holographic
toluene
c-@@
fore@@
optimize
nirs
ptsd
broad@@
aerial
photography
located
e.
prepa@@
red@@
gathering
essive
95
reformed
modem
ofdm
loc@@
echo@@
rock@@
arms
atc
objectives
gig@@
offices
gp
context
acquire
intensive
1993
capacitance
wheel@@
trans@@
diaphrag@@
signal-@@
to-@@
copyright
percutaneous
suddenly
expand
500@@
ana
dct
imperfect
struc@@
perfectly
covering
landscape
utility
13@@
repeats
ided
quadrupole
policies
sai
pleur@@
participating
ai-@@
dpd
bicy@@
cles
look
discover
rays
hund@@
metric
hematoma
greater
omentum
metropolitan
practically
quanti@@
uch@@
carrying
involvement
responsible
heater
enters
reached
140
patella
happened
predictor
memor@@
strategic
implement
atures
rap@@
energies
trad@@
certificate
tric
contracture
arthritis
sampling
mes@@
urement
e.g.
bd
hr@@
inger
im
path@@
、
dip
adapted
warning
dangerous
issued
ented
auto@@
tnm
oils
su
exclu@@
sion@@
ary
rights
participate
escap@@
gypsum
drainage
compens@@
leuk@@
lymphatic
oriented
scre@@
navig@@
genomic
blast
sightseeing
phenomen@@
ck
low-temperature
prime
minister
individuals
agency
vising
circle
csa
hbc
mam@@
subjected
experiences
of@@
spontaneously
ftth
water@@
visualized
pda
plus
dor@@
elling
ods
extingu@@
ishment
tubes
evaluations
reacts
adrenocortical
cancell@@
sf-@@
love
edfa
fiber@@
bay
transported
usually
rhiz@@
ome
hippo@@
newspaper
reinforced
architectures
refres@@
executing
cascade
protons
wake
ultrashort
high-power
lasers
proliferative
continuum
0.0@@
longitudinal
covariance
ie
icious
kda
delayed
myocardium
ischemic
tations
tag
cumulative
mell@@
alge@@
birch
strictly
shower
lipo@@
conc@@
teness
sensitive
bore
tunneling
bond
suscepti@@
urs
purchasing
challenges
continual
psa
inj@@
estion
lithography
improvements
radioactive
lus
elongation
abra@@
sives
util@@
acidic
titan@@
injected
prolifer@@
synovial
melt
sus@@
chlamydia
symptoms
replenishment
lining
eb@@
she@@
evi@@
vc
words
alloys
gamma
tim@@
color@@
uniformly
possibly
residue
farmland
angles
evaporated
gauge
copy
asth@@
opia
pers@@
icum
adaptable
diagrams
lip
inductance
rotor
axilla
drying
ae@@
anti-@@
terrorism
imprinting
flavor
ags
polymer@@
ection
cosmetic
barley
refined
wool
belie@@
inst.
uni@@
3-year-old
inducement
nam@@
semi@@
membranes
performances
vul@@
ific@@
cds
xen@@
raft
susp@@
divertic@@
ula
residential
midnight
hazardous
generations
slit
modern
ensure
corporate
crossed
acceptor
gonad
mush@@
clin@@
kers
delamination
viaduct
correc@@
diffr@@
acto@@
affecting
conditional
ja@@
bee
professional
obstacles
snow@@
microphone
gc
lethality
boiler
hotel
fin@@
affili@@
emitted
clairvoyance
operability
simplification
martensitic
exist@@
recognizes
dehydrogenase
cataly@@
oxidase
restart
concentrating
organizations
yn@@
raises
crystalline
hur@@
cytodiagnosis
intravenous
dep@@
mw@@
seeds
1950
transferred
urb@@
occasion
pvp
epidemi@@
cardiovascular
spl@@
boltzmann
rack
reciproc@@
angi@@
omatous
32@@
frp
lad@@
aggra@@
meanings
containers
thighbone
dorsal
dilution
stone
elucidate
sections
turnover
cash
dye
iec
prospective
worth
apple
melon
iw@@
heterogeneous
crust
whom
abnormally
ing-@@
gon@@
ew
leucocyte
platelet
epidural
endocrinologic
fall
roi
sensory
expos@@
prognostic
nearby
faults
notification
infants
hemolysis
shipment
productivity
usability
moderate
ular
highland
ala
stirring
alginate
fy
globular
inic
branching
bf@@
incomplete
83
breeder
arteriosclerotic
requiring
impacts
avoiding
1986
composites
generic
menti@@
oning
fed
assembled
glove
infra@@
depilation
parietal
mycobacterium
cpg
hub@@
horiz@@
successive
formulae
kage
stores
supplies
fbr
nul@@
fication
erosion
lupus
erythem@@
sus
ask
foetus
neonatal
groo@@
icp
legs
co-@@
assisted
instruction
20th
microlens
gait
inga@@
nut
tsu@@
corrections
adiabatic
omo@@
tolerance
alized
alloc@@
elucid@@
tablet
sentinel
fused
organ
legion@@
lubric@@
native
meth@@
ionine
fres@@
intra@@
cortical
thalam@@
poison
bnp
bio@@
watershed
med
ith
inevitable
consum@@
iding
apping
dent@@
charged
corn
wider
anyway
diseased
turbidity
retail
ateral
sio2
acetic
teleph@@
ony
dd
devi@@
chron@@
ileus
ious
illuminated
polarized
quite
seve@@
vit@@
rification
haz@@
uck
sink
condi@@
pipes
kil@@
occupational
cpu
pipeline
command
chance
sep@@
tum
accept
dil@@
ning
fal@@
sification
tly
granule
acted
medullary
torque
gated
eai
spectro@@
magne@@
cann@@
winding
contributing
participati@@
planting
Ι
intermolecular
adju@@
washing
turb@@
olecular
conveniently
automated
additive
200@@
ly@@
ophil@@
sponge
gre@@
n-@@
prenatal
encoding
coils
scan
laparo@@
scopy
council
authority
feder@@
edics
enz@@
lightning
analysed
commission
learned
profes@@
sion
gastrointestinal
stro@@
mal
histological
replication
nikon
coar@@
aining
govern@@
eau
dermatology
schemes
remo@@
shovel
iler
sal@@
aching
threat
war@@
sac@@
iliac
appl@@
sweet@@
bit@@
adequate
transgenic
sacch@@
ari@@
amy@@
cin
event
protru@@
stronger
whisker
agon@@
elevation
deposition
alternately
mas@@
tication
denture
alls
satisfy
alig@@
kar@@
anastomotic
formulated
stom@@
atitis
benz@@
oph@@
czochralski
mid@@
geal
specifically
extensive
nash
draw
diarrhea
sures
clutch
velocities
ang@@
ans
ape
itself
tium
finland
streams
observational
reproducibility
hardening
blocks
amat@@
nagasaki
lights
rib
phospholipid
ligand
appearing
ortho@@
digit@@
pre-@@
ron
incorporation
counter@@
offensive
rheed
incorpor@@
totaling
fcm
euc@@
sliding
criticality
mass-@@
osteoporosis
centrum
commercialized
ulum
enth@@
usi@@
humans
actuators
elementary
electron@@
symptom
repetition
cdte
hd@@
knowing
physi@@
que
postnatal
spheres
bacteri@@
gn@@
plot
ata
achi
lut@@
ger@@
turbo
decoding
feeder
stuck
gem@@
cit@@
ith@@
emissions
94
dermal
asper@@
interatomic
rh
orbital
absence
fda
mammo@@
mount
wide-@@
squamous
wants
nd
comman@@
interconnection
notes
digitalis
reflectivity
lymphocytic
mast@@
opathy
emic
reorganization
endocrine
technl@@
kind@@
clinically
thicknesses
rb@@
deodorization
merged
86
stacked
ingaas
receptors
personally
park
shopping
street
ale
zr
neutrons
superoxide
desi@@
closing
laparoscopic
onom@@
genotype
glycer@@
rabbit
fertilizer
psychiatry
enia
benefit
crop
resear@@
ching
nozzle
1987
pathologic
cutis
unch
imbalance
suff@@
microgravity
noticing
est@@
generator
crown
ether@@
solubility
tor
catv
p-@@
graphite
preceded
extremity
cleanliness
energ@@
interacts
manufac@@
emma
esd
bran@@
marketing
connector
rac@@
intubation
ima
tiva
desk
poisson
ibm
asc@@
enhancing
protect
bg
glow
choosing
itu
bleeding
counts
hemt
corium
dermat@@
opl@@
asty
verifying
te@@
ij@@
advancement
ico
rods
tem
aged
dem
hes
antigen@@
icity
potato
sweet
blot
fungi
tz@@
full-@@
influencing
facilitate
cem@@
receptor
pho@@
ix
supersensi@@
tumors
lymphocytes
dissemination
separator
distinguish
penetrated
abs@@
electron-@@
facilit@@
cycling
sg
arrival
prin@@
bounded
orth@@
overlap
hydri@@
juice
bau@@
excavation
phen@@
superconductivity
mix@@
chambers
fren@@
acqu@@
motility
grains
waters
exhibited
endogenous
ossification
ocyte
2500
weights
rectangle
subl@@
amin@@
arch@@
vertebra
vortices
khz
weighted
away
inductive
fold
cargo
shed
teacher
mented
incident
seeking
fier
frictional
peritonitis
coordin@@
techn@@
icians
fron@@
tier
digi@@
tized
reagent
42
neglig@@
heads
hydrogenation
ssa
routers
instabilities
nylon
enforcing
17@@
.@@
radicals
mhc
abol@@
ition
eder
96
dic
jointly
compensate
deficit
fluorocarbon
refinement
determines
washed
adheres
propag@@
bulb
allo@@
commodity
cropping
assumes
avoids
palladium
condensation
thermodynamic
consequence
dox
infl@@
cesarean
refractory
demyelination
gbs
slurry
dicated
hig@@
awa
tland
habit@@
stably
ares
nationwide
born
histamine
pneumothorax
major
galax@@
ifn
carotid
multiplexing
refractive
voc
furniture
departments
renormalization
had@@
rons
installations
underst@@
california
nar@@
polyethylene
pvc
botulin@@
portal
arter@@
[
ment@@
ectomy
]
drin@@
defective
mistak@@
22@@
cross-section
fission
histopathological
hon@@
preser@@
neighborhood
aminase
conditioning
ehime
shop
enlarged
canal
forward
universal
chil@@
cities
ultra-high
yamanashi
opened
ami
africa
localization
kv
avalanche
nodule
penis
domes@@
tically
bim@@
posed
kinetic
spread@@
ratios
langmu@@
occur@@
rences
forbidden
prohibition
vement
refuse
incinerator
nurses
san@@
widening
vb
lite
zirconia
atom@@
pyro@@
clinician
fan@@
bers
oting
yle@@
ther
sf
warming
mononucleosis
transit
tom@@
neck
overhead
earthquakes
197@@
critic@@
cath@@
odic
otic
weakly
alo@@
followed
aggregation
confirms
calibr@@
endemic
performs
stick
hypersensitivity
transmis@@
sivity
polyimide
sulf@@
adsorbent
yed
vs
jitter
antibiotics
weld@@
bacter
dq
capacit@@
hypogastrium
serotype
coron@@
sagit@@
numer@@
antibodies
brow@@
browser
economics
feasible
pres@@
numerous
fail
bread
pec@@
lathe
resumed
birds
high-energy
airplane
flies
digoxin
compressibility
wid@@
eration
disruption
ads
games
amo@@
fabric
adjusts
magnets
sh
recover
hydr@@
belong
write
wettability
variance
ki@@
asa
eddy
non-destructive
crystallization
latex
icle
hit
blu@@
e-@@
alga
pigment@@
pieces
residues
gl
dme
popul@@
arized
separating
apnea
longterm
oecd
ending
unmanned
refrac@@
transver@@
sal
crush
adh
bard
remain
breaks
head@@
stall
rows
thor@@
aco@@
tomy
fici@@
ency
predictive
piezoelectric
centi@@
intercal@@
segment
randomization
i-@@
comprising
folding
rig@@
admission
accelerates
coal@@
escence
faster
etch
version
oc
ai@@
ries
solid-state
realistic
nations
multistage
elder@@
1-@@
asking
materi@@
entertain@@
tid
tooth
koh
equatorial
basing
conser@@
skillfully
altern@@
monop@@
considers
alternatives
ultr@@
stance
invented
portion
alic
zz@@
glau@@
atous
contraindication
outdoor
glutathione
2-year-old
tgf
1988
till@@
plaque
uss
ppi
relate
protrusion
ench
bis@@
acu@@
cellulose
polysacchar@@
immobilized
icate
foil
jit@@
disc@@
arding
mega
leg@@
stopping
balloon
intravascular
reaching
flag@@
ellar
cel@@
aband@@
shizuoka
high-performance
powers
insomnia
nur@@
gainas
medicinal
gar@@
den
nb
reliance
get
qualitatively
isotopic
abit
pharyn@@
mucus
usable
softw@@
holding
deli@@
farmhouses
smc
vascular
compressive
vertebral
arch
carbide
coated
punch
wine
aroma
multipl@@
exon
institu@@
ghtness
gently
true
lumen
intermedi@@
geology
conductor
triple
illuminance
hid@@
stagnation
fts
aorta
wer
conventionally
histories
albedo
abundantly
indistinct
scrotum
h2@@
o2
analyses
inv@@
ades
needle
break
text
summar@@
conversation
ribavirin
cushing
caver@@
sinus
cervical
peeling
on-@@
poli@@
fin
hub
unsuitable
assume
amusement
revi@@
val
ei
tomato
onion
conductors
chromo@@
essor
ish@@
glycol
diffu@@
sion-@@
poses
stly
retaining
high-temperature
desertification
trunk
photographed
sat
dp
atpase
nucleotide
otherwise
upward
bursts
auro@@
ras
reflow
accor@@
spati@@
expon@@
entially
sam
arra@@
one-@@
dimensionally
owing
stent
symbol
geographic
contr@@
ety
publication
lift
fit@@
ambi@@
invalid
rolled
bet
solutes
too
aden@@
omas
estrogen
virtu@@
rad
mev
adopt
titu@@
ory
ainment
stool
abroad
dom@@
percent
lam@@
inhibits
exer@@
cag
prism
tch
pped
argen@@
tlr
kfm
inalas
layered
looking
mass-production
touched
divergence
river
alle@@
viation
63
cyber@@
lar
inexpensive
tracks
minimization
small-scale
hemodialysis
commerce
intellectual
commutation
accessing
mig@@
mouth
periphery
life-style
6.@@
infinite
moy@@
ack@@
administered
caus@@
payment
offset
contacts
sick
positioning
plastics
distinc@@
oxygenation
5.@@
kitchen
prot@@
col
360
stor@@
hypno@@
il
and-@@
menis@@
promo@@
bic@@
inheritance
malformation
deafness
abr
every@@
yen
credit
fund
sph@@
papilla
conflu@@
mr@@
quenching
furn@@
avoidance
polymer
vehicles
answ@@
enlarg@@
extrac@@
polyurethane
deformity
rt-pcr
oste@@
cyan@@
camp
whole-body
ovarian
maturation
cy
morphological
sized
tuber@@
cle
conjunctiva
gold
sil@@
compress@@
agree
overcoming
orientation
descending
intervertebral
fairness
stra@@
distingu@@
colors
arteries
finding
mega@@
thunder@@
effluent
pw@@
lamin@@
gm@@
minimal
kd
wr@@
agitation
regular
pack@@
defin@@
setup
sputter
chromati@@
agv
bay@@
sian
garbage
digit
nodal
scarce
tural
reversible
uterine
ken
stamp
antihypertensive
ind@@
recurrent
follicle
shr
trypt@@
spins
time-dependent
diagnosing
bf
wiener
hydrocarbons
shearing
eg
sol@@
itons
retardation
bunch
vities
eti@@
retrieving
fluidized
i.@@
×
avo@@
bedridden
tour@@
nagano
hok@@
invariant
Λ
buried
small-@@
degeneracy
stres@@
spikes
allow
flat@@
read@@
anch@@
aed
fcv
ried
diameters
stein
cooperates
constituting
packages
enjo@@
chrom@@
tung@@
coercivity
backache
sin@@
symbol@@
mar
nucleo@@
clinics
manipulating
sili@@
ib@@
assets
appreci@@
pharmacists
self-management
retained
stimulate
draft
arly
map@@
evanescent
erroneous
asymmetry
fru@@
allel@@
totally
monotonously
iteration
released
carbonate
archae@@
porphyrin
innov@@
premises
ural
objec@@
selves
phthal@@
ocy@@
anine
nose
antiferromagnetic
equip@@
ping
photoluminescence
signaling
manag@@
osteocl@@
suspecting
seas@@
pathopoiesis
quin@@
rine
rg
acidity
maritime
hps
tr
inn
recur@@
dupl@@
sporo@@
viscous
ket@@
scho@@
ums
fuzzy
profiling
live
initio
submerged
awg
agawa
ashim@@
ayama
metropol@@
belonged
idine
instillation
transitions
atively
donors
elution
simplified
visited
sealed
mm@@
colored
obstacle
hz
consequences
scalpel
permit@@
flicker
presenting
zer
imping@@
facet
advis@@
hb
persistence
1.@@
dal@@
provi@@
scal@@
pathogenicity
ruptured
idly
subsurface
ld@@
register
ulative
supercooling
ganglion
schwan@@
neur@@
prize
endo@@
rocking
unchanged
hydroxyapatite
friend
illin
dopamine
facilitation
village
hokuriku
typho@@
shikoku
ores@@
microprocessor
nephritis
completeness
isting
outpatient
pruritus
sunlight
isother@@
molar
multil@@
tide
ql
7.@@
mat
alt
dermatitis
propylene
microstructure
plating
boards
arbitrary
mill@@
min
gentle
accompany
35@@
vine
checkpoint
trees
resistivity
clarification
estim@@
aerodynamic
sorption
expands
firm
ozon@@
ump
precur@@
sory
charcoal
mram
extracts
arbitr@@
specialists
parame@@
home@@
page
ke@@
hydrolysis
ow@@
totaled
autonomously
nav@@
varix
vlsi
inch
star
differenti@@
behaviour
across
thal@@
lium
crime
lessness
tast@@
autumn
boarding
ighting
diver@@
mirrors
common@@
2010
circulating
dioxines
desulfurization
thiophene
conduct
cod
sound@@
situ
hybridization
wit@@
essing
deoxy@@
cholic
limiting
returning
thy
fr
comput@@
ation@@
classes
star@@
grap@@
spar@@
suggestions
exacerbation
81
-year-old
cros@@
rin
nest
todd@@
heisenberg
pit
advised
edlc
brake
narro@@
geometric
contri@@
deposit
implem@@
largely
tcr
intervals
increment
breakthrough
ously
frequent
propagated
slightly
twin
cig@@
initiation
mutant
ebra@@
backscattering
chair
counter
borderline
maternal
colorectal
transpa@@
rence
puberty
boil@@
coffee
unk
impul@@
siveness
ression
connects
photochemical
quasi
expert
meetings
metro@@
coincided
dietary
tera
Å
fol@@
garlic
concretely
row
xp
high-precise
supernov@@
dra@@
design@@
researcher
spain
visibility
amplifiers
decomposing
pfc
reconstruct
theophylline
convolution
capsule
unclear
partum
dosing
encountered
qw
papule
biometrics
engineers
pad@@
dle
launched
november
spacer
vas@@
apor@@
rystallization
concave
stu@@
ias
sixth
gerd
urg@@
gullet
porphy@@
filtering
cz
diam@@
doubt
hydrodynamic
intensities
disassembly
ade@@
prevail@@
libr@@
auth@@
oring
template
bml
tem@@
plates
deteriorates
genic
wky
decides
stabilizing
dop@@
orange
cherry
nowadays
meters
subsequently
semic@@
cular
interception
neces@@
sit@@
evolu@@
hypocenter
chi
olis
si-@@
onset
gri@@
pping
finish
fri@@
hemorrhagic
ients
isdn
aver@@
investigates
waterproof
worse
erp
bismuth
job@@
ine@@
teen
gen
rsv
lea@@
aked
solidi@@
vessels
broadcast
operator
crystallo@@
ath@@
injuries
earth@@
hodg@@
hu@@
intellig@@
ibility
ig
tcd@@
pancreas
polymerase
immature
ker@@
nels
frequ@@
hikari
telecommunications
pinch
reality
involving
bits
pains
250
coccus
honeycomb
fuji
plu@@
distances
scores
incontinence
irradi@@
isa
acetylcholine
mill
sla@@
centr@@
fluoride
press@@
sendai
sush@@
scin@@
tillation
bringing
fail@@
loren@@
0.@@
cloning
valent
decline
competitiveness
once
paget
mono@@
attempts
aberr@@
marine
towards
blockage
tg@@
coagul@@
lowest
dar@@
deals
optim@@
ee@@
father
mei@@
clay
temporary
parasitic
ipf
lit@@
snr
sage
interpre@@
ague
ileum
oneself
rad@@
ical@@
f1
tizing
columnar
pipel@@
iliary
trophic
researched
sclerosis
roentgenogram
float
night@@
d-@@
shade
randomness
classifications
broadband
gastro@@
enteritis
aichi
a-@@
restored
telecommunication
redistribution
pneumo@@
peculiarly
bud
yam@@
zuki
stratification
ani
al.
sar@@
tan
rt@@
tite
cjd
reflector
solids
alph@@
pixels
lap
brands
lled
89
lv
geno@@
sper@@
polar
outcomes
reconsidered
dendri@@
mer
asser@@
things
incid@@
sizes
mpt
neglected
child@@
mature
ger
glyco@@
fibro@@
gy
label
glu@@
cultiv@@
waiting
1979
part@@
ners
damper
worm
digitization
liter@@
ctp
capacitive
reciprocal
bladder
wise
prepares
harvest
carcin@@
atosis
eliminate
hydro@@
formul@@
airport
por@@
elevator
cerebrovascular
crops
rigorous
mh
phag@@
ocytosis
leuco@@
cytes
financing
intend
uity
layout
judge
asph@@
eric
ylene
believed
expressing
correctly
130
cladding
segregation
facial
derm@@
abrasion
appeal
continu@@
fingers
hands
depri@@
mang@@
oscillator
alizing
termin@@
mid-@@
oceanic
dges
drain@@
ichi
syndromes
kon@@
mod@@
noted
contradic@@
tec@@
tonic
pls
fluidization
diff@@
cpc
carefully
propeller
11@@
compiled
shut
0.6
2-@@
unlike
category
implies
π
*
ich
desktop
beyond
inear
ul
ogenicity
granular
glob@@
ules
dilute
ultrasonography
appen@@
dectomy
sag
responded
proliferated
conform@@
anx@@
wn@@
xy@@
deregulation
langmuir
ms@@
mostly
outlin@@
unusual
zoom
induration
g1
emit@@
hedron
coordinates
tex@@
planes
tance
gauze
frozen
inhibitory
preparing
speedup
closely
adul@@
ood
qualification
fabrication
glutamate
transporter
abrup@@
uly
twenty-first
dietic@@
amp
dimer
gg@@
convert
delta
analogue
phy
tap@@
inductor
mor
tine
ge@@
player
laid
vr@@
q-@@
50@@
progno@@
stic@@
ware@@
houses
refriger@@
focussing
confl@@
seeding
peg
mast
conception
classifying
truc@@
ture
subcritical
40@@
liposome
thinking
125
μm
distinguished
erythro@@
coupler
backing
multivariate
kansai
97
hiroshima
eight
genera
erb@@
ix@@
lact@@
laun@@
youn@@
indigenous
backbone
next-generation
alzheimer
biosynthesis
proof
hypophysis
refrigerating
extending
seven
remedy
nucleation
adenocarcinoma
if@@
check@@
hen@@
vii
mhd
ship@@
granuloma
lab
spatially
aved
recursive
ordering
quenched
sputum
slow@@
atop@@
sail
simplicity
arri@@
vals
nan@@
ku
hous@@
salve
av
1500
rct
high-precision
eradication
67
omal@@
ferrous
spectrometry
seldom
economically
piezo@@
electrics
beta
corner
geo@@
spare
regim@@
classify
underwent
judging
shot
exclusive
liquids
trunc@@
dant
marks
lengths
zt
transpor@@
stations
flaw
tanks
achieves
acc@@
levels
sto
photons
tase
kg
comparable
sor@@
fu@@
inhab@@
paroxysmal
reflec@@
tiveness
kalman
enabling
high-quality
flying
sensitively
pph
quadr@@
cyclo@@
trons
p53
sprin@@
positively
participates
tel
confinement
new-model
fluidi@@
consul@@
progression
enumer@@
simpl@@
ifying
cardiomyopathy
oes
eg@@
hypnotics
nag@@
aoka
acetylene
immedi@@
e-type
preparations
menu
empirical
bac@@
optically
traveling
cat@@
gaba
reasoning
inherent
ingu@@
istic
surplus
raph@@
wastes
slip@@
workstation
endoscope
magn@@
ified
autonomic
compo@@
unded
ult
monthly
facing
vic
uncertain
dmar@@
gdp
gmp
fifth
grazing
weed
vacuol@@
tyrosine
mere
valence
life-@@
philic
hereditary
resistive
considerations
succe@@
eds
administrative
gam@@
preheating
longer
athle@@
rum
pressur@@
bibliographical
adequately
phosphor@@
lim
phosphol@@
lectures
lign@@
heights
simmon
medul@@
sv
southeast
indian
preserving
amplification
smear
welded
arily
aly@@
tus
capillary
sandw@@
reflecting
vor@@
imation
rub@@
resolutions
pip
anca
kur@@
aka
screened
plan@@
o-@@
convex
inactivation
induces
periodically
calcul@@
lake
cube
firms
competen@@
alloying
protozo@@
ric@@
anisotropic
perpendicularly
fia
phones
car-@@
preference
ments
gly
cruc@@
grass
metastable
tabl@@
proto@@
screws
beauty
prp
tent@@
mounted
touch
panels
omer
aerobic
maximally
radiography
hydrocortisone
microcirculation
lea
pinning
meta@@
tropo@@
krf
excimer
mj
nesting
ar-@@
irritation
offic@@
ici
obe@@
nov@@
tis
ayer
embol@@
hydroxide
employees
hyalu@@
repulsive
locality
und@@
phone
curative
mapped
tokamak
roads
oita
nine
prevented
worth@@
index@@
keywords
retino@@
painful
ductility
ptfe
goat
sky
two-@@
tino@@
domin@@
mark@@
filtration
inverted
vesti@@
bular
polluted
receives
nematic
tensor
ski
envelope
thers
nem@@
our@@
rae
amoto
1975
slo@@
prevent
electroluminescence
imaged
employ
cer
respirator
sl
obstetrics
neighboring
standby
main@@
tain@@
persi@@
sting
drilling
uries
designers
olysis
cap@@
box@@
ylation
det@@
ek
institutes
hyp@@
lagrange
exponential
bibli@@
ograp@@
invariance
regulates
anti-hiv
tionary
stimuli
resistances
household
attribution
pigments
fulfiled
pathogen
70@@
interact
ambient
reflux
esophag@@
antim@@
doped
sony
xanthoma
soon
gbit
manife@@
nic
strengthen
strateg@@
pla
bil@@
myces
far@@
ino@@
orient@@
forces
cave
rett
suitability
malaria
transmits
creating
isawa
animation
vuv
dn@@
pediatrics
appetite
repulsion
sta
technlological
fistula
correlations
deemed
indic@@
folic
tig
plantation
sub-@@
0.1
pollutants
familial
polypo@@
quantization
spermatozoa
sex@@
comfor@@
trade@@
gvhd
scopic
sensitization
vast
methylation
semin@@
estrous
flattening
fp
bypass
amed
ularity
retort
mining
calf
mechan@@
reacting
ax@@
predict
pediatr@@
ician
pp@@
copying
secre@@
proposing
mun@@
allocated
smooth@@
plasticity
disclosure
denti@@
miner@@
focuses
logarith@@
guaranteed
ferrite
obacterium
deposits
polyim@@
ribed
nuclide
minim@@
invasive
grafting
decre@@
dam@@
ene
drawn
constitutes
multi-media
dummy
indirectly
synthesi@@
promoter
fix@@
aspirin
comfort
found@@
formability
pine
sk@@
corrosive
tidal
ventilatory
circular
magnetostriction
vage
mountains
soundness
essed
install
arthro@@
pathy
speeds
frac@@
exclusion
thermodynamics
constituents
300@@
300mm
function@@
surroundings
atmosp@@
heres
ball@@
chiral
calc@@
batteries
laplace
rescue
high-frequency
ulcerative
suction
ster
philosophy
partitioning
vibrating
normalization
implant
2.1
u.s.@@
ation-@@
tidine
editing
netherlands
aves
shig@@
disinfectant
dilat@@
sug@@
signific@@
atal
asts
extracellular
polysaccharide
thoroughly
imag@@
ination
supplementary
1960
impro@@
ent-@@
fluidity
thz
fg
mass@@
universe
integrate
ester
variables
asymptomatic
carriers
alkali
narco@@
satisfies
returns
obese
mite
fut@@
ord@@
hyperglycemia
gh@@
kit
delirium
aneurysms
ledger
semi-@@
measurable
carbox@@
injured
thawing
tuna
pier
expressway
ises
vertebr@@
cytoplasm
topographic
osteonecrosis
iri
450
visually
cortisone
acetate
confocal
soa
fulfil@@
delineation
pollutant
sedimentation
4-@@
rick@@
japon@@
saf@@
vertebrae
viscera
poten@@
kam@@
ishi
evolutions
ultraf@@
bundle
theses
hydrocarbon
falling
ands
slot
mus@@
siv
illumination
endoscopic
interstitial
pap
sst
dipping
blanket
zones
herd
alize
pressing
ache
inhal@@
examinees
fringes
tup
microbes
epide@@
venography
ges
tim
vary
scleroderma
chains
instrumentation
adaptability
ophi@@
dings
sustained
logical
mortar
photocataly@@
anthro@@
distinction
beforehand
nephro@@
sensi@@
neighb@@
intrahepatic
adhering
stainless
epma
sci@@
cd@@
troph@@
ied
properly
combinations
predicting
complem@@
shin@@
oya
oblig@@
miyagi
yamagata
tot@@
gal
actu@@
aomori
traumatism
storm
l-@@
photo-@@
converting
watch
files
humid
pb
pil@@
consider@@
wrist
vtr
availability
oda
kobe
practicability
physiotherapy
therap@@
genealogy
ey@@
replaces
asym@@
pathetic
boilers
tons
conjugation
acet@@
tle@@
commercialization
vulva
cool@@
cryptogram
twisted
overlapping
bms
impression
carbohydrate
impl@@
meander
crustal
tsunami
ldl
anatomical
provisional
non
1984
occu@@
concern
am-@@
lic@@
lum@@
mus
sel@@
landing
problem@@
atic
hepatocellular
compatibility
attachment
boson
vent
scat@@
nit@@
dermatomyositis
θ
pressurization
orig@@
cyte
spr
alcohol@@
fruits
satisfying
hedr@@
preserve
flash
dh@@
graduation
antihistamin@@
slau@@
sit
insects
governments
appliance
atrophic
connections
nano-@@
limit@@
win
powered
stiff@@
connective
fascia
announc@@
hashim@@
oto
iro
denitrification
gall@@
medi@@
pulp
13.@@
healed
walls
plume
ferroelectric
cour@@
thinning
custom@@
cam@@
von
one@@
juvenile
vp
3d
occup@@
happ@@
ambig@@
uous
gates
saga
gifu
corp@@
adapt
rix
kii
synapse
weakened
irs
experi@@
ft@@
immer@@
lubricant
ahr
exogenous
ducts
infantile
curie
aplastic
ada
renewed
servo@@
mb
long@@
thi@@
resolved
exacerbated
1970
inhibited
coronary
arteriography
club
book@@
shelf
inate
favor@@
answered
decade
sun@@
hype@@
rem@@
relativistic
ronic
express@@
planet
quantitatively
fluorine
sma
dura
mater
prudent
coolant
ete
nighttime
spinocerebellar
sec
refers
fms
promis@@
dogs
curry
lived
tho@@
bred
closure
tremor
subacute
fulminant
germination
diplococcus
apol@@
medium-@@
totals
sing@@
there@@
pois@@
residents
penicillin
metall@@
bel@@
roo@@
hepatocyte
brady@@
cardia
proximal
potenti@@
ometer
electrically
ze@@
unsteady
tability
cake
incineration
excitations
euler
cos
analgesia
graphi@@
emerg@@
usu@@
miyakejima
shu
chelating
hypox@@
emia
esterase
access@@
hodgkin
occult
serotonin
geometry
canonical
ensemble
green@@
dres@@
mmc
py
commonly
preventing
actor
phosph@@
kir@@
mangrove
endurance
polymorphic
lob@@
opath@@
ogenic
forced
incip@@
ient
formalin
milling
periton@@
eum
entang@@
tol@@
motors
compul@@
nanoparticles
regul@@
flick@@
fractu@@
tes
ultrasound
cul@@
arteri@@
anastomosis
angiography
mi
endur@@
rul@@
thesia
heav@@
toner
tigh@@
tening
replica
ann@@
ophilic
prec@@
acids
escape
anus
currency
md@@
atopic
formats
000@@
12@@
00@@
lax
intestin@@
effusion
absc@@
esses
analytically
discre@@
incar@@
jejunum
adhe@@
lesioned
histor@@
neutrophils
shielded
selling
air-@@
olym@@
airti@@
adipose
v.
digestion
arity
advertis@@
hypothalamus
labeling
sle@@
eve
grades
electroless
m-@@
bral
passage
cans
tis@@
lich@@
amation
epoxy
eline
schwann
neutralizing
dim@@
nod@@
hyperplasia
quick@@
ared
craft
polycrystalline
afp
cea
calibration
visceral
sand
neuropathy
railcars
dealing
exafs
dispat@@
drum
occa@@
sional
recombination
curv@@
speciality
heal@@
loosen@@
excursion
hn
constriction
embryo
-based
crypt@@
redi@@
rab@@
dispers@@
shifting
intering
38@@
arctic
drinks
some@@
surpri@@
dish
sap@@
drosophila
exp@@
diversi@@
cores
synchro@@
leptin
exper@@
kum@@
ano
56-year-old
transm@@
digiti@@
nitric
ong
sediment
antrorse
ambulatory
diabe@@
30@@
coastal
ces
actino@@
superconductor
wak@@
accep@@
atile
cyst
respon@@
geriat@@
absolutely
approaching
accommod@@
weaker
ocar@@
reac@@
tiv@@
level@@
gray
dynam@@
vig@@
airway
push
auger
spectrometer
queu@@
vacancies
silane
suppl@@
overe@@
pression
flare
indicator
discriminant
transfer@@
zum@@
promise
intram@@
superconductive
ths
instruc@@
weapon
treat@@
aux@@
distinctive
buttock
ppb
populations
million
coordinated
cohe@@
posts
alf@@
lex
locus
boring
disadvantages
epti@@
dase
alveolar
inos
transcriptional
accoun@@
fish@@
kne@@
idal
mutations
arf
pmd
sand@@
scape
1.0
crises
extern@@
stead@@
intellec@@
pulsation
pers
schools
cks
th-@@
inhibitors
lipoma
riken
muon
formal
eping
olic
persimmon
colloid
roadside
hcl
resident
react
gnrh
umes
epitope
atrial
preservative
crystallinity
restric@@
mismatch
psychiatric
terrestrial
blank
dynamical
cz@@
indicating
mv
ect
resins
isol@@
prop@@
forearm
garnet
turn@@
interpreted
hog
improper
conjunction
electrochemical
monomer
fluor@@
inated
sacri@@
pneumon@@
apparent
coverage
avhrr
hull
opsis
mu@@
fon@@
tment
cong@@
estive
austr@@
odes
bo
hb@@
deceleration
morbidity
cubic
arrays
inventory
-3
fertil@@
graphical
probing
vascul@@
spite
harvesting
played
extacellular
onn@@
els
ecal
buil@@
orrh@@
systolic
tracheal
homogen@@
jima
polycrystal
orus
lig@@
picked
th1
plasmid
oscillating
absorbing
lyso@@
abl@@
sudden
ayed
careful
directed
lag
lac@@
pressions
uti@@
tow@@
derivatives
iety
guest
exerted
ru
coincides
recrystallization
amorph@@
porosity
tail@@
ored
photoc@@
alysis
veness
ola
supersensitive
redund@@
reviewing
selects
gf
delays
assign@@
hai
reorientation
casc@@
bifur@@
cations
xr
karte
homology
homo
incubation
intron
faced
sulfate
complex@@
undergoing
jour@@
cortico@@
umin@@
kp
ologist
turing
ema
nar
sor
tendon
physiology
faraday
meidensha
corp.
nai@@
angiotensin
amatsu
meals
earing
creative
physiologically
than@@
localized
tasis
helps
instantaneous
osmotic
privatization
british
poss@@
diagnos@@
ssri
speculum
income
tetra@@
win@@
stair@@
substituted
lamina
sionally
ko
cn@@
hepat@@
transduc@@
transcrip@@
appe@@
aling
69-year-old
sole
pink
thigh
filaments
accounts
scintigraphy
reserve
deco@@
un
-up
presum@@
workstations
antimicrobial
hyogo
questionnair@@
gravit@@
clos@@
any@@
subscriber
fertility
perm@@
99
stationary
survive
ogen
prob@@
abil@@
transparen@@
pseudo
remain@@
2.5
diffusive
admitted
thorough
nbi
bent
insert
lightw@@
ave
tetr@@
uriniferous
idling
irr@@
itant
mushroom
spore
ging@@
vice
oidal
aps
abo@@
disperse
ddy
interlayer
drip
railcar
caudal
dut@@
hv@@
matched
chiefly
ut
robustness
encies
bipolar
spac@@
aro@@
visi@@
negoti@@
univer@@
org@@
atism
restricted
cuc@@
umber
dew
round
nevus
microscopes
floccul@@
networking
exc@@
essively
subsystems
decompression
juven@@
21st
indr@@
compan@@
connectivity
contain@@
lay
barn
whol@@
low@@
hrct
placement
pn@@
carb@@
harbor
yokohama
obl@@
iter@@
volunteers
hable
anharmonic
ng
g-@@
scienti@@
blastoma
aggreg@@
bcg
dead
thy@@
photomask
ede@@
vs.
interchange
hikawa
u-@@
bility
necrotic
eur@@
contin@@
acidosis
orthogonal
>
stereo@@
tum@@
computer@@
concentric
fast@@
isolator
brief
pac@@
pharmaceu@@
enteral
feed@@
hak@@
hoop
lever
fel
assess@@
accepting
leaving
anatomy
pyl@@
rectomy
tracing
descriptions
confidence
physicians
beer
dying
homozygote
dilated
rd
repl@@
terat@@
chas@@
inte@@
endothelium
electro-@@
znte
aug@@
uration
trou@@
salmon
ho
shallow
fitted
button
freeze
90@@
wind@@
ey
displaying
subtype
ential
adenocarcin@@
ori@@
listening
unding
appro@@
hydraul@@
pancy
cancel@@
detergent
graphy
catching
swe@@
x-rays
scen@@
glas@@
person@@
voip
get@@
tering
slur@@
eta
weibull
likelihood
truck
schottky
fear
environm@@
mem@@
evalu@@
entero@@
round@@
hydride
intrinsic
nitrous
down@@
supersonic
doubl@@
kuro@@
saki
inci@@
bump
retri@@
couple
networ@@
homeostasis
antioxidant
exchanger
ledg@@
bonded
finishing
lots
ired
repa@@
ove@@
timate
metrically
soy@@
bandgap
spin-@@
ier@@
stellate
osteotomy
kerr
tb@@
flatness
qual@@
transitional
dit@@
enrichment
mpc
calori@@
vinegar
consi@@
multilayered
patents
troubleshooting
dispersing
involves
rest@@
xps
mos@@
fiers
advice
crystall@@
coexisting
deduc@@
makers
,000
persist@@
ultrap@@
lorentz
ny
symmetry
transpiration
putation
moun@@
curettage
indications
atomization
ceiling
-treatment
smar@@
prevents
tuberculin
replied
oz@@
lin
drawings
distal
superconducting
ancient
labels
ju
port@@
conical
nipp@@
toil@@
epist@@
ases
light-@@
granul@@
going
continually
λ@@
impeller
municipality
titanate
reclamation
derson
corresponds
unbalanced
ot
hcp
vertically
situated
sb
tables
laminated
poll@@
uting
osphere
html
internationalization
collec@@
td
leading
luminous
speaker
ains
awa@@
exfoliated
illumin@@
influenz@@
pector@@
ails
atro@@
orchar@@
larva
gibbs
knowle@@
steril@@
vpn
relax@@
mpls
large-capacity
positioned
vering
abandoned
vibrator
antiviral
achi@@
kok@@
matsu@@
questionnairing
impairment
inter-@@
entrance
hydra@@
cran@@
gage
obtain@@
orb@@
degenerate
fab@@
simplest
divide
pler
troubles@@
pamphlet
bub@@
flex@@
nerves
synthase
gels
synerg@@
splicing
enhanc@@
dystrophin
ssr
happens
colony
intraperitoneal
distress
possess
moduli
enn@@
herb
perf@@
umed
wanted
expectations
anomalies
reco@@
install@@
span
dig@@
instan@@
pit@@
falls
thigh@@
jum@@
toe
concep@@
conjunc@@
suits
vers
replen@@
resis
hoc
uling
ordinance
trochan@@
teric
ritis
impor@@
absorb@@
attracts
presc@@
ribes
cocr@@
extrem@@
solubil@@
flavonoid
ym@@
eigh@@
elemental
hamiltonian
loro@@
logistic
soot
precursors
achment
aque
2.@@
-like
interacting
tele@@
ovi@@
pos@@
compensated
expen@@
contro@@
soldering
je@@
interferometry
dia
1,@@
farms
1985
olith@@
diverticulum
um-@@
iron@@
clou@@
prefer@@
minimize
knock@@
stn
hemagglu@@
tination
bed@@
rel
emitting
atic@@
cum@@
arsen@@
chry@@
thes@@
bethe
sat@@
epidemiological
appearances
mosaic
occupying
scientifically
thrombocytop@@
hell@@
computations
severely
igh
aligned
hundred
incidents
coded
geometrical
diversification
elds
variant
itely
mann
da@@
fav@@
navi@@
stokes
cationic
environmentally
insb
eity
recombinant
melanoma
tar
azole
attracting
proce@@
robo@@
commun@@
ticket
ecd
lps
ful@@
energetic
mini@@
fun@@
chu@@
phatic
cross@@
para
sampl@@
spondy@@
thesis
micrometastasis
geni@@
doc@@
liqu@@
id-@@
sitting
apri@@
nik@@
sbt
olog@@
flashover
mind@@
balancing
ier
ltd.
jr
aches
standardized
immunostaining
baseline
ctd
road@@
mentation
stat@@
competence
histologically
ry@@
ption
transplant
caro@@
77-year-old
guides
wearing
stoc@@
fetus
・
hyperthermia
relaxed
sugg@@
ft-@@
remission
ention
acceler@@
ences
morbid
enhances
generators
satur@@
cleavage
punching
sutra
communization
accounting
remark@@
lep@@
miyake@@
anomal@@
tat
sick@@
fattening
toc@@
thre@@
unused
proves
run@@
gauss
ee
conscious
rome
roentgen@@
settled
abstr@@
assumptions
aly
follic@@
oms
obviously
famili@@
renin
differing
fl
canceled
50-year-old
phin
bir@@
malignancy
flooring
fix
wave@@
randomly
outflow
interpolation
plasm
bod
myco@@
gmo
lith@@
econ@@
reson@@
neurological
delivered
patho@@
membr@@
mating
pv@@
iqu@@
sero@@
plastic@@
izers
add@@
fits
initi@@
osteomyelitis
carnitine
legi@@
shar@@
pness
dispersive
allergens
destro@@
founded
amph@@
bia
aspec@@
vec@@
ass@@
fluoro@@
bath@@
productive
sched@@
trib@@
off-@@
attaching
thir@@
omy@@
honey@@
pro
exhibiting
ari
wrap@@
neuralgia
complains
volunte@@
ventricle
echocardi@@
ogram
biggest
continuation
grass@@
pocketbook
rib@@
keyword
antiallergic
abilities
vc@@
intro@@
electrophysiological
strangulated
ere@@
bot@@
dr
μ@@
run
oglycan
eda
tech@@
accumulating
esti@@
aled
anne@@
sac
kal@@
diffusivity
elec@@
woven
mailing
80-year-old
outlet
fft
convenience
mud
antibiotic
eral
nf
5-year-old
diversity
synap@@
oration
specular
′
lyapunov
wetting
inspections
excluding
ged
granulation
pharmaceutical
eyeball
increasingly
attained
captured
hypertensive
hus@@
cosmetics
continental
utions
lagrangian
alk@@
mium
hrr
suppressive
fallen
difficulties
electrocardi@@
decol@@
orization
regulate
asted
erase
mening@@
lay@@
dingly
δ
niqu@@
longitu@@
prevalent
stripping
isotopes
urethane
tiles
exfoli@@
rheumatic
measure@@
monoton@@
reasonable
3-@@
palpation
tab@@
suit@@
3.@@
shg
bare
micro-@@
cw@@
composing
ife
heredity
thous@@
￣
interconnect
vf
201
ves@@
prev@@
sickness
settlement
chloasma
desire
bene@@
bench@@
immersion
method@@
eru@@
guid@@
periodicity
mach
icro@@
detail@@
weigh@@
p-type
znse
ware
rse
step-@@
gly@@
conformation
deline@@
infar@@
ipl@@
olig@@
musical
damaging
ultra-@@
myelo@@
redundancy
year-@@
helical
proceeded
regime
ultrathin
gathered
attentions
counsel@@
prolong@@
periodon@@
ists
primi@@
cab@@
assembling
plankton
loudspeaker
utor
ops
inev@@
aim@@
wv
fluctuated
cooperatively
orph@@
aca
displacements
birefringence
linearly
vable
rho@@
qcm
minded
possibilities
ieee
fore
pir@@
viol@@
beau@@
straightening
ethyl@@
enic
rhe@@
104
conduc@@
tivities
whiskers
mesenteric
feren@@
somal
lun@@
0s
hang@@
intestinum
itary
snowfall
nsip
balanc@@
hyperlipidemia
antigenic
incre@@
2nd
pyram@@
characterization
integrable
cervix
iers
acceptable
adol@@
ecological
sandwich@@
cnv
lists
sue
minist@@
cosmo@@
ascending
freckle
-type
throm@@
thyro@@
differentiating
globalization
tsh
stock@@
ase-@@
ercp
gastrectomy
ack
packing
hts
ashi
repor@@
fog
exce@@
avi@@
sou@@
ame
hormones
cathe@@
consist@@
ainst
leak@@
hypotension
palm
6-year-old
ern
eller
valu@@
edi@@
atl
peo@@
ples
hepatectomy
transmittance
abular
advoc@@
quarantine
recommend@@
cage
laying
geneva
onin
headquarters
success@@
ngo
stretching
splitting
ested
dou@@
petrochemical
wee@@
swine
deple@@
enriched
wrest@@
pharmacokinetics
categ@@
explicit
gel@@
atin@@
shunt
inland
embank@@
pond
senior
managing
director
te-@@
recipe
berry
sensor@@
runoff
000
ampl@@
story
perforated
-off
poly
cardiopulmonary
compaction
fati@@
tam@@
organized
inequ@@
neutr@@
ino
fermented
put@@
liber@@
versus
birefr@@
´
retard
hemopoiesis
font
cardi@@
charg@@
sible
maj@@
tt@@
nucl@@
tival
ophthal@@
stator
particulate
titude
prognoses
asting
ingredient
aris@@
time@@
derailment
polic@@
mel
ui
spermat@@
xenon
isotope
carriage
mae
ionosphere
deform@@
winds
classic
surve@@
partly
inde@@
recovering
logarithmic
extrapol@@
clearance
notic@@
underwater
twenty-@@
constitute
chlor@@
za
consent
fac@@
nat@@
hil@@
retinopathy
quadratic
sely
solid-@@
tion-@@
pumping
congenital
dried
purple
allerg@@
scatter
bombar@@
ught
modulator
reflectance
cru@@
199@@
visu@@
alizes
greatest
think
list@@
superi@@
channeling
infiltrated
Ω
fta
notable
generative
here@@
hybri@@
occ@@
mci
year@@
fabricate
half-@@
vpe
3.5
frame@@
flocculation
ilation
dru@@
0.2
ini@@
fare
loud@@
speakers
cancellation
ior
viruses
shap@@
simul@@
hydroxy@@
remainder
aerobe
practices
sealing
exha@@
delic@@
industri@@
ces@@
south@@
triggered
phic
stere@@
ampli@@
resected
engaged
loy
arrest
comm@@
enced
epiphyseal
tivation
toxication
exec@@
sigmoid
assessed
ylase
double-@@
radiograph
orthog@@
spur@@
cognitive
milking
disasters
homo@@
traff@@
fluctuate
ico@@
senti@@
hypogastri@@
gium
ique
yme
sowing
ephal@@
sell
symposi@@
build
represents
percent@@
coast@@
outboard
mbps
al-@@
multiplex
hexagonal
leaching
attributed
ees
percei@@
anaphy@@
ographical
ports
aor@@
influ@@
life@@
sty@@
le-@@
subtitled
onco@@
leisure
ester@@
ification
tn
bean
interfering
inspec@@
juncture
inspected
mr.
deser@@
cox@@
pren@@
cytic
delay@@
tie
pos
edly
accidental
insula
reservo@@
jones
salinity
apt
deteriorating
lati@@
desc@@
vcm
rus
pum@@
electro
mech@@
forestry
cabbage
vus
carbons
fell
absorber
axisymmetric
bra
vertebrate
aml
electr@@
cet@@
rite
oxy@@
behind
comprehensi@@
unidimensional
atedly
sedim@@
entary
reve@@
eclipse
t2
deglutition
soci@@
past@@
nia
fresh@@
hemopoietic
chem@@
icus
ibd
propell@@
cop
cerebrum
methyl
erad@@
antitumor
meningitis
cocc@@
8-year-old
cholesteric
precursor
canon
variabl@@
cav@@
need@@
ode
10-@@
magnit@@
swimming
cham@@
plank@@
relational
cass
ogenous
ido
carr@@
aspiration
resi@@
ω
shaped
melanin
adsorb@@
sour@@
cing
ail@@
plural
jav@@
stron@@
180
mol
muse@@
biodegrad@@
permeation
dft
heightened
characteris@@
enac@@
panc@@
will@@
inform@@
achievements
ushed
ripple
accid@@
entally
cartil@@
xe
follow@@
calcification
aven@@
rho
faction
ivi@@
newton
inhibit
periph@@
-1
metabolite
4-year-old
cystic
quen@@
efflu@@
annihilation
carni@@
rous
kinem@@
escent
pathogenic
retrospec@@
confusion
cogn@@
useful@@
photoemission
cleaner
mia
six@@
iae
z-@@
help
underlayer
attaining
pacemaker
hyog@@
via@@
erial
elucidating
grounding
blades
gers
reliev@@
elong@@
opportunities
fec@@
permittivity
hydrox@@
pat
oxides
clear@@
fores@@
<
0.05
strained
yp@@
low-cost
cost-@@
synthetase
univ.
anticancer
mort@@
simplex
hemostasis
disadvantage
oglobin
ltd
catech@@
el-@@
golf
neon@@
farmers
anes@@
writ@@
vertex
elf
agne@@
tism
achiev@@
tization
dependently
blockade
twentieth
ue
competi@@
requi@@
photonic
mediastin@@
electroencephal@@
ograms
fibroma
ν
odd
flow@@
mai
fans
percep@@
ease
affec@@
zen
seeing
divi@@
atives
eous
prefect.
difficul@@
multi-@@
epilepsy
lonworks
steels
bial
zy@@
dual
successively
alizer
asympto@@
use@@
lat@@
eld
chin@@
behavioral
xi@@
hemodynamics
loo@@
sprayed
passengers
depressant
iip
develop@@
psych@@
sical
fulmin@@
oki
oce@@
bow
mainten@@
traumatic
effic@@
usted
igh@@
uptake
stitis
bloc@@
urations
nonequilibrium
gasb
efficacy
perfec@@
sequ@@
harm@@
orbits
gir@@
jaco@@
reness
asthmatic
shoul@@
dering
expecting
amer@@
tsun@@
absorb
bering
encap@@
ataly@@
plac@@
hydroly@@
lipoprotein
aded
vide@@
aided
vcad
acar@@
mess@@
iwate
manif@@
estrus
oxid@@
ihara
intern@@
buoyancy
eas@@
awaji
doses
altered
belong@@
vldl
invest@@
detectors
multic@@
ellular
τ
vinyl
hypoglycemic
metallo@@
ance-@@
exchang@@
eability
dosage
fluctuating
tari@@
tens
isotropic
in-@@
rent
phr@@
ellip@@
protectors
accel@@
hosts
hemisph@@
erical
hypoglycemia
ζ
anesthe@@
qui@@
administ@@
cox
bloch
schroed@@
schiz@@
inity
,@@
degrad@@
suc@@
kling
composting
subcommittee
aying
commit@@
blending
inet
rene
complementary
vagal
irment
veter@@
inary
purified
implanted
rf@@
toler@@
understands
hiro@@
in-house
kinki
klo@@
tho
anti
miti@@
failed
ort
sided
remnant
eable
uted
mammalia
rain@@
tomograph
endoc@@
ardi@@
wn
coalitio
discharging
autopsy
bl
immobilization
hydropho@@
maintains
asep@@
w-@@
5mm
obacter@@
palli@@
hepati@@
thrombocyte
attenu@@
additionally
implementing
stratified
assay
avascular
mec@@
incen@@
online
homeo@@
enemy
rus@@
addres@@
ubu
surfactant
dispos@@
pest
distant
modelling
tantal@@
terior
phospho@@
modifying
trh
transparency
roughly
lose
bars
st-@@
monolayer
cysteine
guarantees
adolescence
ranged
high-efficient
excite
costal
ground@@
idus
succession
thereby
smoothness
visco@@
algor@@
plasm@@
locally
1.5
thes
ject
rup@@
simpler
f-@@
blow
cows
dly
first-@@
fouling
names
agglu@@
interpol@@
tipping
tter
lined
ago@@
milli@@
-made
rang@@
amputation
locations
fur@@
meta
withdrawal
amorphous
coincid@@
repe@@
atability
ght
algia
draw@@
eno@@
matr@@
kr
simulating
ov
gation
intoxication
wired
assi@@
angiogenesis
strepto@@
pepti@@
sues
flon
combin@@
assistant
split
lying
periodic@@
observable
dnas
append@@
stors
securing
swallowing
ator@@
transmit@@
manifestations
parties
grassland
metastasi@@
caps@@
inval@@
u.s.a
predic@@
uring
fung@@
whereas
ophysi@@
power@@
ferri@@
input@@
scap@@
ingly
teeth
nurse
sintering
wan@@
omorph@@
.5
composi@@
moxibustion
seedlings
anth@@
phys@@
toshiba
destination
europium
acryl@@
desmo@@
uch
piec@@
uld
dram@@
movi@@
rie
ible
acety@@
intraoperative
vin@@
foli@@
alkal@@
hydrostatic
eply
monsoon
larg@@
smoothing
exponents
resultant
quiescent
sig@@
sed-@@
pyri@@
dine
reinforcing
parity
shrin@@
amen@@
ican
fibr@@
chassis
inclin@@
deflec@@
attended
nm@@
subsequent
rayle@@
ih
genotypes
intracranial
germin@@
renormal@@
deaths
inion
vehic@@
arc@@
macro
ider
attributes
time-@@
retar@@
nounc@@
epig@@
asis
ised
styrene
foc@@
dele@@
tir@@
pation
stant
cohort
his@@
encour@@
slu@@
lump
mix
cyto@@
neonate
ication
recommendation
touch@@
como@@
prepar@@
minimizing
neurons
suing
theore@@
sterone
argument
gul@@
arab@@
submarine
axy
shoes
initiated
enema
cling
qd
recy@@
tropic
yi@@
distorted
schizophren@@
±
isothermal
poliomyelitis
grounded
wings
kine
suspended
lier
all-@@
dn
't
disrup@@
tual
myotonic
pof
sities
coag@@
happen@@
bust
sustain@@
cent
agit@@
upgrading
compensating
phosphor
massive
defici@@
settl@@
bromide
ea
sirs
redox
purifying
cleared
74-year-old
th2
adverse
incretion
perceived
caput
commerc@@
sup@@
beverage
dise@@
cytokine
rised
relap@@
ed-@@
trained
median
discriminate
nico@@
pse@@
earthquake-@@
communities
adjac@@
occipital
powders
subsc@@
ription
reconnection
monom@@
specialized
→
inguinal
kaido
polystyrene
dissem@@
.the
dhea
cholecyst@@
segreg@@
stain@@
mirro@@
thema
ensur@@
cir@@
stances
dous
households
restore
ility
fuku@@
sampled
polymers
substantial
inputting
nuc@@
senile
shoot
strengths
tigo
neglect
ribb@@
ule
iva
responds
orous
pregn@@
approximations
practi@@
itting
decor@@
day@@
cytokin@@
leu@@
mesenter@@
ission
cyl@@
bund@@
pag@@
patterned
fig@@
sations
yard
yiel@@
alumin@@
ficial
regularly
zine
arization
trucks
tomo@@
wooden
seawater
declined
balls
multi-
detec@@
proximity
exam@@
ison
acetaldehyde
ses@@
onally
tropy
atyp@@
repeatedly
wei@@
bel
natri@@
cm2
pros@@
silic@@
benign@@
penetrate
aires
friend@@
in-situ
monit@@
integr@@
hence
travel@@
ameth@@
asone
vapor@@
acetyl@@
tend@@
initis
dization
unde@@
restim@@
een
an-@@
permeated
recycled
eosinophil
prominent
respec@@
connec@@
alia
uria
cyt@@
alas@@
immunohisto@@
-time
struction
crank
adjust@@
guide@@
archi@@
stry
erci@@
ybco
indu@@
≒
nemat@@
cn
1-year-old
precautions
wrin@@
viron@@
chy@@
tern@@
chrome
alog@@
fisheries
fif@@
tants
contradiction
parturition
0.5@@
litis
uretic
overload
ventric@@
pnh
recep@@
pointing
weak@@
pathohistologically
questi@@
oned
choline
jets
shor@@
event@@
peric@@
160
phyto@@
amylo@@
fibri@@
exciting
dang@@
ovulation
scro@@
zeol@@
styl@@
multivari@@
oxygen@@
xlpe
whis@@
archit@@
conveyor
depths
accur@@
ina
fric@@
afforestation
modal
hidden
scarcely
etsu
tou@@
‰
possessing
fibrous
scr
mis
mesentery
icular
embry@@
looked
authen@@
distil@@
transducer
lenses
horizontally
‘
shall
dystro@@
dealt
four-@@
nio
ux
mable
10nm
ere
dermic
standardi@@
ulated
thromboembolism
inequality
cathepsin
humer@@
vomiting
fibrin
pick@@
bell
tub@@
sulph@@
constitu@@
abrupt
Δ@@
breaking
thunder
restrial
flowmeter
photom@@
tage
cell@@
swit@@
railroad
statin
tries
65-year-old
52-year-old
pzt
encoded
jected
ordin@@
allergen@@
immunoglobulin
sheep
introduc@@
monol@@
ayers
ond
heterostructure
longest
dimension@@
hoof
concer@@
conflic@@
x-@@
query
experimented
dos
brush
bary@@
interrup@@
players
xation
interleukin
yrin@@
certi@@
england
auto-@@
ras@@
4.5
clamp
compactness
vhf
mir@@
atings
ubiquitous
ressive
tenue
contrain@@
osteoblast
helico@@
king@@
distin@@
wg
peritonae@@
epine
demyel@@
itic
lettuce
suppress@@
probabilities
batter@@
progr@@
fujitsu
topo@@
big@@
casing
eo@@
ibaraki
5-@@
yor@@
aming
selec@@
tial
cloned
du
zygote
preven@@
tia
myeloma
prescri@@
ptions
sacrum
etic
elev@@
desk@@
dissipation
diap@@
ause
pes@@
stok@@
pharmaceuticals
iton
asynchron@@
cess@@
skelet@@
reservoir
noc@@
nal
steady-@@
ion-@@
inqui@@
hear@@
iso14001
convulsion
erc@@
scopically
overlooked
antagon@@
ceram@@
pix@@
dair@@
pose
criter@@
meteoro@@
cats
iting
sol
hydroforming
lightening
treats
wavefront
experim@@
skull
encing
ually
superposition
tuberous
pemphig@@
bure@@
tough@@
standpoints
pel@@
righ@@
jejun@@
ume
phosphorylation
gluco@@
ytic
blan@@
safe@@
bv
ather@@
fiel@@
evacu@@
icillin
extracorporeal
trapped
recycl@@
tetan@@
anes
histo@@
rbs
occip@@
grad@@
instrum@@
ovirus
#
dependencies
spher@@
violet
scop@@
chemically
olin@@
reentry
urin@@
collab@@
capd
wr
68-year-old
metries
glucocorticoid
prove
-free
atine
colum@@
aya
humidi@@
gang@@
hygi@@
estig@@
lacks
monocyte
senses
compati@@
ire
parasi@@
sme@@
γ-@@
albe@@
inflam@@
lipids
wedge
partici@@
correl@@
commerci@@
aes
magneto-optical
plzt
propan@@
attem@@
alco@@
ich@@
false
epi@@
physis
uate
kero@@
refer@@
itable
differen@@
einstein
kelvin
sium
icies
extre@@
titration
hypophyseal
sea@@
fide
β@@
d2
hydroxyl
nozz@@
vacu@@
radiative
-b@@
parkinson
newspap@@
week@@
magazines
ascen@@
sequencing
epit@@
cali@@
mari@@
toro@@
recei@@
ogenesis
phantom
troubl@@
inclu@@
vaso@@
64-year-old
catalog@@
pancre@@
num@@
agi
compres@@
helicop@@
iced
soph@@
istic@@
anol
chie@@
ovary
pleural
dation
asphalt
gene@@
ointment
toughness
long-@@
itor
tandem
amin
tom
judg@@
liberalization
antiarrhythmic
closer
silicate
merchan@@
poro@@
license
osine
ps@@
subunit
bec@@
essentially
viet@@
ese
hist@@
palle@@
thinner
tren@@
glomerular
volatil@@
subst@@
gamma-@@
leaders
toroidal
discrimin@@
onucle@@
interlocking
sio
enth
hla@@
rough@@
nesses
propul@@
usly
subsidence
gib@@
pico@@
compliance
colle@@
systematization
tices
agonal
stom
dinal
circu@@
schem@@
yamaguchi
comb@@
stor
wavel@@
inelastic
transfers
kyo
ophylline
pend@@
posing
remarks
gr
ered
ications
propri@@
absorbent
chromatin
recip@@
anding
opathic
lpe
wea@@
high-efficiency
lumber
otide
macroph@@
osteoarthritis
degenerative
androgen
etched
verse
bovine
olec@@
crc
alkyl
shared
suggesting
origin@@
ycl@@
myocardi@@
h.@@
tica
symbio@@
eva
rams
fabr@@
icating
b2
maturity
adium
inten@@
targ@@
effici@@
pk
eig@@
strang@@
warfarin
fractionation
vial
challenging
sera
sequent
atherosc@@
lerosis
fasc@@
scrat@@
stretch
densi@@
blocked
ven
seis@@
substantially
psychotherapy
robotics
ust
displac@@
uminescence
170
dysplastic
boat
lifting
dnf
adhesives
gass@@
manner
ve-@@
reless
seventh
glutam@@
″
merely
aerob@@
elet@@
azim@@
ration@@
f2
chall@@
aneous
rpm
8.@@
stoch@@
astically
open@@
olar
ter-@@
onate
eres
estu@@
vers@@
ubiquit@@
icide
rosis
sag@@
mp@@
mobil@@
matic
firm@@
m.
70-year-old
sjo@@
egren
barium
disinfec@@
carbo@@
kets
ownership
antly
synthe@@
compon@@
tubercul@@
eosin@@
steroids
oint@@
subway
avian
assimil@@
sten@@
yro@@
miyak@@
tangent
single-@@
tyro@@
pura
oline
environ@@
uth
myelodysplastic
ament
translocation
1982
changeable
chlo@@
jap@@
evoked
marg@@
advan@@
ageous
sleep@@
ext
aks
horm@@
comb
cytoma
anthema
specific@@
shad@@
graph@@
springs
terization
400@@
commer@@
above-@@
nip@@
summer@@
wri@@
vag@@
fairly
arth@@
degener@@
provision
shif@@
lamination
opulmonary
p.@@
pected
wed
tradi@@
buckling
pins
cher@@
gyp@@
spinning
ticity
tgf-β
°
phylo@@
lumb@@
mountainous
meckel
consen@@
benzodiazepine
aval@@
atorial
thal
catecholamine
formal@@
arg@@
oro@@
para@@
stitutes
investig@@
scar@@
obstetr@@
rhyth@@
uniform@@
mum@@
possesses
information-processing
realtime
inlet
csf
reconstructive
wer@@
euro@@
aquatic
thered
paro@@
elast@@
acro@@
26@@
know-@@
how@@
cho
conn@@
necess@@
police
normal@@
kel
metastases
se-@@
bes
yel@@
show@@
otype
dams
spleen
corneal
ventil@@
mitted
esc@@
stret@@
multiv@@
enor@@
hypersensi@@
nic@@
anti-inflammatory
planted
discus@@
betw@@
bank@@
accomplish
los@@
hospit@@
tensi@@
syno@@
iling
inhomogeneous
proteinuria
heigh@@
tee
stell@@
rein@@
operatively
torsion
75-year-old
carri@@
pase
tosis
questionn@@
pseu@@
helpful
sured
alcoholic
thorac@@
desor@@
catal@@
lf
ultrason@@
tob@@
n2
ength@@
isom@@
atio
other@@
process@@
$
moid
grow@@
mater@@
numb@@
straigh@@
tened
ery@@
atization
elas@@
traum@@
probably
proof@@
efflorescence
lym@@
pits
melted
entric
retin@@
monochromatic
dents
diarr@@
g2
demonstr@@
mtdna
expor@@
β-@@
aning
ple@@
salivary
black@@
metrical
tition
inter
practicable
splen@@
keratin
propor@@
rta
bilities
edta
21@@
tioners
hibi@@
narrowing
adjuv@@
tachycardia
explic@@
itly
opul@@
classifies
glycine
ligament
14000
obser@@
enthal@@
lapse
anal@@
mation
deodor@@
vo
anion
photocurrent
cryp@@
gev
synthetically
focus@@
lead@@
heimer
epiga@@
ancer
farm@@
v-@@
effec@@
girder
invasiveness
cyclosporin
bca@@
corne@@
osmo@@
emed
verte@@
alve@@
oxin
uli@@
atur@@
east@@
s.
histidine
with@@
240
explain@@
plasmon
menop@@
tempor@@
techniqu@@
substanti@@
ins@@
nex@@
hk
suppor@@
refr@@
prur@@
smal
oglob@@
inuria
urization
usting
fp@@
ranial
deuter@@
tray
nak@@
ovari@@
neuronal
anal
aerospace
rea
dementi@@
internation@@
transformations
mediate
tachy@@
2d
sintered
cerebell@@
commut@@
embles
kaw@@
ysis
taiw@@
anese
invasi@@
blast@@
axis@@
nel
{
}
mosa@@
frec@@
irreversible
succeed
citation
dum@@
dependability
uncer@@
symbi@@
dom
thermoplastic
wro@@
electrophoresis
sens@@
scor@@
staff@@
telom@@
impa@@
fluores@@
≦
next-@@
mites
vices
bif@@
accp
buff@@
yst@@
sarco@@
parathyroid
excre@@
west@@
algorith@@
157
erro@@
athi@@
subclinical
ision
ous@@
correcting
priv@@
hara
kai
baking
random@@
menstr@@
adop@@
ales
dian
adequ@@
entirely
chemi@@
descrip@@
monolith@@
ign@@
electroly@@
manipulator
idation
mixtures
intub@@
fications
devel@@
machin@@
likely
ingaasp
disast@@
gaus@@
hydrothermal
despite
dment
subarachnoid
announcements
ude
heredit@@
paradig@@
scaffold
distor@@
tokam@@
conv@@
perturb@@
flux@@
fund@@
itus
seri@@
1.3
r-@@
noticeable
scp
topological
adic
edm
togram
lamb
myot@@
pamph@@
ophthalm@@
jects
taneously
curr@@
δ@@
jan@@
where@@
wet@@
amyloidosis
field@@
clari@@
oids
rheological
mani@@
vacc@@
attempting
gallstone
alu@@
vae
neph@@
admini@@
strat@@
envel@@
reexamination
linearized
nick@@
leis@@
semi
sulfur@@
apped
nitro@@
genous
allow@@
merg@@
ichi@@
hime
ctr
plasmic
Σ
exerc@@
adver@@
photolith@@
antimicro@@
rutherford
tible
fid
compressible
relev@@
galacto@@
them@@
pie@@
counc@@
yar@@
reh@@
a.
glycemia
aspir@@
large-@@
rheumat@@
hemangi@@
seed@@
pox
cesium
mah
deman@@
rati@@
accessory
stimul@@
oluminescence
lion
volt@@
acqui@@
complic@@
varico@@
o3
combus@@
exacerb@@
roc@@
strain@@
θ@@
house@@
recogn@@
gtp
cutoff
phylaxis
ough
allowing
hyperlip@@
now@@
spaces
pwv
ocardi@@
ushima
sinus@@
Δ
herni@@
perform@@
workability
compton
ichia
second@@
auricular
aca@@
hibiting
likel@@
chondri@@
ingredi@@
thermia
canopy
vena
cava
μ
super-@@
alga@@
otherapy
emis@@
ring@@
philos@@
ench@@
wife
72-year-old
ense
uter
parkin@@
acr@@
colon@@
iasis
lling
pedestri@@
50-@@
autom@@
gasi@@
diox@@
iod@@
cry@@
φ@@
adh@@
ensive
sors
nigh@@
establish@@
m2
fting
temporarily
chl@@
ophil
wl
1mm
prefec@@
ius
sz
tainty
hall@@
atil@@
diame@@
adj@@
lorescence
indings
isely
depend@@
resul@@
anorexia
clav@@
negl@@
onia
proced@@
emp@@
tention
atis@@
dropl@@
quantit@@
。
satell@@
ospheric
ls@@
ffe@@
natur@@
seas
oden@@
atrium
respir@@
petro@@
diag@@
symptom@@
consp@@
lipos@@
stands
kari
rot
ury
maker
stonia
tioning
desulfur@@
intrad@@
mally
kei@@
grove
overwhel@@
sever@@
ulin@@
farad@@
antagonist
mammal@@
cytometry
fwhm
polymorph@@
demon@@
ψ@@
further@@
quadru@@
confirm@@
phosis
encephal@@
fur
ether
mosp@@
osa@@
classi@@
tgf-@@
fair@@
rescence
copy@@
streng@@
brom@@
igata
readily
pip@@
measur@@
membership
of-@@
energy-@@
wien@@
oas
arach@@
bom@@
arachnoid
susc@@
ceramide
megal@@
abatic
gunma
corporeal
tonian
quad@@
iring
gradual
thym@@
tang@@
polym@@
dential
η@@
handic@@
vap@@
subscrib@@
retriev@@
5nm
deglu@@
hbt
glyc@@
bio-@@
predicts
metast@@
striction
local@@
epilep@@
yance
atorium
vacanc@@
histopath@@
automobil@@
ister
scopes
mary
pitu@@
choo@@
relativis@@
laxis
begin@@
antic@@
renew@@
ch-@@
fraction@@
hemic@@
beli@@
spra@@
iton@@
transp@@
complet@@
moment@@
collo@@
month@@
airs
e.@@
mononucle@@
depressive
deck
kinship
mise
neigh@@
pop@@
izu@@
↓
stero@@
dai
til
refu@@
dence
iner@@
atri@@
ε@@
sequel@@
confin@@
electri@@
philosoph@@
65nm
tains
vered
zir@@
answe@@
utely
bp@@
erization
holog@@
dis
suffici@@
ference
flexural
occlu@@
ulcer@@
ipid
〔
〕
jun@@
benzo@@
diaz@@
cure@@
regularity
succ@@
intell@@
wester@@
precip@@
inser@@
restrain@@
tibia
hydrate
strengthens
stin@@
metrics
import@@
itan
□
coff@@
cantil@@
tration
repul@@
fil
arteritis
onitrile
stit@@
whole-@@
pharmac@@
fes@@
atically
avoid@@
cartri@@
ousness
aldehyde
rt-@@
ific
world@@
contrad@@
aily
suspen@@
filam@@
kine@@
rism
ials
transi@@
assoc@@
itively
thering
dens@@
general-@@
Φ@@
hepatoma
equilibri@@
yt@@
eclip@@
nant
ometry
monary
stal@@
tane
scoli@@
cardiomy@@
vox@@
endothel@@
ral@@
dehyde
depress@@
deplo@@
〈
〉
omyelitis
depic@@
ocytic
hydrogenase
behavi@@
resis@@
shima
utes
lag@@
substr@@
structive
bound@@
new-@@
xin
ibar@@
ulin
staphylo@@
≧
arachno@@
aber@@
deriv@@
iden@@
enligh@@
regar@@
≪
nanop@@
genealog@@
terro@@
encoun@@
diffractive
arrang@@
veloc@@
aeri
ξ
enzym@@
lique@@
curren@@
attrac@@
defec@@
dissi@@
afr@@
derma
itching
sligh@@
anch
vertigo
ma-@@
by-@@
cryst@@
xanth@@
four@@
sation
indrical
vil
present@@
jective
built-@@
pasture
juni@@
thou@@
condy@@
eras@@
neutroph@@
financ@@
photovoltaic
riet@@
photovol@@
chen
cence
stren@@
reyn@@
brou@@
manned
oric
perc@@
annih@@
hv
no.@@
kushima
ceph@@
canop@@
sitis
dysp@@
cosm@@
discharg@@
∞
nac@@
perpendicul@@
epid@@
oy@@
lens@@
poro
decentr@@
colli@@
constructive
credi@@
phar@@
quarters
bull
light@@
anim@@
ronics
squam@@
embed@@
α@@
ght@@
\
purpos@@
flavon@@
ermal
sha
omyo@@
sition
cation@@
precau@@
depen@@
66-year-old
retely
fir@@
tude
π@@
arrhythmic
fers
γ@@
itions
netw@@
teles@@
losure
vis
catar@@
rna@@
stasis
copolymer
g.
conspic@@
junc@@
6-@@
retic@@
eluc@@
gradi@@
ogs
acidi@@
easi@@
exem@@
urity
rele@@
maco@@
decompos@@
shore
midd@@
enem@@
endocrin@@
ocarcin@@
beck
turn-@@
spind@@
rigo@@
ozo@@
progres@@
residu@@
spectr@@
insol@@
strength@@
agic
σ@@
corticoid
cosme@@
studi@@
zygo@@
resp@@
infil@@
consci@@
zig@@
resembl@@
fic
paraff@@
inding
inhe@@
onable
clust@@
aniso@@
audit@@
ope
meas@@
opposi@@
adreno@@
mechat@@
cerebro@@
accum@@
appear@@
ammon@@
describ@@
forc@@
lld
cholester@@
sufficiency
thern
diagno@@
Ω@@
priced
bauer
mex@@
acter@@
bumin
oking
stered
neous
thail@@
quasi@@
speed@@
toyo@@
heli@@
lik@@
sput@@
synth@@
brie@@
arbit@@
antine
surance
rable
heric
iat@@
dal
4mm
espec@@
olution
electropho@@
zag
rect@@
ilities
jector
enterpri@@
ω@@
amoun@@
mesench@@
polyst@@
conven@@
tories
ogly@@
metic
restor@@
anastomo@@
manufacture@@
labor@@
nut@@
enum@@
princip@@
mito@@
κ
perman@@
empir@@
hol
yb@@
diffe@@
premis@@
replac@@
sait@@
ostomy
lou@@
apop@@
aure@@
enta
polysty@@
quid
stir@@
conjug@@
hip@@
Ι@@
epil@@
earthquak@@
eously
swim@@
curricul@@
rol
dimensi@@
inciner@@
tra
eury@@
hea
lerotic
stim@@
certific@@
Γ
onas
∂
osteopo@@
alter@@
orts
inherit@@
paroxy@@
medull@@
zil
chralski
volcan@@
yment
sten
icitis
surveill@@
information-@@
thaw@@
poie@@
relation@@
occupati@@
forec@@
coupl@@
shizu@@
practic@@
famil@@
hier@@
fos@@
statis@@
anatom@@
deterior@@
fulle@@
tangen@@
tally
eul@@
aper@@
pneum@@
defic@@
intersti@@
cathep@@
consor@@
aseis@@
request@@
partic@@
nea
near@@
propos@@
blin@@
advant@@
t.
hoku
vical
occul@@
pru@@
ction
nox@@
prelim@@
dehy@@
faith@@
《
volun@@
angioten@@
arthr@@
icals
pel
outl@@
try@@
buoy@@
pene@@
Λ@@
ithel@@
compu@@
block@@
histamin@@
anthocy@@
ihood
aom@@
peculi@@
puber@@
asyn@@
pacem@@
akers
profil@@
camer@@
duoden@@
troublesho@@
withdraw@@
imer
xim@@
apun@@
tex
bam@@
year-old
olamine
prac@@
anten@@
rete
distric@@
campa@@
tensive
anast@@
schott@@
hyperlipide@@
pollin@@
possi@@
swel@@
lings
ymal
pede@@
stal
becom@@
barri@@
olds
extin@@
obste@@
avage
leth@@
gau@@
elem@@
deaf@@
trache@@
omnia
gren
fist@@
insec@@
uary
multilay@@
rand@@
heterogen@@
diphther@@
nam
advanc@@
postn@@
seph@@
thalidom@@
shio
surround@@
chloric
imens
strati@@
sear@@
middle@@
sporin
mountain@@
situ@@
antro@@
odic@@
oment@@
√
inea
proxim@@
emphysem@@
phrine
cot@@
blue@@
parathyro@@
ocere@@
artifici@@
enrich@@
recombin@@
lup@@
ignment
welling
invari@@
phosp@@
ifu
tish
syndro@@
corpus@@
←
sols
vious
infan@@
athing
indi@@
platin@@
cei@@
research@@
inhib@@
engine@@
siella
rimin@@
∝
wom@@
fically
estions
outh
tivitis
blad@@
ubiqu@@
rit
indone@@
chlamy@@
domonas
ound
resor@@
_
dicular
turition
alky@@
psychiat@@
ophyll@@
ulsion
more@@
impur@@
aker
displ@@
waste@@
intesti@@
datab@@
eutroph@@
suggest@@
iry
yaman@@
ψ
Σ@@
septic@@
ady@@
bage
atite
emergen@@
aky@@
uter@@
arrhyth@@
