現在
，
筋
ジストロフィー
患者
の
移動
介助
に
お
い
て
文書
マニュアル
を
使用
し
る
。
最後
将来
展望
つ
記述
ＤＮＡ
解析
技術
解説
た
疾患
関連
遺伝
子
医療
へ
活用
説明
液晶
特性
評価
装置
紹介
で
あ
これ
ら
よ
り
診断
指針
や
治療
方針
確立
貢献
する
こと
が
期待
さ
れ
ＥＢＭ
ため
精度
高
臨床
疫学
研究
求め
られ
メタン
部分
酸化
反応
単@@
板
ガラス
と
複合
日射
熱
分析
内部
リレー
使
方
外用
剤
ｓｃ@@
ｌ@@
ｅｒ@@
ｏｓ@@
ｉｎｇ
ｐ@@
ａｎｎ@@
ｉｃｕｌ@@
ｉｔｉｓ
症例
１
は
６４
歳
女性
っ
また
事例
通
援助
視点
必要
な
ポイント
確認
要素
予測
受け入れ
可否
市@@
長
判断
世界
銀行
中国
インド
インドネシア
タイ
フィリピン
電力
述べ
データベース
編集
パラメータ
不
十分
正確
値
格納
吸収
帯
も
多
く
存在
新し
規格
項目
構成
示
今日
手術
成績
Ｅｎｇ@@
ｅｌ
分類
３
）
広
用い
定着
アンプ
エネルギー
トランス
コンデンサ
依存
その
支援
システム
例
Ｐ@@
ＡＴＳ
ＹＳ
機能
特徴
ホ@@
スピ@@
ス
・
緩和
ケア
現状
まとめ
近年
ＤＶＤ
急速
普及
ＰＣＴ
歴史
意義
つつ
整理
問題
点
今後
提案
副
作用
かっ
ＶＡＳ
小脳
刺激
群
名
改善
認め
他
グレーティング
フォトニック
結晶
ヘリウム
冷凍
仕様
ＭＲＡ
術後
経過
観察
既に
もの
思
わ
一般
病棟
おけ
コンサル@@
テーション
型
チーム
（
注目
ＵＳ
ポ@@
ーク
栄養
価
示唆
ボ@@
ストン
地域
ｅｎｔ@@
ｒｅ@@
ｐｒ@@
ｅｎ@@
ｅ@@
ｕｒ
ネットワーク
例示
Ｍ@@
ＩＴ
け
促進
メカニズム
班
概要
ＣＲ
ＱＡ
目的
可変
分散
補償
器
開発
下水
道
新
推進
機構
１９９２
年
設立
アジア
繊維
アパ@@
レル
産業
事情
ベトナム
および
合併
症
数
ＲＯＭ
ポジ@@
ショ@@
ナ
主@@
用途
プロセス
工業
マ@@
トロ@@
イド
エ@@
ミュ@@
レータ
提示
インターネット
不正
プログラム
発生
回路
設計
前半
ＰＭＭＡ
分解
この
ハプ@@
テン
ＢＳＡ
結合
物
得
基板
アンテナ
パターン
形状
検討
アレルギー
増加
生活
環境
中
化学
物質
影響
指摘
Ｈｏ@@
ｕｇｈ
変換
直線
あてはめ
マン@@
ハ@@
ッ@@
タン
アメリカ
ニューヨーク
衣料
地区
ｐｌ@@
ｅｃｔｒ@@
ａｎｔｈ@@
ｏｌ
Ａ
ラジカル
消去
活性
電子
ＦＦ@@
ＡＧ
主
二
主題
原子
核
黒@@
球
扱
ＣＯ２
から
クリーン
Ｈ
２
ＣＯ
混合
ガス
製造
触媒
最近
Ｉ@@
ＬＡ@@
Ｅ
外科
委員
会
純粋
発作
予後
ＡＰ
過程
股
関節
ＪＩＳ
任意
認証
第
三
者
検査
思想
７５
ＭＲＩ
新鮮
骨折
軸受
動向
コンセプト
ＡｌＮ
含
む
ＧａＮ
Ａｌ
成長
試み
ファイバ
レーザ
構造
発振
原理
ＳＭＥＳ
ＨＰＬＣ
アミノ
酸
ナノスケール
配線
外部
電極
接続
難し
概念
小型
制御
ブロック
Ｄ@@
Ｑ@@
利点
限界
定義
さらに
Ｈ@@
ｏｔ
Ｓｗ@@
ａｐ
モデル
ハードウェア
そして
ソフトウェア
欧米
日本
肥満
程度
タイプ
異な
か
しれ
Ｂ@@
ＪＤ
活動
目標
掲げ
寿命
関係
発見
シグナル
伝達
系
関与
明らか
老化
話題
まで
対照
２０
ペア
有効
回答
報告
手法
実装
検証
船舶
騒音
Ｓ@@
ＥＡ
法
細胞
極性
発癌
触れ
基本
ＲＡＭ
カートリッジ
ケーブル
ＮＣ
Ｃｏ@@
ＭＭ
ＰＣ
間
データ
う
機器
プロトコル
概略
次
部品
せ
関数
ｏｖ@@
ａｒｔ@@
ｓ
ソース
Ａｓｓ@@
ｅｍ@@
ｂｌ@@
ｙ@@
Ｅｖ@@
ハン@@
ド@@
ラ
Ｐｌ@@
ｏｔ@@
Ｐｏ@@
ｉｎｔ@@
ｗ@@
ｏ
サーベイランス
対象
方法
浮@@
き
コンテナ
ターミナル
す
スモン
薬剤
考察
答申
案内
要望
アンケート
調査
行
渋@@
谷
区
歩道
収集
写真
翻訳
蛋白
質
因子
ｔ
ＲＮＡ
分子
擬@@
態
仕組み
解明
ニューラル
強度
抽出
議論
生産
原料
ほとんど
化石
資源
石油
ｌｕ@@
ｇ
供給
ポテンシャル
大き
期間
要
標記
関
品質
改訂
概観
状況
ＣＲ@@
ＰＳ
早期
重要
実証
炉
パーソナル
コンピュータ
利用
熱源
最適
民間
資本
ＩＰＰ
事業
成果
ＯＨ
バンド
スペクトル
観測
回転
温度
ＯＴＣ
薬
教育
セル@@
フ@@
メディ@@
ケーション
理解
１０７
病院
立場
防御
認識
有機
ＥＬ
フレキシブル
ディスプレイ
ＰＤＰ
など
Ｑ
１@@
５０@@
０１
プライバシー
マーク
制度
照@@
応
処理
種類
方式
機械
情報
応用
ＨＥ
ＤＩ@@
ＣＯＭ
統合
プロファイル
Ｈａｍｉｌ@@
ｔｏｎ
Ｓｃａｌｅ
運動
野
低下
Ｖｉｒ@@
ａｓ@@
ｏｒ@@
代数
量子
変形
ＬＡＮ
記事
木炭
ＥＳＲ
プローブ
ネズミ
心臓
酸素
濃度
知見
次元
画像
取得
金属
部門
精@@
業者
少な
自然
共生
叫
ば
ＱＯＬ
徐々
上昇
発症
前
同じ
９
残留
歪
モジュール
短
避け
けれ
ＬＮ
組織
像
ＣＯＰＤ
換気
日常
制限
製品
Ｅ@@
ｃｏｎ@@
ｏｍｙ
ｙ
ｃｏｌ@@
ｏｇ@@
土壌
対
種々
樹種
応答
挙動
調べ
各
セッション
発表
センサ
モニタ
測定
論文
スペース
シャトル
実験
ＳＥ@@
ＰＡＣ
結果
エンジン
ＣＶＴ
組合せ
コンダクタンス
半
導体
表面
強
フォロー
アップ
シート
異常
努め
細菌
Ｐｓｅｕｄｏｍｏｎａｓ
属
ｙｄｒｏ@@
ｇｅｎ@@
ｏｐｈ@@
ａｇ@@
ａ
性
シミュレーション
性能
軟骨
ｆｉｂ@@
ｒ@@
ｉｌｌ@@
ａｔｉｏｎ
相関
啓発
効果
粉末
回折
いく
未知
決定
当初
１０
年間
接種
当日
入浴
控@@
え
激し
指導
ターゲット
材料
クラスタ
課題
指紋
入力
３９
政府
拡大
望
ま
メリット
アンモニウム
イオン
ゼオライト
吸着
アンモニア
ＩＲ
分光
ＴＰＤ
検出
サービス
ホーム
ヘルパー
デイ
中心
認定
介護
度
適正
軽度
圧痛
伴
３４
４１
男性
シンポジウム
夜@@
勤
疲労
眠気
だ@@
占め
割合
週間
一定
保
ダイヤモンド
衝撃
１００
ｍＴｏｒｒ
以下
圧力
低圧
誘導
プラズマ
先ず
スマート
メディア
アプリケーション
市場
自殺
著者
デザイン
変遷
図示
内容
ＨＢＶ
感染
破壊
ＣＴＬ
殺
牛肉
トレーサビリティ
確保
最初
めぐ
通信
インフラ
変化
リモート
センシング
植生
分布
ならび
口@@
臭
原因
皮膚
温
サー@@
モグラフィー
ＧａＰ
加速
起源
ダ@@
想定
大きな
雑音
ＭＨｚ
ビート
波
ソフト
マクロ
組み
８
地方
分け
地図
表示
ほど
安定
領域
減少
化
フィラメント
位置
考案
経済
比較
アントシアニン
Ｖ@@
ＭＡ
呼
優れ
多様
生理
ステアリング
軽快
特に
ＭＧ
顕著
ステロイド
ＩＯＮ
確定
要因
ＥＰＲ
フランス
台@@
頭
著し
家族
寄与
地球
国際
会議
動き
ＮＥＤＯ
プロジェクト
あげ
プレート
固定
エアコン
冷蔵
庫
インバータ
支え
パワー
デバイス
対策
Ｎｅ@@
ｕｒ@@
ｏｎ@@
Ｃ
プログラミング
ＳＮ@@
ＶＴ
Ｌ@@
Ｔ@@
ａｌ@@
ｋ
ゲノム
縮小
進化
クロム
必須
素
アデノウイルス
分離
樋
補修
時間
短縮
経営
そこ
共
車
椅子
時
リスク
取り組
ん
同
全国
各地
キャン@@
ペ@@
ーン
開始
ドイツ
ダイオキシン
ＴＯＦ
アナ@@
ライザー
ＳＩ
列挙
導入
界面
ステップ
エッジ
起こ
生体
フル
カラー
断層
セグメンテーション
すべて
可能
散乱
振幅
計算
それ
性質
論
じ
画素
改造
進
言語
組み込
み
複数
タスク
並列
動作
様子
シミュレート
シミュレータ
基準
調和
杖
歩行
ｉｎ@@
ｆｌ@@
ｉｘ@@
ｉｍ@@
ａｂ
ＲＡ
同時
スロープ
製作
ロボット
でき
．
液体
ロケット
周波
燃焼
振動
抑制
呼吸
困難
ビジネス
サイエンス
牽引
形
ＣＭＯＳ
イメージ
ケース
コントロール
等
選択
首@@
尾
近づ
ホップ
方向
速度
破傷
風
毒素
ＮＯｘ
ＳＯｘ
まず
放電
ＴＳＰ
Ｐｕ
炉心
径
３３
ミクロン
アルミニウム
線
Ｆ@@
ＳＳ@@
Ｇ
積み重ね
属性
得点
相違
悪性
リンパ
腫
主な
シールド
ルーム
周囲
排除
エミッション
検波
容易
粒
５
メートル
防止
すれ
ＯＡ
有用
しかし
格差
Ｃ@@
ＩＳ@@
望遠
鏡
焦点
直接
取付
ＣＤ
差
量
レジスト
再発
腹痛
印字
全体
水素
拡散
火炎
整形
ず
ＤＶＴ
興奮
簡単
提唱
各社
分泌
酵素
プリオン
主訴
下肢
紫斑
骨盤
傾斜
予想
ソケット
設置
マグネシウム
需要
スポット
ガン
治具
行政
トライボロジー
メンテナンス
ツール
ＡＤ
病態
溶接
非常
厳し
試験
近郊
育成
機関
ＡＤ@@
ＡＭ
ＥＣＭ
グラス
破砕
体外
摘出
モノリシック
ＭＬ@@
ＬＤ
時期
ＦＡＰ
ＳＣ
嵩@@
Ｍ
有意
低
光
ファイバー
伝送
路
考慮
大会
決@@
議
タイ@@
マ
タイミング
役割
同社
北米
明る
見え
ＮＰ
プライマリ
療法
実際
統計
ＪＯＡ
スコア
３１
７２
クロマトグラフィー
科学
構築
計画
病変
浮腫
著明
商品
８００
Ｔｏｒｒ
圧
ピーク
カウント
粒径
それぞれ
３０
４５
ｎｍ
だっ
改良
発展
投資
コスト
死亡
オゾン
効率
一
超
インピーダンス
入院
費用
Ｍｇ@@
Ｚｎ@@
Ｃｄ
Ｓｅ
良好
発光
健康
下位
尺度
生
ｍＲＮＡ
リアル
タイム
はじめ
頻度
ＴＫＡ
ＰＥ
予防
企業
ｅｓｓ@@
次数
一層
均一
Ｂｒ
中毒
再@@
発症例
劣
自動
燃料
精製
炭素
排出
一覧
口蓋
舌
最大
押し@@
つけ
安全
安@@
楽
伝え
身長
知能
Ｗ@@
ａｔ@@
ｓｏｎ
症候
推察
マップ
成形
管理
習慣
病
倹@@
約
言及
学習
場面
思考
道具
トラブル
ＡＴ
除
脂肪
乾燥
重量
Ｏ@@
ＬＥ@@
ＴＦ
小さ
チップ
アレイ
ＨＣＶ
ついで
屈曲
位
ＡＣ
傾向
Ｗｉｎｄｏｗｓ
ＮＴ
上
Ｗｅ@@
ｂ@@
Ｄｅ@@
ａｘ
分野
適用
ＡＳ
実施
視覚
探@@
究
解決
１０３
株
能力
保持
アルギ@@
ナーゼ
ＮＯＳ
共通
基質
アルギニン
競合
ＮＯ
産生
働
推定
どの
よう
ガイドライン
推奨
べ
段階
氷
食品
アルゴリズム
採用
ＰＤ
ＣＩ@@
陽性
メンバー
単一
稀
積分
高速
Ｇ@@
ＰＭ@@
ＳＰ
ＶＰ
展開
コメント
ＮＡＳ
電池
動脈
再建
明確
相
双極
形成
規定
Ｃｏｕｌｏｍｂ
バッファ
共鳴
交叉
速
常
柔軟
料金
かつ
顧客
日々
実態
意識
行動
心理
テスト
所見
今回
柔らか
代表
ワイヤー
ハー@@
ネス
ＤＭ@@
Ｕ
ＦＣＣ
空気
流
ＣＡＤ
整流
室温
軽減
ビデオ
作成
戦略
ＭＯＶＰＥ
作製
成功
文章
表現
用語
改正
中性
Ｒｉｅｔｖｅｌｄ
精密
各種
腰椎
比
大腿
骨
密度
Ｂａｓ@@
ｄ@@
ｅｖ@@
ａｎｔ
Ｌｅ@@
ｅ
ａｄｅ
近似
ρ
力学
的
生成
主張
ＩＰ@@
ＬＣ
ヒータ
アク@@
シデ@@
ント
マネージメント
策
正常
週
後
基盤
様々
改@@
め
ＳＯ@@
Ｘ@@
ＤＳ
Ａ@@
ＰＥ@@
ＳＤ@@
Ｌ
ＰＢ@@
ＩＮ@@
Ｄ
ネ@@
ーム
詳細
代替
ロープ
除外
書き込み
向上
枠組み
危険
受@@
付け
嬢
ＳＡ@@
Ｙ@@
表情
層
格子
比熱
指数
ＩＴＥＲ
物理
Ｒ
＆
レビュー
標的
挙げ
中断
平均
ｆＭＲＩ
フォトリソ@@
グラフィ
ＧａＡｓ@@
Ｂ
ディスク
細か
コントラスト
磁
Ｒ@@
ＶＨ
疑
場合
表
呈示
Ｌｉｎｕｘ
学生
初心
ＧＵＩ
サポート
提供
ＣＶ
発育
部
転写
レベル
追求
まだ
ＦＰＤ
用
バインダー
ポリビニル
アルコール
ＭＤＳ
ＲＡ@@
ＥＢ
ｓ@@
ｖｉｖ@@
ｉｎ
発現
高率
ニーズ
把握
立案
３@@
４@@
５９
したが
ＣＨ@@
ウイルス
炎症
長期
わた
肝
インパクト
魅力
儀@@
式
統一
集団
規則
成立
トレース
気体
ＲＢ
セラミック
造
電解
ドレッシング
わか
いろいろ
離乳
仔
豚
ストレス
Ｚｎ
保護
証明
ＮＥＣ
プロセッサ
セ@@
ダン
剛体
対応
仮定
列
物体
復元
施設
向け
Ｐｒｏ@@
ｕｓ@@
ＰＡ
稼働
実績
バルブ
概説
別個
形態
発達
支配
培養
とも
ファイル
Ｒｏ@@
ａｌ
Ｐｈ@@
ｉｌ@@
ｉｐ@@
Ｅｌｅｃｔｒ@@
ｉｃｓ
買@@
収
ＡＤＭ
大
規模
パス
スイッチ
双
リング
結論
試料
干渉
無視
厚
癌
唯一
切除
だ
不良
雄
ＡＲ
ノックアウト
マウス
骨量
呈
多層
素子
磁性
膜
強制
殆ど
不快
判明
社会
接触
水質
浄化
室内
静電
グリッド
噴射
推力
順調
磁気
ダイポール
磁界
とう
痛
上肢
文化
祭
集@@
講演
高校
体育
館
音響
Ｗｅｂ
体系
抵抗
２００４
コンテンツ
目指
受信
上げ
チューニング
Ｂｒａｇｇ
反射
位相
状態
以来
国
イタリア
６
か月
女児
有限
補正
項
円錐
Ｚ@@
Ｗ
適切
ＨＦ@@
ｘ
実現
構想
水
配管
網
定常
流量
リチウム
吸
脱着
薄膜
ＣＴ
要点
限定
区域
降雨
サイズ
調整
看護
業務
変@@
則
勤務
不況
カ@@
レン@@
ダー
家庭
熊本
結@@
集
共同
気象
一致
確率
大@@
仏
詳し
血圧
欝
不安
障害
素材
綿@@
糸
麻@@
布
植物
染料
Ｍａ@@
ｉｃ
置
ディレ@@
クトリ
指定
便利
Ｐｓｅｕｄ@@
ａｘ@@
ｉ@@
ｐｈ@@
ｙｌｌ@@
ｕｍ
ｏｈ@@
ｌｉ@@
ａ@@
ｅｃ@@
ａｒ@@
Ｒｈ@@
ｙｔ@@
ｉｄ@@
ａｄ@@
ｅｌ@@
ｕｓ
ｓｕｂ@@
ｉｎｎ@@
ａｔｕｓ
ネパール
初めて
軌道
参照
独自
定め
しま
余地
肺炎
敗血
条件
変更
ながら
実行
小
惑星
軸
非
対称
体
楕円
複雑
より
ＧＭ
野外
ここ
ＰＲ
ノード
選
ぶ
ＥＬ@@
ＬＯ
メッセージ
ＦＭ
照射
波長
中和
雰囲気
運用
増え
ｕｌ@@
ＴＣＰ
機
ＳＮＰｓ
脳波
頭痛
相談
後半
ＨＲ@@
ＥＭ
ＺｎＯ
バリ@@
スタ
粒界
Ｔｈ@@
Ｎ@@
ａｔｉｏｎａｌ
Ｓｋ@@
ｅｒｔ@@
ｉｆ@@
ｉｃａｔｉｏｎ
ｇｒ@@
ａｍ@@
ｍｅ
２９
適合
溶媒
理由
スメクチック
平行
縞
反転
瞬間
見
ＧＮ
ベ@@
フィット
特集
基礎
Ｃｅ@@
Ｐ
Ｃｅ
Ａｓ
物性
進歩
課
要求
増
こう
合
ＮＯ@@
ＶＡ
ｆｅｒ@@
ｒｏｎ@@
ｉ
考え
とき
指標
修飾
ＴＰ
ＨＯ@@
ＣＡ@@
ＤＥ@@
Ｏ
ＰＴ@@
ＲＯ
ＮＩ@@
ＣＳ
コントロ@@
ー@@
ラー
発売
パッチ
記憶
広が
Ｋ@@
ｕｇ@@
ＴＭＲ
電流
ヒストグラム
成層
圏
生態
有害
紫外
バリア
ＩｇＭ
ペプチド
治@@
建設
維持
流域
住民
負担
ＣＧＳ
トータル
ネコ
ラット
国内
流通
体制
スパイク
タイヤ
規制
損失
楽@@
しみ
ボランティア
カテゴリー
実効
線量
算出
Ｇｅｎ@@
ｏ@@
ｐｐ@@
ｅｒ
同定
ＰＥＦＣ
バナジウム
ニオブ
タンタル
キチン
カニ
殻
４
基
提言
フィルム
フィルタ
乳酸
境界
遷移
マルコフ
更新
マイクロ
与え
節
転移
ｙｎａｍｉｃ
ＥＵＳ
監視
通報
避難
消防
設備
ＲＶ
ドア
ＭＳ
２０００
エレクトロニクス
ー
ＪＡ@@
ＰＡＮ
模型
飽和
再現
マイコン
組@@
入れ
コントローラ
動か
プレス
主流
作
なし
電気
伝導
オペロン
温存
複製
チタン
配置
リハビリテーション
微細
食物
アナフィラキシー
主要
抗原
プラント
セメント
初期
ＢＭ
過
回
輪@@
解剖
近代
ＧＰＴ
５００
以上
７
ＣＮＣ
付加
先行
現象
痴呆
行為
倫理
規範
ＡＣＳ
試薬
削減
更年
期
強調
販売
ＤＲＡＭ
Ｓ
潤滑
選定
ＰＣＡ
極めて
Ｍｉｎ@@
ａｓ
サンプル
ＣＦ
動態
ワクチン
建築
シリコン
ウエハ
汚染
米国
ＥＵ
ロード
壁
補助
陽極
組合わせ
セル
選抜
マーカー
取り除
ＰＣ@@
Ｒｓ
ファミリー
配列
アラインメント
青色
染ま
相対
理論
時計
パラ@@
ックス
再
媒質
固体
ＴＦＴ
ビジョン
パケット
アーキテクチャ
、
ＡＣＴＨ
負荷
コルチゾール
２９３
子@@
猫
飼
血液
Ｅｎｔｅｒ@@
ｏｂａｃｔｅｒ
ａｅｒ@@
ｏｇｅｎ@@
ｅｓ
膿
Ｓｔｒｅｐｔｏｃｏｃｃｕｓ
ａｃｔ@@
ｉａｅ
Ｓｔａｐｈｙｌｏｃｏｃｃｕｓ
ｈａ@@
ｏｌｙｔ@@
ｉｃｕｓ
緯度
ＧＰＳ
ＳＰＳ
誤差
長年
継続
良
ホウレン
ソウ
硝酸
塩
睡眠
ウニ
生息
場所
海藻
群落
組成
背景
エア
バッグ
装備
報道
本@@
講
波形
ブレオマイシン
プロ
切断
高め
リン
カー
核酸
収縮
拡張
一@@
心拍
血流
及び
諸
コーディング
Ｍａｃ@@
Ｗｉｌｌ@@
ａｍｓ
アイ@@
デン@@
ティ@@
ティ
源
円筒
座標
模擬
パッケージ
スタック
Ｓｉ@@
ＳＯＩ
拡充
ランダム
アプローチ
染色
輸送
脈動
磁化
井戸
先
パルス
伝播
生鮮
果実
輸@@
出入
推移
機会
白血
減
農業
ブル@@
ガ@@
リア
モリブデン
管
イメージング
新規
ＩＤ
研削
鋳鉄
トライ@@
ロジー
Ｊ@@
ｉｎｉ
テクノロジー
オブジェクト
ＦＡ@@
Ｘ
送信
取り上げ
快適
交通
手段
メーカ
進出
既存
連携
文献
リスト
添付
バルク
新た
許可
ＬＣＤ
パネル
リサイクル
蛍光
マッチング
解
減衰
ノッチ
６０
フェージング
ｆ@@
パイロット
信号
変動
パー
コレーション
Ｈｅｌｉｃｏｂａｃｔｅｒ
ｐｙｌｏｒｉ
胃
ヒト
塩基
終了
探索
進行
もと@@
もと
貧@@
ユ@@
ヤ
移@@
民
手
作業
ＰＷＭ
カオス
１５０
Ｖ
ＲＦ
バイアス
スケーリング
ソフトウエア
ゼラチン
現れ
ドップラー
経@@
歴
中古
高度
達成
立地
旨
ｒａ@@
ｕｎ@@
ｈ@@
ｏｆ@@
基づ
一貫
陽子
特許
ＩＣＥ
ＭＥ@@
ＳＨ
名付け
ＣＦＤ
ヘルニア
月
施行
ＨＣＣ
３２
５１
結節
合金
Ｔｌ
添加
ＭＣ
全て
欠陥
サイト
ＩＣＲ
雄性
ＸＲＤ
ＲＲ
海外
目立
代わ
世代
人口
見地
性別
年齢
Ｅｐ@@
ｍｏ@@
ｏｎ
ｏｃｃ@@
ＬＩＦ
単
運転
病気
発熱
ｉｃｋ@@
ｆｏｒ@@
ｃｌ@@
ａｓｓ@@
ｉｃ@@
ハイ
マーカ
ＳＭ
ＨＩＶ
サン@@
フラン@@
シス@@
コ
在住
１人
人
介入
面接
緑茶
多@@
飲
肝癌
気泡
取り@@
扱え
テーマ
設定
際
ＦＴＩＲ
ＮＩＲ
本
枝
圧縮
事項
率
歪み
膜厚
母音
挿入
低減
胃癌
２００２
ＮＶ
流行
例@@
早
観点
間隔
空@@
スケール
ＳＴ@@
ＡＩ
まし
ところ
鉄
コンクリート
ベントナイト
変質
ｏｌｌ@@
ａｎ@@
ｉａ
ｔ@@
ｕｒｇ@@
ｅｎｓ
ｒｏ@@
ｔｈ@@
ｎ@@
ｉｕｍ
ｌｅ@@
ｐｔ@@
ｙｍ@@
ｏｉｄｅｓ
コ@@
ケ
追加
他方
火災
旋@@
台風
しばしば
ホログラフィー
アート
急性
ＨＰ
ＨＴ@@
ギャップ
充填
全例
光子
場
周期
電場
受け
変え
検索
ＳＳ
ジョブ
クラス
用意
オペレータ
ミッション
知
動物
完成
させ
陽
ミクロ
空間
高温
Ｓｍ@@
ｌｅｒ
ＭＶ
ｉｇｎ
遅れ
毒性
製法
輸入
価格
トラヒック
レーション
時代
到来
橋かけ
Θ
導波
スイッチング
デ
マルチ
プレ@@
クサ
人工
膝
ｃＤＮＡ
マッピング
モーメント
ＳＰＭ
近視
放出
国産
交流
アーク
広告
史
ｅｘ@@
ｒ
ｉｏｎ
保存
ＣＣＤ
／
デ@@
ｉｒ
Ｍｏｄ@@
ｍ
起動
バー
又
案
欧州
ガソリン
軽油
標準
指令
法@@
制
ミトコンドリア
長鎖
代謝
誘発
ＭＯＸ
否定
最も
護岸
バイオマス
成分
セルラーゼ
ゆっくり
増大
ｇｒａ@@
ＭＢＥ
ＧａＡｓ／
ＧａＡｓ
低温
意味
血管
様
外観
講座
シリーズ
ＨＡ
高圧
加熱
殺菌
加え
ＤＩ
電荷
合成
記録
シリンダ
駆動
自己
修復
携帯
乳癌
取り巻
変異
Ｎ
２５６
ロイシン
グルタミン
ＰＴＣ
ミ@@
作動
分配
摩擦
撹
はん
タンク
血球
回復
強力
支持
処方
ＣＨＳ
ＣＮ
石英
アルミナ
加工
事
アセスメント
手順
エントロピー
系列
独立
分割
溶液
最小
Ｂｏｗ@@
ｅｎ
カナダ
北方
森林
類似
ＭＥＭＳ
赤外
センサー
アクチュエータ
制約
α
生じ
想@@
波動
スプレー
コーティング
ニッケル
宿主
加齢
増殖
感受
皮下
ドレーン
留置
創傷
治癒
パス@@
ウェイ
興味
深
モータ
ハードディスク
重視
インジェ@@
クタ
洩@@
修理
溝
プロフィル
粗
ハザード
簡易
６８
供@@
覧
網膜
神経
分化
未だ
地面
浮
フラット
スラブ
建物
地形
切り@@
離
ＣＶＤ
工具
進展
次いで
リパーゼ
エラ@@
スターゼ
炎
可視
今
二輪
ＦＩ
固有
従
オプ@@
ト@@
光学
銃
ビーム
月経
独特
ゲーム
出力
見いだ
根拠
経験
事象
ＥＵＶ
マスク
気
入
レ@@
ストラン
予約
Ｎｉ@@
貴重
全@@
土
覆
タバコ
栽培
鋳物
還元
鋳造
生存
下流
ＦＥＭ
鳥@@
肌
状
胃炎
ｅｎｃｅ
ａｒｙ
ｃｅｌｌ
ｉｎｅ@@
ａｇｅ
獲得
免疫
担
ＩＦ@@
Ｆ
ＡＮ@@
Ｋ
セルフ
クリーニング
コンパクト
銀河
突然
放射
学会
マントル
沈@@
込み
進め
北
太平
洋
海域
クロロフィル
アパタイト
たんぱく
ＭＥＧ
ポリエステル
重合
遠心
付@@
掲載
１９@@
５８
ンダ
スーパー
ブ
５０
ｃｃ
バイ@@
ク
ブーム
起き
シグマ
中間
同等
耐久
係@@
わり
工程
７４
カソード
近傍
等高
次@@
東京
大阪
経年
ＰＣＢ
ＳＥ
ＴＨＡ
腰痛
症状
ＤＤＳ
幅広
内外
性器
引用
含め
乳@@
がん
病型
１１
ＷＳ
アナログ
ディジタル
ドット
能
彼
ベッド
過ご
デザ@@
イ@@
遊び
伝統
両立
実習
あるいは
共存
異型
上皮
スライダ
ガイド
フロー
集合
振舞
ｂｐｓ
スループット
憂@@
感
喪失
体験
人@@
満足
グラフィックス
一因
Ｃｏｒ@@
ｙｎ@@
ａｃｔｅｒ@@
ｄ
Ｐａ@@
ｖｅ
方程
Ｊ
厳密
ＫＢ
油
粒子
アルミ
脱脂
発揮
ボトルネック
手@@
車線
チャート
Ｕ@@
２３
公開
閲覧
隆起
ドライ
アイス
角膜
当て
古
工場
大学
消失
ＯＲ
エクソン
ＳＮＰ
公共
防災
更に
磁場
一方
１４
媒体
方位
ｉｃｈ@@
ａｕｒｅｕｓ
２６
応え
ＳＬ
アクセス
エンド
ツー
大気
見直し
ステッパ
ＥＯ
主に
スキャ@@
ナー
ラピ@@
ッド
プロトタイピング
ヘモグロビン
始め
遅滞
カンチ
レバー
ねじれ
変位
モード
自閉
札幌
鹿児島
遮蔽
断熱
ＰＡＬ
端末
ポケット
Ｂｌｕ@@
ｅｔ@@
ｏｔｈ
ＳＤ
カード
ＣＡＰ
判定
ＴＲ
Ｎｏ@@
ＧＩ
ＬＰ
唾液
ＣＲＨ
ＩＢＳ
１９８０
前後
境
変
トラッキング
幅
成型
アイソザイム
血清
尿中
ｐｐｍ
応力
無線
Ｉｒ@@
ＤＡ
ｏｍ@@
有利
ゼ@@
ミ
配@@
ｗｅ@@
ｂ
メール
副腎
総括
５７
は@@
６５
全
スピン
さまざま
醗@@
酵
アミラーゼ
負
正
識別
ベース
窒化
転位
水分
変調
ゲート
電圧
ＭＯＳ
キャパシタ
リニューアル
年々
心電
図
サルコイドーシス
ＢＳＥ
スパッタリング
エッチング
陰極
Ｍｙ@@
ｉｂ@@
ａｓｔ
腎
ア@@
グリカン
コラーゲン
鎖
事実
最高
フェノール
左
半球
容積
衝突
シース
走行
介
体重
カルシウム
摂取
１９９９
かけ
表皮
体温
調節
保守
泡
噴@@
煙
噴出
火@@
口
半径
追跡
うち
鑑定
チャネル
薬物
心室
ＮＳＴ
ノルアドレナリン
グルカゴン
ＴＯ
抗体
過去
シーズン
渡
塩化
ナトリウム
季節
見出
保健
分担
適応
辞書
漸近
導出
ダイオード
励起
レーザー
地震
日@@
頃
備え
ＮＯＡＡ
衛星
シ@@
テ@@
ム
ひと
ストライプ
確かめ
不要
削除
リボソーム
再生
革命
Ｓｏ@@
プロトタイプ
ｄｅｃ@@
成膜
汚れ
税
器具
錯@@
視
ずる
アルファ
ＴＭＳ
薄
脊髄
損傷
幹
移植
虫垂
未来
探査
多く
計測
運搬
入@@
学
数学
質問
票
人体
浸出
ＤＸ@@
Ｎｓ
オフィス
家具
岡@@
村
所
前者
ＰＨＳ
動
球@@
内
対流
ＰＦＩ
ＥＳＣＯ
係わ
感度
ＬＢ
自体
セキュリティ
ヒステリシス
Ｓｙｓｔｅｍ@@
ＬＭ
取り入れ
故障
特異
劣化
登@@
山
眼科
にて
ｅｌｌａ
不明
羽@@
角
３００
〜
１０００
範囲
透明
当社
１２
３８
予備
Ｔｌ@@
ＩｎＧａＡｓ／
機@@
器用
ａｃｋ@@
緩衝
打@@
切り
グラム
陰性
インフルエンザ
ｃ@@
ｅｄ
ＳＴ
延長
左@@
偏位
ＣＷ
ＳＴＭ
注意
払
クロス@@
オーバー
残存
履歴
絶縁
バン@@
ＥＰＡ
１９８９
吐血
救命
処置
フローチャート
ＥＣ@@
メモリー
常時
バッテリー
ディ@@
バイス
実用
経路
サンゴ
礁
木材
年輪
断@@
裁
２５
７０
信頼
可@@
集め
Ｃｏｍｐ@@
ＰＣＩ
オープン
医用
サブ
指先
ＮＨ
種
劇@@
照明
麻疹
耐食
錆
粉砕
‐
蒸留
ダム
現場
スラッジ
かかわ
雌@@
親
大半
雄@@
幼虫
給餌
終わ
子孫
留ま
閉経
ＤＣ
Ｓｔ@@
ＳＬ@@
鮮度
つなが
ｋｍ
ｈ
ＰＥＴ
フレー@@
一軸
及ぼ
競争
通@@
訳
サイクル
変容
ＩＧＢＴ
既報
ＰＲ@@
ＩＬ
ＳＬＥ
ＭＡＲ@@
Ｄｓ
側
反対
参加
論議
ＩｇＥ
過@@
激
不@@
着色
報酬
ＮＭＲ
格段
鉄塔
越え
語
流@@
暢
外側
前方
内側
後方
演算
々
ＷＷＷ
大量
蓄積
最新
入手
絶対
地下
重力
勾配
ＮＫＴ
Ｃｏｎ@@
肝炎
ｕｎｇ
ＬＧ
両@@
社
ブ@@
ース
展示
通常
比べ
大幅
設@@
問
やや
生物
兵@@
小児
後期
ＰＰ
反
転
港湾
バランス
鼻
ＡＤＬ
ホロ@@
圧倒
コバルト
水銀
ぐ
仮想
列車
地上
サーバ
年次
クーロン
昭和
乳
前提
充分
カロリー
汗
涙
賃@@
金
輝@@
かし
ファ@@
ッション
沖縄
島
北部
採集
ＡＰＩ
ＤＢ
ＡＴ@@
Ｙ
ユーザ
捕@@
出現
片
コア
マシン
東北
２００１
白色
ニューロン
強化
交替
朝
夕
人員
ゴ@@
キ@@
ブリ
昆虫
鼻炎
アレルゲン
台湾
ダニ
当
銀
ＳＳＣＰ
前癌
チェーン
モデリング
ＯＮ
電源
サージ
テク@@
タ
取り出
マス
織物
メリ@@
ヤ@@
欠点
レート
別
障壁
北東
横断
鉄道
後者
各々
見通し
ヘム
ＩＧ@@
ＥＳ
凝固
気@@
コミュニケーション
本稿
一部
ＦＡ
リンク
自由
アーム
ペーパー
白
内障
ＧＨｚ
ノイズ
モンゴル
パ@@
プ@@
ニュー@@
ギ@@
ニア
ブラジル
ボリ@@
ビア
チリ
エク@@
アド@@
ル
コロ@@
ン@@
グア@@
イ
ペル@@
神奈川
県
横@@
須@@
賀
市
ＴＶ
エピソード
ＲＭ
キャリア
同士
高知
庁
以内
ＩＳＯ
ＰＬＣ
プラットフォーム
ＨＴ
鼻腔
通気
出血
６５０
ｍｌ
繰り返
ワイヤレス
ＡＴＭ
ＩＰ
擬似
試行
錯誤
続
ＣＡＭ
脳
広汎
弛@@
似
長所
短所
９００
線虫
Ｂｅ@@
Ｓｅ@@
Ｔｅ
ＩｎＰ
硬質
皮膜
被覆
ＰＶＤ
透析
悪
件
添@@
セキュ@@
リティー
カメラ
市民
意見
交換
キー
ＮＴＴ
グループ
気管
切開
装着
意思
パソコン
風速
合わせ
拠点
１０@@
９@@
５６
フォノン
確か
ＬＳＩ
正し
コンセンサス
秩序
自発
無力
のみ
ＰＩ@@
ＡＦＳ
病因
Ｔｒｉｃｈ@@
ｏｓｐｏｒ@@
ａｈ@@
ｉｉ
ｍ@@
ｕｃ@@
ＦＤ
北九州
インスリン
医学
中央
雑誌
両面
特殊
か@@
び@@
上が
強@@
グローバル
連合
情勢
下@@
諏@@
訪
公@@
支@@
出
差@@
止め
裁判
始ま
ＡＬ@@
ＩＳ
継承
プロ@@
グレ@@
ッシ@@
不純
希
３２０
町
１８@@
５５
Ｓａｌｍｏｎｅｌｌａ
ｅｎｎ@@
ｅｓ@@
ｓｅ@@
四@@
季
風土
生み出
野菜
味
料理
喫煙
ＡＳＯ
溶融
メキシコ
粉@@
数値
コール
センター
ｐｅｒ@@
聴覚
広@@
励@@
ＴＲ@@
降水
蒸発
フラックス
有
釣@@
り合
軟部
肉腫
４７
力
取引
慣@@
習
税制
政策
人材
ＲＳ
点数
供
ライブラリー
血便
６６
ＩＴ@@
６@@
８２
ロータリー
ポンプ
メカニカル
シール
協会
１９９４
制定
契約
１９９６
９８
パッケージング
ＡＲ@@
従来
自律
ただし
歩留り
タ@@
グ@@
チ
メソッド
イノ@@
ベーション
フィードバック
係数
スリ@@
ラン@@
カ
ボ
バンコ@@
耐え
章
フェムト
秒
ウサギ
クライアント
適
埼玉
立
教室
棟
屋内
巡
β
遮断
直径
ＳＯＤ
総量
ループ
卒中
リハビリ
可動
質量
持
シェル
成
難@@
ＮＡ
ＤＦ
ＣＨ
会社
営業
昼間
１１０
ＭＷ
夜間
１０５
ｅｒｓ@@
ａｎ
Ｌｉ@@
ｓｔ@@
ｒｉ@@
ｇ@@
ａｒａ
ＣＡＳ
ＩＣ
埋め込
成人
男女
静脈
エコー
１９９０
年代
ネット
バブル
崩壊
特発
肺
線維
注入
痛み
ほぼ
帯域
協力
消光
ｄＢ
果物
体内
ＤＬ
インタラクティブ
腹部
食道
バッチ
ＧＡ
災害
復旧
傷害
死
集積
ＡＩＨ
接合
トンネル
知覚
根
圧迫
ＣＰＴ
トランジスタ
ｅｌｌ@@
Ｓｈ@@
ｏｃｋ@@
ｌｅｙ
ａｒｄ@@
Ｂｒ@@
ａｔｔ@@
ａｉｎ
たち
曲げ
じょくそう
材
知識
２８
灰分
炭化
代わり
裏付け
直@@
観
融@@
便@@
排せつ
ＡＡＶ
ベクター
ＡＶＰ
水稲
うえ
試作
ドライブ
４０
尾状
葉
ＢＤＮＦ
成体
下降
軸索
後肢
エイズ
風向
頭部
辺縁
目覚@@
ＡＦＭ
オピオイド
りん酸
イン
原
単位
いずれ
ＥＮ
極度
実践
花粉
並び
翌年
役立
Ｔｈ
エラー
ＩＶ@@
更@@
ノート
「
微量
」
迅速
簡便
ａｒ
ｐａｔｔｅｒｎ
分
浪@@
費
克服
ＥＭＩ
ＥＭＳ
違い
ＩＣ@@
ＩＳＳ
最低
コピー
コンド@@
南極
基地
計
アイデア
くる
三角
スウェーデン
１９９５
ジェ@@
２１
ルーティング
名前
ＨＹ@@
ＣＯ@@
ＲＥ
石炭
ディーゼル
汽@@
笛
動力
圧@@
搾
ＨＡＣＣＰ
ｎａ
トリー
ＬＤ@@
水温
ｅｔｉｃ
ｍｕｎ@@
ｉｚａｔｉｏｎ
ニック
Ｂａｓｅｄｏｗ
で@@
ん@@
ぷ@@
変性
セラミックス
耐熱
湿度
ＢＭＰ
竹
ス@@
プリン@@
ター
スペン@@
サ
ライン
７３
冬期
停止
循環
揮発
風洞
空力
さん
シーン
文字
３５
ＨＰ@@
シフト
ＲＦ@@
漏話
創@@
刊
誌
防火
ＤＭ
ＦＨ
脳症
除痛
スラグ
泡@@
立ち
間違い
やす
エリプ@@
ソ@@
メトリー
主観
あいまい
セン@@
タリング
脂質
ＣＴ@@
筆者
微
衣服
下記
続け
過酷
事故
ｐ
徴候
ヤング
修正
疲れ
限度
７５０
℃
ほう
ＷＤＭ
Ａｄ@@
／@@
フィルター
ＧＦＰ
夏季
小@@
笠@@
清浄
フォトン
トポグラフィー
千葉
ＡＣ@@
Ｉ
日立
食
実情
待ち
行列
ュー
ゆらぎ
ＰＲＴＲ
含有
整備
登録
アメーバ
赤痢
腸
鑑別
教師
持続
１６
ｆａ@@
ｆｆ@@
ｉａｎ
ラ@@
チェット
やり@@
とり
箇@@
ｓｙｎ@@
ｅｒｇ@@
ｃｏ@@
ｉｌ
ＳＲ
生殖
こそ
本来
Ｉｂ
弛緩
一環
着手
部材
庇
亀裂
偏向
ＭＭ@@
潜伏
ドメイン
糖
鋼
起因
脱臼
１３
ＡＭＤ
候補
サテライト
プライマー
高進
もたら
来
ＭＭＰ
セリン
プロテアーゼ
メンタル
アー
カーボン
ＳｉＣ
ＰＳＰ
ケ@@
ロイド
痕
甲状
腺癌
肺癌
原爆
爆発
各国
６００
７００
マクロファージ
きわめて
バイオテクノロジー
消費
標本
現況
Ｐｅｒ@@
Ｃｒ
京都
ＣＤＭ
手続き
７７
優位
スタンド
ロン
オプション
降伏
貯蔵
多数
深@@
糖尿
専門
クリニック
本文
病巣
ｉｋ@@
ｕｃｈ@@
Ｐａｔ@@
ｔｅｒ@@
しか
ルール
ろ
クォーク
ＰＶ
ＭＩ@@
ｅｓｔ
ＭＦ
ＤＳ@@
組み合わせ
ハイブリッド
スタッフ
胸痛
フェル@@
サイクロトロン
コード
転送
荷重
デジタル
生か
チャー@@
モニ@@
ウム
ＱＣＤ
真空
不満
訴え
精子
結石
ＥＳＴ
実例
地
窒素
同化
性格
両群
高齢
訓練
口腔
ＥＲＧ
電位
規約
かなり
寸法
４００
駅
トイレ
ルータ
証@@
券
金融
ｃ
面
活発
しきい
ｔｈ
ｗ
ＷＷ
プラスチック
ＰＰＶ
酪農
ウエ@@
イト
食肉
ヨーロッパ
Ｓｉ
斜面
平衡
個々
逆
ひずみ
望まし
仕方
スキャナ
トリガー
実@@
演
Ｃａ
４８
さい
降圧
膨張
タービン
サイド
ＬＮＧ
病期
バリエーション
富
ｖ@@
ａｓｃ@@
差異
捉え
電話
弁
杭
地中
橋
内@@
肩
発明
間接
侵害
先@@
直腸
集中
ＥＰ@@
ｏｌｉ
マネジメント
日
コジェネレーション
生命
牛乳
バ@@
品
付着
色相
明度
序@@
Ｃｒｙｐｔ@@
ｉｄｉｕｍ
覚醒
リズム
橋梁
ＥＰＳ
塩酸
タジン
中枢
マスター
破損
フィールド
１９９８
公表
常@@
ＵＲ
キレート
骨格
ホルモン
同期
無
力率
国立
天文
台
順序
溶解
アルカリ
漏れ
音
ＩＭ@@
狙
本種
生育
ち
ニュージーランド
１５
ボード
ＳＭ@@
ごと
端
２２
音楽
りん
除去
ｅｔｅｒ@@
ｏｂ@@
ｏｔｈ@@
寄生
春
夏
冬
ｙｎａｍ@@
Ｉｎ@@
各部
流れ
様相
乱流
ε
一種
キュ@@
ム@@
下げ
Ｇａ@@
ＩｎＮ
ＭＱＷ
コロイド
インター@@
ナ@@
ショナル
ｎ
１０２
耳
鼓膜
穿孔
チン@@
ＭＰ@@
メーカー
上位
優勢
言
が@@
ＣＤ@@
ＲＧ
ゲル
ワ@@
ニ@@
視力
線形
ＧＰＩ
カット
アウト
転倒
直交
アミロイド
ずつ
ビ@@
ｆｒ@@
ｅｔ
和@@
声
バス
ノール
アル@@
ト
プラ@@
ノ
樹@@
液
零
近く
窓
侵入
ｌｏｗ
Ｗｉｎｄ@@
ｏｗ
上層
メラノ@@
散在
サブ@@
ルーチン
５@@
５２
閉路
以前
オーダ
ピ@@
ッキング
ピース
創
顎
面積
ＰＨ
全面
腐食
２@@
８@@
意図
ＩＡ
住宅
図形
眼底
対比
Ｒｂ@@
Ｃｓ@@
ＮａＣｌ
重症
７８
オキシ@@
ダント
ＫＣ
酵母
働き
伝搬
ベクトル
１９７３
種@@
補強
ｉｒ@@
ｌｅｔ
ｕｍ@@
ａｎｎ
粗面
円柱
インコヒーレント
どちら
繰り返し
ＳＡＷ
Ｈｅｌ@@
ｉｘ
図解
運営
９０
輪郭
メッシュ
特定
前回
同様
アセンブリ
パン@@
チャー
イベント
ート
カリキュラム
雌
決め
ＩｇＡ
腎症
病理
タンパク
組込
大腸
菌
ＡＩＤＳ
人類
疾病
運輸
省
ぼ@@
や@@
あたり
ＲＴ
パッシブ
アクティブ
顔
誤り
テルル
記
業界
ＲＰ
フリー
ハンド
操作
階層
いかに
秋田
下
水@@
揚げ
ヒラメ
えら
色調
漁獲
ボソン
，@@
０@@
ＨＳ
年@@
拍@@
かか
ＤＥ
高級
メータ
重
クォ@@
ニウム
わん
なぜ
脊柱
関心
ＡＦ
宮崎
浮上
ドーピング
符号
深部
血栓
ＭＲＣＰ
成因
無@@
Ｃｙ@@
ｂｅｒ
ｏｃｈ
ｅｇ@@
！
ライ@@
カバー
ティング
施工
西@@
武
ドーム
テレビジョン
撮影
映像
色
電@@
空
マイ
シンガポール
ノルム
箱@@
ＬＡ
視線
すぎ
後壁
当た
閉塞
ＰＦ@@
黄色
ｕｋ@@
ｅｙ
Ｋｒ@@
難
ｌ
ＳＳｃ
戻
交雑
育種
ＬＥＤ
最短
角度
基材
バインダ
無機
止ま
テラス
消滅
模倣
何
どんな
ＳＷ
グレード
ＩＩ
以降
半年
天然
痘
紀@@
元
死@@
恐れ
テフロン
浸透
出口
波状
途上
豊富
転換
液化
メタノール
定数
ＴＣ
ＢＧＡ
ＡＢ
テープ
ワイヤ
ボンディング
内科
ｐＨ
鶏@@
肉
ＧＡ@@
ＰＤ@@
ＢＰＡ
脈波
エキス
ブルー@@
ベリー
１８
Ｆｅ
Ｂｉ
クリ@@
エイ@@
映画
興@@
隆
消毒
ＣＦＵ
服用
ニン
工夫
軌跡
ＭＴ@@
ＢＥ
禁止
デンマーク
だけ
Ｄｉｒａｃ
子供
体@@
調
同調
和歌山
難病
早急
順@@
番
ベスト
スケジューリング
オリフィス
減ら
努力
一連
最良
チトクローム
避妊
破断
区分
光源
目@@
ｏｎｄ@@
ｒｅｓ@@
ｉｔ@@
中止
軟化
潤@@
滑膜
類
算@@
硫酸
水溶
即時
卵
小麦
停滞
ｉｓｓ@@
ｕｅ
ｅｎｇ@@
ｅｒｉｎｇ
一端
アシスト
スー@@
ツ
制作
ソー
破片
相互
完全
ＫＫ
Ｆｕｓａｒｉｕｍ
ＩＣＴ
マレーシア
変革
ＷＤ
ｒｅｅ
ｈｅ@@
Ｄｉ@@
ｏｄｅ
アンビル
ＧＰａ
エタノール
Ｂｒｉｌｌｏｕｉｎ
通産
委託
放置
ドリフト
φ
電磁
既往
国道
舗装
海水
流速
フライ
キャビテーション
路面
模索
搭載
ＲＥ@@
ＧＩ@@
ポータブル
防錆
パタン
コンサルタント
部@@
隊
戦後
確実
灯油
多孔
バーナ
法律
ロー
スリップ
資料
排気
トレード
オフ
心
ＣＴＣ
現地
上流
ある
ＣＡＥ
多彩
こ
立体
よく
併せ
規準
訪問
モニタリング
医師
共有
応@@
ａｃ@@
撹乱
本菌
眼@@
蒸気圧
吟味
脈拍
プリンタ
均質
弾性
ａｓｔ@@
ｅｒｎ@@
ａｋ
コレステロール
内皮
二乗
カウンセリング
ＨＢ@@
インターフェロン
投与
急激
業
ＸＭＬ
見@@
守
束
女子
亀@@
岡
宮@@
津
稜@@
ステージ
予定
レポーター
咳
Ｇｅ
モル
分率
１９９７
貨
危機
鈍
飲酒
女
ドナー
右
誘電
ＢＡ@@
表題
ＰＬ
ニュー
産
ふ化
世@@
話
び
ＷＣ
クセル
狭窄
温帯
棲@@
息
飼料
認可
品目
冬季
南
パラフィン
ｅｒｃ@@
ｅｐ@@
ＦＩＳＨ
対処
ＣＰ
情動
秒間
瞳孔
疑い
減量
Ｃｒ@@
不変
振り子
ステッピング
同一
スギ
多種
カテーテル
ＭＲＳＡ
バンコマイシン
先進
イギリス
市内
学校
バースト
間欠
界
リーダ
創造
プラン
もら
コミ@@
ニュ@@
作り出
あた
サスペンション
ジェット
違@@
軽
静的
一様
１９
屋上
ａｍ
捕集
異物
爪
楊@@
送@@
り込
系統
下方
針葉
樹
林
論@@
証
サファイア
ＹＡＧ
共晶
水中
溶存
相当
壊死
域
ペー@@
パ
評
集束
不全
兆候
ＳＧＢ
内服
Ａｒ
モアレ
ａｔｈ@@
ｉｃａ
海
アラ@@
慣れ
器@@
電波
学@@
科
ｅｃｋ
Ｈｅ@@
希土
胸部
軟
個人
体格
原価
ｉｅ@@
ｕ
ｏｌ@@
ｏｐ@@
ｏｄ@@
ｉｄａｅ
Ｓｙ@@
ｏｐｓ@@
ａｃｈ@@
３６
ＳＢ
道路
検知
両方
スクリーニング
術前
７６
私@@
英語
ＲＡＳＴ
純水
堆積
割れ
衰@@
弱
招
尿
在庫
ＭＳＡ
２００
様式
合同
右@@
足
刺
スライス
微小
さ@@
大切
ＰＳＣ
遺@@
食@@
卓
農場
イノシ@@
シ
シカ
ブタ
以外
ＨＥＶ
ＤＬ@@
ヒート
景気
雇用
創出
取組
ＧＩＳＴ
雲@@
解像
Ｒｅ@@
サーボ
子宮
体部
改質
原則
不妊
Ｄｅｖ@@
Ｎｅｔ
ｑｕ@@
ｉｓｔ
プロット
ＶＲＥ
フォトリソグラフィー
海洋
例えば
ダイ@@
クロ@@
ック
ナビゲーション
チオ@@
消化
味噌
醤油
醸造
オン
席
太陽
取@@
巻
肢
エピタキシャル
高等
配送
倉庫
乾酪
溶剤
ＤＭＦ
理想
見な
ベンゼン
化合
革新
悪化
懸念
立@@
地点
振興
ブリ@@
セプ@@
タンス
干@@
ば@@
州
当@@
局
送付
ＮＥＴ
コン@@
ソー@@
シア@@
調理
水圧
鉄@@
ＮＡ@@
はか
水平
２００３
ｏｒ
発汗
ＰＣＭ
ＭＣＭ
ｒｏｔ@@
ａｔｉｎｇ
ｉｎｇ@@
ｔｙｐｅ
ｋ@@
ｎｅ@@
ＩｎＧａＮ
４６
２７
ＧＩＳ
安価
仮説
ＯＳ
ＢＳ
ＣＣ
ローカル
ＰＮ
優先
腹水
仕事
連続
孤立
クリープ
果た
床材
ＲＩＳＣ
塩素
航路
ヨウ素
母
スキーム
主因
ニンジン
過剰
施肥
明瞭
Ｆｅｒｍｉ
外出
意欲
重水
帯電
ＣＹＰ
限
凍結
ダイ
コーン
１９７８
改定
告@@
ＣＲＴ
ＤＣＳ
取扱
音声
ｎｅｔ
ポスト@@
共役
印刷
生き@@
残
硫化
調製
グラ
協調
行な
人格
劣@@
孤@@
独
嫌@@
動機
４３０
ｋｅＶ
ＥＨＥＣ
１５７
１７
ＴＵＮＥＬ
横
隔膜
ＭＡＰ
Ｕｎ@@
ｉｔ
Ｌｏ@@
ａｄ
ｉｃｅ
航空
ＬＨＤ
バイオ
団体
訴訟
争
ウェー@@
ル@@
ズ
ＮＰＯ
水道
発足
インタ
フェイス
周辺
スト@@
ッパー
ハード
ナノ
ＢＮ
ｂｅｒｔ
スクリュー
ページ
リウマチ
出芽
ＳＥＭ
家屋
すべり
鍵
７１
カリウム
ストップ
トレンチ
コレクタ
エミッタ
ターン
短絡
容量
相手
生涯
質膜
筋層
ＳＰＥＣＴ
画質
ＦＢＰ
法規
農@@
耕地
温室
推計
開放
工法
クレーン
頂部
包@@
結核
Ｍｏｄｅｌ
Ｐｏｌ@@
ａｎｄ@@
狭心
虚血
今@@
有毒
物@@
資
コンタクト
レンズ
眼
外傷
不利
ＫＥ@@
スコ@@
アリング
保証
嚢腫
いわゆる
工学
線幅
深刻
ガウス
ウェーブレット
垂直
ＳＡＲ
実物
樹木
４３
フレーム
野生
跳@@
単独
前頭
縫合
７９
死体
プリント
クラッド
サー
アン@@
遅延
ＰＳＬ
ＵＤＣＡ
ＩＴＯ
広がり
見せ
胆嚢
イットリウム
東海
固化
地層
処分
東
関東
ＳＳＩ
心筋
ハウジング
Ｐｒ@@
ｉｖ@@
ａｔｅ
ａｎｃｅ
ａｔｉｖｅ
コミュニティ
電界
ＨＬＡ
ＣＥＣ
ＶＥＧＦ
フィブリノーゲン
指
ＴＳ
３７
新築
新@@
居
引っ@@
越
シック
ハウス
ＳＣＤ
慎重
Ｍｎ@@
セット
キ
シティ
人種
サファイ@@
収束
ＡＢＣ
額
キャンパス
ドーパント
Ｍｇ
精油
足@@
浴
北京
上@@
各@@
科目
実務
脆弱
ＳＡ
ＨＲ
不足
がち
エン@@
ター@@
テイ@@
メント
個別
心身
抜@@
粋
天
ぽうそう
ヘッド
無効
肥厚
メカトロニクス
スカラー
アポトーシス
チルト
繋@@
ぎ@@
乗
比例
曲線
プログラマブル
ＡＮＤ
ビット
乗用
排
施策
重複
スキャン
オ@@
ロ@@
スコープ
特別
ハロー
集落
メチル
プレドニ
ソロン
硫黄
底部
粘性
沈殿
都市
暮@@
必ず
店
依頼
受付
収容
インジウム
ガリウム
精錬
バケット
送り
ワーク
Ｎｉ
追従
尿素
連載
高@@
崎
ＥＣＲ
最
計量
復@@
職
至
勃起
希薄
畜@@
牛
ミネラル
Ｃｕ
回帰
抑うつ
ＰＲＬ
電離
２４
流体
都
当てはめ
リニア
外乱
概括
兆@@
誕生
支
ぜん息
療養
引き@@
こ@@
ＵＤＰ
モンテカルロ
ＭＴ
漏洩
城
廃棄
ＭＤ@@
ＥＸ@@
ＥＸ
活@@
況
ぶり
ｉｇ@@
ｍａｌ@@
ｉｇｎ@@
少し
デッド
ロック
オーバ@@
Ｂａｒ@@
Ｉｎ
ｅｘ
８８
家
液@@
替え
Ｒａｍａｎ
Ｐｔ
Ｏｘ
主体
金型
慣性
融合
リボン
鎖骨
易
ＰＧ@@
微分
差分
ネック
解消
コンサルティング
河川
ノルエピネフリン
昇圧
比率
ジフテリア
百
分か
Ｎａ@@
ポリ
ピロール
旋回
ｕｒｅ
ルテニウム
錯体
教訓
保全
砕@@
屑
岩
トラップ
ウ
コース
ドライバ
親和
胎盤
関門
通過
甲虫
ボル@@
ネオ
熱帯
外
押
少
カンジダ
上顎
補綴
魚類
ジグザグ
フロント
トップ
市販
ＯＰＣ
プリン
両
左下
腿
熱@@
浸潤
硬化
局面
四肢
ニワトリ
蛇
ＴＢ@@
筋力
にく
毛髪
ＭＡ@@
スフィン@@
ミエリン
芸@@
術
埋め
夢
妥当
コヒーレント
重な
エコロジー
ＤＶ
ＦＤＴＤ
宣言
監査
ＬＣＡ
づくり
産物
エタン
プロパン
エチレン
ＮＥ@@
屈
曲
Ｒｅｙｎｏｌｄｓ
ヒュー@@
張力
単純
我々
反映
総合
Ｔｒａｎｓ@@
ｌｉｎ
Ａｔ@@
キナーゼ
頂点
インテリジェント
ＸＡ
骨塩
気孔
開閉
ね
小さな
開口
ＳＩＭ
読取
コート
床
残響
向@@
モルヒネ
オーディオ
磁束
ケミ@@
コン
増や
レスポンス
廃@@
チェック
粉体
球形
静@@
短期
変わ
製
ピン
ＨＦ
顕微
Ｌａ@@
ｉｅｒ
６２
オート
ボルト
セッ@@
ＡＢＳ
ＵＮＩＸ
クローン
等価
ＩＴＰ
トーチ
エンタルピー
コイル
６０@@
分極
アッシュ
ヘリコプタ
飛行
備
ｇｌ@@
ｏｍａ
備蓄
マンガン
タングステン
鉱
異形成
曝気
会@@
インタビュー
取組み
聞
ＳＣＭ
ＬＥ
オート@@
バイ
光線
アラニン
ＵＣ
ｉｅ
正@@
整列
つれ
レオロジー
ライン@@
マーケット
理念
ゆ@@
テント
写像
門
突出
５４
ＦＣ
スライド
腹膜
ＤＰＣ
パッシ@@
逆転
脈絡
叢
剛性
立ち上がり
ぐ@@
ら@@
樹脂
到達
つまり
前@@
粘膜
幹線
型式
車両
リ@@
ファレンス
ワイド
レーン
ＦＢ
ＴＡＥ
過渡
ダイナミックス
糸球体
内圧
腎臓
ｃｈ
ＰＦＧＥ
ＬＶ@@
降下
Ｒａｙｌｅｉｇｈ
磁石
Ｎｄ@@
Ｆｅ@@
目
Ｂａ@@
ｅｃｋ@@
ｕｎｄ
行え
腺
レール
モーター
新生
児
胸腺
ともな
洗剤
箱
記載
掛@@
かり
配慮
塊
土砂
カ月
回線
ＴＥ@@
見解
菌糸
ＰＡＳ
Ｇｒｏ@@
キラー
ｅｎｄ@@
骨頭
緩@@
９１
塩@@
ビ
ポリプロピレン
ウナギ
風疹
ＩｇＧ
ヨーク
ピックアップ
呼@@
福岡
ッチ@@
研
決して
破
究極
近接
液滴
ＭＩ
ＳＣＡ@@
スタチン
ＧＦＲ
水準
ファン
むら
単体
ダイヤフラム
マトリックス
ｉｐ
光法
跡
元素
透水
音波
病的
地熱
発電
衛生
Ｓｔｒ@@
Ｓｅｍ@@
ｕｃｔ@@
Ｉｎｔｅｒｎａｔｉｏｎａｌ
エンジニアリング
緊急
ＥＨ@@
ＥＤ@@
Ｊｏｈ@@
Ｃｈ@@
ロッキング
ＰＬＬ
外径
ｍｍ
ストレート
パイプ
ｒａｇ@@
ｉｌｉｓ
ｃｏｒ@@
純度
ＢＡＬＢ
骨髄
樹状
け@@
注射
銅
粒度
ＢＡ
盗@@
施
ＨＤ
重み
両側
Ｎａ
Ｃｌ
血中
ＨＢｓ
分枝
ステム
培
電動
自転
動的
マルチメディア
輝度
赤色
脳性
麻ひ
適性
水系
ペースト
ヘテロ
エピタキシー
倍
変電
ゴム
突起
先端
平面
Ｇａｌ@@
ｋｉｎ
曝露
照合
ＣＧ
Ｄｕｃｈｅｎｎｅ
吸気
ＭＩＣ
活量
肝臓
ｕｐ@@
ｆｆｅｒ
過度
導
破綻
次第
吐@@
ＤＦＢ
語@@
人間
た@@
同年
右側
紅斑
知@@
テレビ
視聴
グラフ
析出
臨界
ＭＯＣＶＤ
近
感覚
プール
すなわち
硬変
Ｋｎ@@
ｉｇｈｔ
ポーラロン
もとづ
地盤
池
屋根
ＬＬ
ａｓｈ@@
ｂｕｒ@@
白@@
人物
欠け
タイピング
無駄
無理
球面
収差
脳幹
生き
脳死
ＳＱＵＩＤ
授業
屈折
Ｍａｘｗｅｌｌ
Ｓｎ@@
ｅｌｌ
法則
あらゆる
煩雑
末梢
低速
ｌａｔ@@
炭
香港
沸
ショック
ＴＫ
蒸気
鋼板
麻酔
喉頭
保安
ＧＨ
中@@
りゅう
ＣＡＬＳ
ＥＣ
アクション
ＣＳＰ
ピッチ
狭
さらなる
出し
ＡＰ@@
エレクトロ
ルミネセンス
フィブロネクチン
咽頭
Ａｓｐｅｒｇｉｌｌｕｓ
ａｖ@@
設け
ソリッド
解釈
気腫
σ
タウリン
描出
Ｐｓ
ｏｓｉｓ
ＭｙＤ
食事
承認
救
欠@@
伸び
ｓｍ
知的
流動
塔@@
嫌気
推算
ｅｂ@@
ｕ@@
ｆｆ
ａｎｃ@@
電線
引き続
グアニン
ヒ@@
汎用
ＩＲ@@
Ｅｘ@@
微視
Ｌａｎｇｅｖｉｎ
冷媒
ペース
引続
どこ
ＤＡ@@
画面
切替え
半分
外@@
母親
並行
リソース
ロジック
メモリ
ＰＴ
ソリトン
英国
花@@
壇
苗
宿@@
草
ランタニド
ピストン
ホーン
エア@@
サイ@@
レン
環状
ＩＳＨ
Ｃ．
ｔｒ@@
ｏｍａｔ@@
ｉｓ
Ｓｒ@@
ＴｉＯ２
ＳｒＴｉＯ３
前立
肥大
ッセイ
超過
証拠
十二
指腸
町@@
田
大きさ
胆管
ＰＭＮ
半数
完@@
熟
オ
芳香
豆
バルビタール
破裂
６３
節点
スポーツ
？
腹
トレハロース
局所
χ
コドン
Ｍａｒ@@
ａｎｇ@@
ｏｎｉ
みな
共振
耐震
飯
不可欠
ログ
木
ｏｌｔ@@
ｚ
ＰＴＥ
対症
ＣＢ@@
新宿
三井
ビル
駐車
特
時空
わが
９０００
改革
吐き気
ＡＵＣ
後遺
尿道
募
趣@@
覚@@
チャージ
ストリング
等し
ｉｌｌｏ@@
ｔｕｍｏｒ
ｖ
フィンガー
ＡＩＣ
Ｌａｎｄａｕ
地@@
Ｉｎｔｅｇｒ@@
ｉｔｙ
虫@@
歯
書込
コンバータ
従業
員
本質
スチーム
資金
文@@
房
具
見込
ＲＡＳ
１４６
１０９
ＥＩ
原@@
緑@@
藻類
緑色
色素
シクラ@@
メン
開花
軟鋼
ノウハウ
リーダ@@
シップ
ＤＳＣ
画@@
素数
セルロース
ＤＭＤ
下腹
繰返
ＰＳ@@
取り付け
カップ
ライト
顔面
死因
Ｒａｄ@@
ｉａｌ
ａｃｈ
ｔｅｒ
読出し
ＭＬ
萎縮
ｍａ@@
ＩＢ
開腹
九州
クロロホルム
アセトン
多重
効用
缶
ＤＤ@@
乳房
キャラクタ
日和見
プロトコール
昨年
利得
くな
最終
鉛
亜鉛
塗装
１１５
始まり
翼
寒天
便秘
細線
露出
終端
ＡＬ
巨大
乳頭
結膜
ムチン
ボール
ＳＴＳ
階段
パートナー
密
焼鈍
スピネル
コリン
スクリーン
ップ
短鎖
ｄｓ
ｓｉ@@
画期
四
ドラッグ
ＰＣＲ
血
ｖｉｖｏ
接点
ＯＦ@@
溶質
自身
ルート
め@@
司
フグ
き出
予算
ＦＰＧＡ
ＡＳＩＣ
ベンダー
閉鎖
接線
法線
信@@
ロール
ブレーキ
日中
人数
Ｋｏｎｄｏ
Ｓｎ
インターフェース
ＰＭ
ＣＡ
密着
良く
移
エット
ｕｂ@@
公式
す@@
走査
価値
パラダイム
得意
民生
ホッピング
ミドルウェア
パラレル
ポート
石
三菱
単に
特化
政治
交
世紀
年度
塗料
ＳＣＣ
脳炎
制@@
止
ＦＯ@@
ＵＰ
回避
盛@@
高価
ＡＡ
福井
ＮＡＳＡ
ｒａ
ブロッキング
灰
堆肥
発酵
雲
混成
車体
ＰＡ@@
脱落
本法
ＷＨＯ
焼却
ＡＳ@@
熱的
ＮＳ
単剤
感性
美@@
慢性
幼
ＢＭＩ
経口
摂食
深め
トロール
モバイル
カエル
鶏卵
モリ
トポロジー
曲面
イントラネット
キシ
マネー@@
ジャ
描画
準備
隔離
粘@@
ｉｃｔ@@
ｏｓｔ@@
ｄｉｓ@@
ｉｄｅ@@
不燃
冷却
凝縮
飛灰
づけ
現
実
塗膜
引き金
副@@
穴
輸出
ルギー
韓国
交渉
コンポーネント
抜去
大豆
乗@@
り出
家畜
糞尿
由来
ＧＤ
ドライバー
宇宙
磁@@
キー@@
パーツ
対物
ほか
ＨＨ
ＬＨ
ｉｓｅｎｂｅｒｇ
‐@@
ｏｉ
会合
たて
２９８
ＬＣＣ
出@@
っ@@
張り
ＤＭＳＯ
平方
グ
答え
風況
風力
パー@@
テスタ
ボトル
点@@
労力
薬@@
具体
ク@@
ウェ@@
油田
逸
啓蒙
薬学
遊星
歯車
種間
防
せい
医@@
り患@@
整脈
無事
保有
柱
鱗@@
退院
胸@@
焼け
収録
ハロゲン
ハドロン
ＯＰ
表出
ＡＮ
エーション
脊椎
ＭＴＸ
ＴＭＰ
増量
速やか
増幅
糖類
どう
ＡＥ
生検
ＭＡＬＴ
ｕｒａ
離散
飢@@
Ｖｏｌ@@
Ｄｙ
ａｆ@@
ｊ@@
移行
バル
シナリオ
級
達
一助
後@@
傾
ＳＮ
ＦＧＦ
真皮
溶@@
断
犬@@
いわ@@
人々
魅@@
了
希望
土地
ＣＰＫ
復帰
鎮痛
Ｖｉｓ@@
ｉｚ@@
イン@@
ストール
ＣＥ
頭皮
厚み
要約
現行
順
中耳
ｍｓ
ＥＶ
多岐
沿岸
茶
潮@@
ロン@@
ドン
オブザーバ
経緯
取り組み
栃木
福祉
ハイ@@
ポリカーボネート
チューブ
ＤＬＣ
あり
スペックル
ＭＲ
製@@
版
ＡＬＳ
介在
ｓｔａｇｅ
合理
決
ランプ
引張り
ＭＡＸ
Ｊａｖａ
ライブラリ
技能
職業
アブレーション
交互
岡山
千@@
屋
ッパ
ＦＥ
ショット
主催
ゲ@@
ＳＴＤ
開催
気候
名古屋
策定
軌@@
範
希釈
造影
ギヤ
発音
音素
乱れ
狙い
ずれ
Ｓｃｈ@@
ｉｄ
Ｗｈ@@
ｉｔｔ@@
ａｋ@@
固形
抱
ブラック
ホール
ダスト
ナイフ
切削
ＶＲ
Ｃｏｕｌ@@
ｏｍ
断片
解離
メラトニン
鋳@@
身体
ＯＦ
黒潮
腫脹
いまだ
拭
切れ
静
油圧
ｆ
ポリープ
腺腫
スペクトラム
形式
主導
官@@
ーダ@@
ン
ザイ@@
ール
ボン
ウ@@
ガン@@
ダ
ゴ
ＳＴＩ
側壁
滑らか
書込み
Ｃｒｏｈｎ
上皮内
ＤＳＰ
シリアル
ａｐ@@
２００@@
出荷
ＳＩ@@
上記
ＦＦ
ＳＡＳ
気筒
朝@@
間@@
就@@
寝
外力
グランド
アンカー
自在
親子
閉じ込め
測量
ロシア
新潟
柏@@
プルトニウム
軽水
フォーラム
クロマトグラフ
きょう
スクラッチ
米@@
節約
空隙
電着
品種
有望
λ
ｃｍ
オーダー
理@@
センタ
ケミカル
賦活
８４
直後
幻覚
ＨＡ@@
撮像
ｇｒｏ@@
Ｍａｎａｇｅｍｅｎｔ
ｅｎｃ@@
ｅｎｔｉａｌ
ｕｌｔ@@
大脳
基底
皮質
特質
鮮明
波束
コリ@@
Ｃａｒ@@
ｄｉ@@
ｏｃ@@
重大
積
ＣＦ@@
三@@
トレーニング
ノー@@
２００５
ＡＳＰ
サーバー
ブロード
本格
誤@@
診
意@@
ＬＥＳ
ＰＩＶ
発信
背部
網状
サス
ＰＥＧ
ＳＵＳ
急峻
誤
ロット
後部
帯状
矯正
ＤＸ
５４０
ＭＰａ
％
ｋＷ
馬
ジン
地すべり
斜
ナガ
モ
原油
産@@
渋滞
生@@
駒
コミュニ@@
ティー
対@@
‘
ま@@
く@@
’
シクロビル
死滅
ａｇ
座
攻撃
陽圧
ＰＣＣ
ｕｔ@@
ｕｔ
提出
寄せ
まれ
オイル
パン
毎@@
２７０
枚
ＥＭＲ
母指
爪@@
甲
基部
下腿
２３１
ＴＤＭ
チャンネル
カン
膨大
バレー
インキュ@@
ベータ
ベン@@
チャ@@
キャ@@
タル
イチゴ
煎
飲用
ＣＲＰ
ユース
ｅｓｃ@@
合@@
モ@@
リック
１９８１
ＮＫ
１２７
中期
探
ワード
ＧＴ
ＦＥＴ
ホット
４４
発端
判@@
排水
スポンジ
高調波
ＭＤ
大域
斜め
入射
アルゴン
エージェント
教科
書
参考
なお
子ども
断面
しん
出液
嚢胞
パフォーマンス
補
代償
西部
ＤＯ@@
推測
ホウ素
ジルコニウム
Ｆａｒａｄａｙ
接近
単調
パニック
繰返し
ＰＶＡ
増強
たい@@
して
絹
ｅｓｓ
多型
残@@
売@@
り上げ
フラーレン
シンチグラム
ＵＰＳ
鉄鋼
板厚
スキー
ジャンプ
ＨＤＤ
積極
空孔
ｂｃｃ
走@@
Ａｌ@@
静止
レトロ
ＣＮＴ
ＴｉＯ
ＭｇＯ
Ｚ
ＥＴ
総
泌尿
両者
併用
Ｉｎｔ@@
国民
クラスター
平ら
ｎｓ
重なり
磨
滑り
起
ポピュ@@
メロ@@
ディ
シェア
提携
．ｓ@@
ＭＯ@@
ＭＰ
ＥＢＶ
捻@@
挫
許容
ＤＳＡ
Ｖｅｒ@@
ＨＤＬ
ライフ
男子
技法
現実
Ｇｒａ@@
酒石
エルゴ@@
タミン
説
唱@@
紡糸
極@@
硬度
ミリ
収益
保磁力
利尿
クレアチニン
ＰＬＳ
測
方面
角化
毎
キンク
Ｏｈｍ
立上り
ＡＺ
０
：
１９８３
真菌
見積
いま
ｏｔｔ@@
族
交差
床@@
腹@@
排便
ＮＮ
クス
光度
暗@@
闇
餌@@
訪れ
舟
ぎ
ベルト
摂動
ット@@
人為
メカニ@@
ｐｓ
ｃｈ@@
ｉｓ@@
ｅｎｓｉｓ
ｏｃｔ@@
ａｎｃｈ@@
ｓｔｅ@@
ａｎｉ
水晶
ＰＧ
煙@@
突
鉛直
ＲＣ
ＶＣ
親水
アクリル
切片
５５０
ｂｐ
影@@
極
改めて
ＴＢ
トヨタ
日産
Ｊａｐａｎ
Ａｕｔ@@
ｉｖｅ
ｔｗ@@
ａｒｅ
ａｎｄ
Ａｒ@@
ｅｃｔ@@
多発
印加
γ
Ｊｏｓｅｐｈｓｏｎ
随意
切り花
乾式
ッシュ
緩
総@@
等量
ＬＤＨ
診療
Ｓｕ@@
ｅｈ@@
ｒｏ
Ｆｒ@@
ａｎｋ
ＰＥＳ
図@@
ｕｒｅ@@
ｋａ
３０００
補体
下垂
距離
師
ＢＲ
シリカ
姿
事務
納入
引き起こ
ＰＵ@@
ＶＬ
マグネトロン
Ｈｇ
ｅｉ
ＬＯ@@
念
他@@
標高
火山
解答
正当
ｓｕｌ@@
ｃｕｓ
ｔｅｓｔ
液状
黒
褐色
斑
チェ@@
ッカー
ＳＢ@@
無限
板状
逓@@
Ｓｃｈｒｏｅｄｉｎｇｅｒ
梗塞
癖
欠損
ＶＩ
検体
ａｗａ
腰
ユニット
筋肉
十二指腸
潰
中学
田@@
辺
木@@
ペンタ@@
ゾシン
Ｃｌｏ@@
ｓｔｒ@@
ｐａｒ@@
ｉｃｕｍ
キチナーゼ
余@@
命
白金
グリーン
購入
部位
置き換え
潜在
ビタミン
欠乏
とらえ
失語
Ｓｅｅｂｅｃｋ
論理
ｉｏｎ@@
ａｃｔｅｒｉｕｍ
培地
糞便
ｓｐ@@
マーキング
失敗
囲
若年
プロジェクタ
ＶＬ@@
ＦＳ
ｅｒｙ
ａｒｇｅ
ｌｏ@@
ＣＭＶ
ニ
スピン@@
フリップ
本邦
退行
ＰＴＰ
チャレンジ
ＨＩ
棒
効@@
ボイド
審査
ＰＣＳ
マトリクス
ジャイ@@
アント
マイクロ@@
乳牛
緊張
味@@
感情
個性
モノクローナル
ＥＬＩＳＡ
腕@@
振り
拘束
ＱＣ
ホルダ
ＢＴ
シャン@@
質的
ヨード
気圧
旅行
回数
ＡＬＰ
高値
円滑
若者
土木
浮遊
教材
ＩＸ
１０１
題記
閉
表わ
本書
インシュリン
遠
ストリーマ
曲率
形質
ｏｎｔ@@
ロジ@@
スティ@@
広義
ＨＬ
純
古典
膨化
伸張
ドリル
アダプティブ
房室
パック
ＥＧ@@
Ｔ
ＭＣＴ
ＲＦＡ
右手
点火
ＩＩ@@
＝
集光
配電
ネオン
初回
頑@@
固
生後
乳児
貝殻
チョーク
ＦｅＰｔ
百@@
胆汁
新星
捕獲
糞@@
パル@@
トリガ
スパーク
貧血
ＩＩＩ
８０@@
硝化
ビーズ
室
痔
ＲＬ
シュー@@
水和
匂い
内壁
身近
生徒
ヌル
振とう
多核
肉眼
ダイナミクス
満た
耐
グルコース
末
加盟
ＧＳ
トレーサ
１６０
Ｇｂ
５３
ｖａｎ
ｄｅｒ
Ｗａａｌｓ
ＬＳ
香料
鎮静
地質
胞子
ＥＴＣ
ｏｎｉ@@
ａｚ@@
ａｍｐ@@
ｏｍｙｃ@@
ｚ@@
ｉｄｅ
的確
大いに
いえ
時々
ホルムアルデヒド
置@@
換え
逆行
トレーサー
赤@@
標識
脱毛
Ａｃｔ@@
輸血
緑
Ｍｉｃｒｏ@@
防@@
局部
立証
盛り込
懸@@
個所
局地
メダ@@
レーダ
定
忠実
搬送
ヘモ@@
ジ
黒色
苔
せん
Ｄｅｓ@@
ｆｏｒ
ｍａ
自治
才
塞栓
肌@@
レイ@@
フランジ
ウラン
手動
トラン@@
シーバ
コンプレッサ
易@@
多剤
耐性
１００００
文
仕@@
組
ｅｄ@@
ｏｃｈ@@
原動
求心
ＢＣ
味覚
丘
基幹
農産
送
サリ@@
マイド
散布
プランクトン
サイリスタ
準
レーダー
鋭敏
多角
迷路
定理
ｆｉ@@
ＣＲＭ
Ｃｕ@@
ａｔｉｏｎ@@
ｓｈ@@
プレゼンテーション
１９９１
付与
予言
連鎖
作り
ミス
件数
利益
法的
髄液
ぶどう
球菌
Ａｒｒｈｅｎｉｕｓ
ｏｒｅ
脆化
隔壁
精神
モニター
テル
ｅｒｍ@@
ｉｎｅ
ひ@@
かき
キャップ
地理
ＤＴ
Ｄｉｓ@@
ｒｅｔ@@
収穫
見つけ
８５
６９
６１
推論
飲@@
み込み
に@@
特有
ＳＩＳ
ギャ@@
リー
き@@
融点
矛盾
休@@
憩
休息
組み入れ
共用
貫通
アース
ａｓｅ
シーケンス
光波
コヒーレンス
脱水
予報
警報
硬
一体
ＦＤＧ
汎発
個
所望
カタログ
ＭＦＭ
ＭＢＰ
保険
κ
土@@
情
スイス
財団
渚
清掃
スタート
不能
ベンチャー
着実
育
充実
欠かせ
インチ
Ｆｒｅｓｎｅｌ
ゾーン
鉄骨
しかも
１２０
ｙｓ@@
ａｂ@@
ＰＥＩ
流入
脱硝
廃
除染
ばい
焼
定量
セグメント
ディア
多項
工事
ＣＹ@@
薬理
企画
アラキドン
誘起
農家
取扱い
箇所
ｉｋｅ
級数
遂げ
スムーズ
ｏｗｎ
ｏｏｄ
ご
ｍＭ
宮
熱間
鍛造
エンコーダ
伝わ
量産
ダメージ
色@@
ＵＶ
ロバスト
初め
ミニ
拒絶
造血
束縛
Ｌａｒ@@
ｓｅｎ
ＩＶ
ビフェニル
ａｔｅｄ
ｒｏｍ@@
ｔｉｍｅ
ＶＩＩＩ
インヒビター
．@@
ワークショップ
ＳＨ@@
ＲＯ@@
ＯＭ
広報
アウ@@
トリ@@
番組
売上
盲腸
腹壁
Ｍｙｃ@@
ｏｐｌａｓ@@
ｐｕｌ@@
ｍｏｎ@@
ねじ@@
ダイン
ｉｎｄ@@
ＶＩＰ
Ｃ．ｐ@@
ｎｅｕｍｏｎｉａｅ
ＳＡＲＳ
滞在
ビジ@@
マン
過敏
しびれ
Ｃｏｎｔｒｏｌ
コー@@
レス
ＬＥＴ
線型
揃
Ｃｙｓ
絞
抑え
筋性
ｏｖ
可逆
ＥＲ@@
連想
置換
反@@
響
羽根
ｂｅｒｇ
チャープ
フラグメント
抗
たり
妊娠
胎児
シンクロトロン
マージン
投入
ＡＴＰ
命名
Ｏｘ@@
ｆｏｒｄ
医
酸@@
素性
重度
健@@
忘
及
透過
福島
賀@@
川
シア
極大
経
ＲＭＳ
ｕｄ@@
ボディ
ナノメートル
正弦
違和
発疹
メカ@@
カル@@
早@@
老
ＳＰＩＣＥ
ファン@@
ドリ
い@@
定式
出版
Ｗｉｌｓｏｎ
音場
アブ@@
ソリ@@
ュ@@
翌@@
日間
北海道
優良
所要
上限
南方
下顎
頬
特長
ダイナミック
レンジ
光電
モー@@
海馬
ワン
アラスカ
ライダ
エーロゾル
予期
ぬ
公的
根@@
乗則
Ｔａｙｌｏｒ
隣接
勢
当面
Ｍａｔ@@
Ｂｌ@@
転がり
８０
グリース
フラクタル
ａｎｔ@@
ファイ@@
ナンス
Ｍｏｒ@@
ＣＭＰ
ｉｃａｌ
Ｍｅ@@
ｉｓｈ@@
アドレス
暗
プライ@@
ミング
かつ@@
差別
集約
ＤＨ
メタル
飲料
失調
同軸
手書き
キーボード
指示
ブロードバンド
トラフィック
衆
ＨＣ
チュ@@
バー@@
重点
皮内
少数
菌株
ｄｉｆ@@
ｆｕｓｅ
被験
説@@
読
紙
クール
実測
涼@@
暖@@
外気
決ま
限り
常用
低率
赤
血小
ＯＰＬＬ
冷房
エキスパ@@
倍率
フォトレジスト
アスペクト
粗度
フォー@@
メーション
管状
瞬時
ＳＫ
アルブミン
異方
獣@@
ブランド
カニ@@
クイ@@
ザル
ＫＬ
ＴＮＦ
中空
纏め
Ａｕ
Ｐｄ
遠隔
プラトー
はんだ
ポスト
端子
乱用
血糖
ＮＩＤＤＭ
ストリップ
諸元
濃厚
姉
同種
在宅
尿酸
＋
阻害
フォ@@
ード
継手
風車
ランニング
ふくそう
閉込め
核@@
ザー
Ｔｒ@@
ステレオ
交感
離れ
ｋＯｅ
相@@
模@@
ＳＰ@@
交@@
貨物
測度
背面
微少
浸水
ｏｕ@@
ｉｌｌｅ
ウエスト
イル
環
源@@
出産
クッション
姿勢
ブラインド
通風
油@@
セレン
子豚
アリ@@
シン
補給
毛
つ@@
活力
膿@@
汁
る@@
車輪
レース
空中
作@@
自分
律
偏
ｏｌｏｇｙ
結腸
左右
ＨＤ@@
ＧＦ
つぎ
抑圧
ＰＯ
ＨＲＴ
落
氷@@
雪
吹き@@
廃水
引き起
希少
致死
変数
マイクロプロセッサ
正孔
霞@@
浦
波浪
店舗
良性
士
高速度
ゴミ
酒
カフェイン
主軸
凝@@
クリティカル
ｃｏｍ@@
Ｗｉｎｄｏｗ@@
コネクション
ポーリング
Ｆｏｕｒｉｅｒ
不確か
Ｔｉ
替@@
Ｃｏ
ＰＯ@@
アリル
保湿
クリーム
ーション
しわ
冗長
有力
収率
ＤＲ@@
ＰＰＳ
包括
ＦＢＧ
炭@@
過大
線条
視床
はっ@@
ワックス
ノ@@
ＫＯ@@
緑地
解熱
９０@@
拡が
ＴＨＦ
洗浄
シラ@@
駆除
殺虫
放送
典型
インタフェース
ＩＤ@@
ＳＣ@@
るつぼ
用量
能動
整合
臼蓋
縁
ＵＬＳＩ
肘
クリスタル
稼動
カーネル
Ｐａｒ@@
Ｇｒ@@
Ｏｎ@@
関わ
増悪
料
算定
届出
向か
穿通
沿
フレームワーク
摩耗
沖合
握力
チ@@
ムワーク
抱え
深度
Ｒｕ@@
ＰＦ
とどま
ＡＨＰ
全長
皮
沈着
腫大
アクチニド
メ@@
トロ
ＰＩ
全球
ｉｏ
Ｉｍ@@
Ａｓ@@
ＡＰＣ
意志
物流
造船
ｏｉｄ
Ｐａｐ@@
本人
手軽
パラメトリック
ＭＮ@@
ＱＲ
良質
プレドニゾロン
末端
皮疹
；
上腕
シャル
ワー@@
ＶＦ
ローディング
ＮＤ@@
ＳＡＴ
現存
機体
僅か
フリンジ
ＤＦ@@
ＷＭ
ＨＧ
エマルジョン
こう合
ぬれ
ドラ@@
談
ポリペプチド
青
切り換え
シーケン@@
可
ＣＦＴ
苦@@
感じ
後腹膜
解放
島状
西洋
出願
漁@@
漁業
冷
触覚
活か
プロジェ@@
クション
ハード@@
アミド
つき
ＣＢ
Ｃａｌ@@
カレント
犯罪
クロス
セクション
Ｌｉｓ@@
ａｎｏ
欠
厚膜
講@@
ゲートウェイ
メル@@
デス
クー@@
ペ
ＣＬ
受光
ＬＴ@@
Ａｕ@@
Ｃｓ
背後
ＧＭＲ
増進
ｉｎｔ
吃@@
Ｍｏ
Ｇａ
熱流
ＮＴ@@
しょう
軽量
ふ@@
アニ@@
サ@@
キス
若
離@@
疎通
ＭＹ@@
ＳＷ@@
占有
１１１
分圧
工作
除雪
再び
担い手
食料
パッド
ＯＲ@@
コークス
湖
沼
アオコ
淡水
皮脂
夏@@
受容
ネガティブ
３１０
話@@
し@@
措置
登場
あわせ
ズ@@
もし
博物
見学
飛@@
派生
テロ@@
線溶
ウロキナーゼ
ヘパリン
わずか
Ｇｒｅｅｎ
相乗
劇的
音@@
ＨＳ@@
ｒｅｖ@@
向き
初診
気付
Ｍｏｅｓｓｂａｕｅｒ
機種
五@@
並べ
Ｋｌｅ@@
ニホン
ウズラ
発
具@@
勧め
付き
レギュレータ
渦@@
頂上
周り
グラニュ@@
のち
ホログラム
エー@@
デン
オーストラリア
貿易
概況
内包
頭蓋
ＣＤＭＡ
署名
ピコ
川崎
プロトン
結像
有名
細孔
くえ
野球
進路
連動
完了
リース
字
追い@@
ｖｉｔｒｏ
ゼロ
そ@@
畑
豚@@
押込
数字
記号
ＥＤ
ＩＣＤ
フック
かか@@
モノ
明
ミエロ@@
グラフィー
ａｙ
Ｗｏｒ@@
ｋｓ
試@@
作品
水溶液
フォト@@
ルミネッセンス
ｂｒ@@
ｙｃ@@
ｏｕｓ
ハエ
９２
モチーフ
レシピエント
鈴@@
鹿
条例
Ｓｃ@@
さえ
直立
跳躍
零点
微妙
ペン
水性
インキ
ひ素
カドミウム
ｍａｎ
号
ＴＵ@@
ＢＯ@@
広角
なら
小腸
網@@
嚢
脱出
グル
溶け
呼気
ごろ
ＴＧ
ｘ@@
スクリ@@
プト
アナターゼ
ド
リフト
スクロール
応じ
注視
グサ
ひ
の@@
み@@
どり
ＳＤＳ
ローラ
規
ｔｕ@@
Ｂｏ@@
ａｒｄ
中継
メイン
映
フェ@@
ンス
看@@
妊婦
スタ@@
昆@@
割当て
ウェブ
“
ａｒｇ@@
ｙｅ
”
リピート
５０００
伸ば
集熱
融雪
ＯＸ
泊
ｍｇ
ＣＭＣ
為
トルエン
吸入
ｒａｉｎ
Ｆｏ@@
ユーザー
液性
マシニング
台数
河
初
有無
奥行き
結
座位
劣性
術式
Ｌｉｎ@@
９５
米
試算
ＱＡＭ
モデム
ＯＦＤＭ
ＳＦ@@
正極
スプリング
ＡＴＣ
とりまとめ
創成
ホテル
商業
ＧＰ
スト
なか
あて
ファクター
修@@
まま
塑性
１９９３
輪
プラット
著作
権
経皮
レポート
急
ｔ／
香り
抗菌
ＤＣＴ
ピック
講義
景観
転@@
１３８
駆使
懇@@
点検
８７３
網目
ＨＩＭＡＣ
乏し
胸膜
きた
臓器
ＤＰＤ
題@@
Ｐｄ@@
救急
見逃
尿@@
遅
リーフ
体積
腹腔
血性
大網
血腫
拘
府@@
前壁
責任
１４０
ｍＡ
膝蓋
斑点
難渋
和
欠失
分業
精査
更なる
ＥＵ@@
発行
ｏｒｔ@@
ａｂｌｅ
Ｅｎ@@
ｉｅｓ
ｒａｄ@@
拘縮
暴露
オッズ
引っ張
ＢＤ
ｉｎｇｅｒ
ｉｍ
ＢＲ@@
ＤＩＰ
Ｇｅ@@
Ｉｎｔｅｒ@@
ａｃｔｉｖｅ
Ｆｌ@@
引張
ＴＴ
スタディ
警告
ＡＶ@@
トラ@@
路線
容器
部屋
加圧
ＮＭ
排他
逃@@
走
石灰
石膏
判
損害
賠@@
償
Ｈｙｐ@@
Ｃｒｅ@@
ａｔｏｒ
指向
高炉
観光
ＣＫ
逸脱
２０@@
整数
超え
トルコ
終点
円
ＰＡＡ
エレメント
アイランド
歩@@
能率
ＦＴＴＨ
因@@
シリコーン
流路
ｉｎａｌ
ＰＤＡ
プラス
コンピューティング
Ｈｉ@@
ヤマ@@
ネ
森
消火
下り
陶@@
芸
ｕｔｔ@@
ｒｅｓｓ
ＳＦ
患児
愛@@
床下
若干
毎日
ＥＤＦＡ
×
μｍ
閉じ
湾
起@@
船
暖房
学童
根茎
ふ
生長
バ
新聞
安心
鉄筋
ベンチ
フレッシュ
不動
核内
カスケード
ツリー
荏@@
航@@
縦
ミー
内膜
外膜
乳腺
医薬
タグ
累積
常識
例外
ＡＣＣ
痛覚
カン@@
衰退
線図
届@@
シャワー
近縁
敏感
組み立て
ＳＧ
内腔
ＳｉＨ
リッチ
脆
ＩＣＲＦ
揺らぎ
特色
ＰＳＡ
リソグラフィー
薄@@
Ｈｂ
４７０
７@@
ルチル
タニル
酸性
偶数
融液
クラミジア
補充
首
沢@@
ＥＰ
即ち
変態
資材
模様
無色
尋常
ざ
そう
ゲージ
原点
図表
唇
かな
ＩＰＭ
インダクタンス
えきか
ａｕ
エピネフリン
ＩＡ@@
採択
テロ
討議
プリンティング
救@@
助
異@@
風味
身
湿潤
ＨＰＶ
ミキシング
建材
化粧
移流
放散
需給
大麦
粗@@
羊毛
誘因
受診
バリヤ
ユニーク
点灯
ｉｂｒｉｏ
ｖｕｌ@@
ＣｄＳ
憩室
街
深夜
スリット
ＥＲ
巣
漁場
クリン@@
高架
剥離
終@@
ＡＭ@@
ＭＥ
手技
ヒット
ＡＢ@@
ＥＥ
雪@@
渦
苦痛
マイ@@
ＮＯＸ
温水
ボイラー
透視
マルテンサイト
およ@@
ぴ
再開
略@@
気流
性状
塵
Ｒａ@@
ａｕ@@
ＥＴＳ
肝腫
性病変
静注
ｓｅ
ｖｅｒｓ@@
擦過
傷
ＭＷ@@
給水
種子
１３５
１９５０
ＧＥ
敷地
郊外
移転
インサート
Ｂｏｌｔｚｍａｎｎ
スプライン
ラック
往復
ｃｒ@@
フラグ
メンテーション
Ｇａｕｓｓ
ＦＲＰ
Ｍｏｔ@@
ＧＶ
視@@
背側
砥石
トポ@@
内訳
現@@
始
窓口
取り込み
ＩＥＣ
がい
否
前向き
自生
リンゴ
メロン
桃
地殻
たび
吸引
ｉｓｉｏｎ
柵@@
即@@
ｅｒｉａ
ｒｈ@@
ａｅ
Ｅｔｈ@@
終わり
ゴール
硬膜
内分泌
双@@
研磨
消長
投影
露光
ミラー
原病
泉@@
別@@
府
虐待
プライマ@@
告
溶血
軽微
狭@@
義
ヒューマン
ｄｅｒ@@
線路
のべ
テマ@@
亜
高地
産地
作出
連結
ｆｃｃ
録
アルギン
球状
枝@@
分かれ
内燃
８３
個体
回収
燃費
割当
被害
片面
分岐
勢@@
総称
ふれ
手袋
塗布
里
頭頂
野@@
良@@
本体
Ｃｐ@@
極限
平
Ｈｕｂｂ@@
ｌｅ
ＦＢＲ
エロージョン
全身
エリテマトーデス
血行
伺
結びつ
ｒｅｄ@@
ＩＣＰ
メディカル
ＣＡＩ
しょ
骨@@
混晶
ＩｎＧａＡｓ
ＩｎＧａＡｓ@@
ＡｌＧａＡｓ
ナット
榎@@
工
配信
割り当て
罰
防護
錠
デリバリー
センチネル
温泉
レジオネラ
梅毒
潤滑剤
メチオニン
ＩＳＩ
ＣＥ@@
永久
ＥＰＯ
脳室内
毒
ＢＮＰ
豊か
Ａｎ@@
ｄｒ@@
ｅｎａ
ｓｉｍ@@
ｉｔｈ
焼成
ＥＭＴＰ
ＭＯＤ@@
ＥＬＳ
義歯
ッピング
薬疹
ドン@@
リ
翌日
混濁
小売
クリック
コンパートメント
酢酸
Ｃｏｍｐｕｔｅｒ
ｅｐｈ@@
厳重
東@@
欧
ＯＴ
末@@
乾@@
奇@@
妙
偏光
全く
チャック
シンク
偏差
残り
鋼管
キルン
インテ@@
被曝
ＣＰＵ
段
パイプライン
命令
レ
谷@@
絶@@
好
熱電
ｉｌｌ
偽@@
腔
ａｃｔ
トルク
ｏｂａｃｔｅｒｉｕｍ
ｔｕｂ@@
スケジュール
筒
回旋
カニュー@@
植林
しめ
既@@
整復
ポピュレーション
ターボ
灰色
義務
バーン
ｅｎｓｉｔ@@
ｉｖｉｔｙ
ＥＮ@@
目視
審議
権@@
連邦
Ｍｃ@@
ｅｎｚ@@
クラ@@
雷
ａｒｎ@@
ショベル
操縦
コンパイラ
結線
ｓａｌ@@
漂白
イコ@@
ライザ
キラ@@
ドー@@
脅威
湿気
仙@@
甘味
苦味
適当
排熱
トランスジェニック
糖化
アドリアマイシン
行@@
普@@
トン@@
羽
ホイスカ
そしゃく
演@@
取り
ａｎｋ@@
ａｒｔ
吻合
一意
口内
Ｃｚｏｃｈｒａｌｓｋｉ
リターン
舌@@
咽
職員
出せ
モーション
ブリッジ
トランスファ
有益
スパイラル
クラッチ
昨@@
ラジオ
口径
ＩＳＣ
フィン@@
ランド
取り扱
７２０
カスタム
長崎
北@@
松
海底
山脈
ＩＮＦ
ＲＩ@@
握
燐
リガンド
ＯＣ
キシ@@
広域
プロン
ＴＤ@@
組込み
攻
協議
歩留まり
取り込
ＲＨＥＥＤ
母子
集計
ＣＭ
Ｅｕｃ@@
ｌｉｄ
ＳＯＦＣ
摺動
骨粗
椎体
南部
鰻
養殖
スム@@
意
ひき@@
Ｓｐ@@
ニング
ｍａｘ
低@@
ＣｄＴｅ
Ａｇ
是@@
晴@@
雨
現像
ｐｏ@@
ａｃｔｉｏｎ
バクテリオ@@
ファージ
Ｇｎ@@
ウインドウ
村@@
黄体
復号
フィーダ
板@@
ばね
貼@@
トル
ＡＧ@@
新薬
オル@@
ニチン
地表
９４
凹凸
公害
ＲＨ
欠如
４９
ＦＤＡ
軟らか
触知
エレクトロン
乗り@@
差動
モノ@@
ック@@
ｆｕｓ@@
探知
１５６
きょく
１９３
Ｎｄ
ジギ@@
リス
ステーション
ＡＦ@@
ＴＡ
諸国
ｌｙｍｐｈ@@
ｏｃｙｔ@@
ｏｐａｔｈ@@
音韻
家系
ＳＶ
洗
気相
脱臭
併@@
８６
１１８
鎖@@
積み@@
スピンドル
受
商店
公園
自ら
同@@
Ｒｅｃ@@
胴体
シェ@@
Ｚｒ
トリグリセリド
肥料
利便
追及
ＨＡＭ
Ｔａ@@
他社
ノズル
ＸＳ
１９８７
抄録
航法
昼@@
アンバランス
姉妹
祖
む@@
クラウン
エーテル
Ａｐｐ@@
Ｓｅｒｖ@@
切
ＣＡＴＶ
切り出
採@@
ドロ@@
ップ@@
左手
ストック
右眼
充電
黒鉛
負極
右下肢
自@@
尊
ＢＢ
ＥＳＤ
時点
１０６
コネクタ
開拓
挿管
ＶＩ@@
ＴＩ@@
バージョン
度合
Ｐｏｉｓｓｏｎ
ＥＢ@@
ＩＢＭ
ＣＩ
ｉｔｅ
フォーカス
ドレイン
包装
ＢＧ
虚@@
構
実体
ＩＴＵ
ＨＥＭＴ
植皮
群集
帝@@
ＴＥＭ
ロッド
ＤＥＭ
同部
レントゲン
ＡＴＲ
ジャガイモ
サツマイモ
ウル@@
焼@@
粘度
キャパシタンス
ＴｉＮ
封入
ＢＣＳ
フェニ@@
演習
次ぎ
粘着
区別
セパレータ
禁@@
帰着
着@@
ミス@@
訂正
載
補足
有界
区間
正規
サンプリング
イカ
ｖｅｒ@@
末期
胃液
ＡＲＴ
付
ジア
もっと
ＳＧ@@
減@@
硝子
Ｔｃ
ＦＴ
骨化
シンプル
匹敵
Ｄｉｇｉｔａｌ
２５００
合意
Ｈａｒｔ@@
ｃｔ@@
ｌａｍ@@
ｉｒｅ
ないし
椎弓
ＬＶ
本報
反復
ｋＨｚ
重み@@
合計
体表
ｒｆ
上回
細分
コーディ@@
ータ
技師
伴@@
ＧＥ@@
アニール
フロ@@
ティア
ワー
財産
商@@
クト@@
ブルー
手間
らい
４２
ルー@@
振舞い
原発
廃止
ロー@@
シュ@@
政@@
樹立
ＣＣ@@
ナッ@@
ジング
ＳＤＷ
波数
９６
褐@@
フルオロカーボン
丁@@
ＨＲＰ
類推
繁殖
ギ
茎
葉@@
菜
パラジウム
出来
主役
必然
インフレーション
Ｐｅｔ@@
オー@@
帝王
脱髄
ＧＢＳ
不応
スラリー
淀@@
専用
湿地
戸
名@@
成@@
生まれ
高ま
盛ん
ヒスタミン
気胸
光@@
はるか
ＩＦＮ
ｂｏ@@
頚
総会
ＶＯＣ
順位
雷@@
害
トナ@@
ーシップ
カリフォルニア
湾@@
航行
ポリエチレン
軟質
ＰＶＣ
ボツリヌス
Ａｎｇ@@
門脈
［
ｏｇｒａｐｈ@@
ｍｅｎｔ@@
］
漏出
ＣＮＳ
ＣＩＭ
鞘
Ｊｃ
使い分け
分裂
脳内
トランスアミナーゼ
遅らせ
空調
吸蔵
愛媛
条
加味
図面
規@@
程
うつ病
扉
寒冷
積雪
ユニバーサル
ＭＮ
１４９
山梨
ど@@
おり
しも
アミ
南@@
アフリカ
飛躍
遵守
４４０
ｋＶ
２３０
雪崩
差圧
陰茎
小結節
１３３
対抗
ｅＶ
ごく
出来@@
昇温
通商
ごみ
故
ＰＴＨ
山@@
陰
幅@@
拡@@
Ｖｉｓｕａｌ
ＶＢ
稿
ムライト
ジルコニア
噴霧
ＮＥＬ
古@@
ジメチル
温暖
単核
営@@
団
ＬＵ@@
苫@@
牧
頭@@
ｒｅｃ@@
ｖｉ@@
ｕｎｔ
１９７６
批判
防食
低値
スパッタ
エキ@@
ゾ@@
チック
曲がり
アロ@@
エ
確
校正
Ｆｉｂ@@
ヒーター
棚@@
デュー@@
ジョ@@
スティック
顔料
ポリイミド
ポリ@@
スルホン
地温
側面
ジッタ
排液
ｒｏｂ@@
ａｃｔｅｒ
ｕｎｄ@@
ＤＱ
クライ@@
ロ
ｂｅｒ@@
ｏｎｅ
ｏｎａｌ
局在
ウェスタン
ブロット
ブラウザ
ＴＬ
Ｏｐ@@
セーフ
ペクチン
旋盤
鳥類
飼育
練習
素@@
ジゴキシン
犬
Ｄｓ@@
摩@@
損
顕在
広げ
伸展
反面
グロー
仏@@
教
伝@@
進捗
対向
ＦＳＨ
水和物
融体
ｉｎｕｓ
ｖａｒｉ@@
ＡＳＡ
極力
作為
ラテックス
ペリ@@
クル
既知
ラン
藻
ＶＥ
残基
１１９
ＧＬ
外国
ＤＭＥ
失
器官
Ｄｙ@@
ＯＥＣＤ
終え
無人
ＶＤ
洗い
磨@@
寧
ｃ／@@
ｂｃ@@
裏面
ＡＤＨ
多面
Ｈｕｂｂａｒｄ
板金
準拠
旅客
スケジュー@@
打ち@@
エレクトロ@@
クロミック
ヘッ@@
配位
開胸
熟練
圧電
内装
細
ＣＡＲ
黄銅
計数
経費
センチ@@
割@@
矩形
ｅｌｄ@@
呼称
トン
ストローク
メス
ルディング
描像
ますます
激化
露@@
合体
エッチ
安
畜産
Ｈａｌｌ
影
多段
セラ
誘@@
致
デーション
老@@
健
ンド
ＩＴＳ
追
り患
年数
ＴＭ
インメント
ＤＩＣ
酒@@
ぎり
歯状
改変
フェーズ
ＫＯＨ
ライダー
赤道
ねじ
加
単極
炭酸
まか
ｉｔｚ
しゅう
分別
材質
ラダー
素因
禁忌
日数
グレー@@
チング
シャ@@
ッター
ＣＦＣ
空洞
屋外
稲
グルタチオン
ＧＳＨ
１９８８
廃液
取り扱い
耗
プラーク
平板
トラス
ＰＰＩ
クエンチ
Ｃａ@@
ＣｕＯ
８７
１１３
抑欝
フィ
ブリル
多糖
ＳＴＥＭ
メガ@@
バルーン
落下
派遣
組立
六角
ジ@@
ウオ
鞭毛
静岡
耕作
放棄
ＧａＩｎ
Ａｓ／
マイクロマシン
取入れ
薬用
園
斜方
晶
取
同位
定性
ギガビット
粘液
菌種
およそ
ＣＳ@@
ＣＡＡ
フィブリ@@
ノイド
把持
椎骨
血しょう
Ｔｉ@@
パンチ
昨
ワイン
深層
香気
連
冬@@
鳥
種数
か所
気密
優し
願
真@@
仲介
震動
違
伝導体
三重
照度
混
Ｈｉ
ｅｔｔ@@
方策
ａｃｅ
食餌
ビール
陰嚢
多量
不明瞭
読み取り
暗点
ＭＨＣ
ＲＩ
検診
テキスト
会話
リバビリン
効力
Ｃｕｓｈｉｎｇ
ＶＳ
海綿
洞
頚部
ポリオ
修繕
平@@
言葉
フィン
ハブ
キャビティ
びん
茶@@
受動
娯@@
平成
活
ざ@@
長@@
かん
トマト
タマネギ
スタンダード
藤@@
昭
教授
くえん
Ｌｉ
Ｎｂ
グリコール
フラ@@
スコ
常圧
沸点
とくに
スタン
砂漠
ａｔ
ＤＰ
アーゼ
ヌクレオチド
下向き
上向き
オーロラ
リフロー
担当
ＨＩ@@
一時
ＳＡＭ
コージェネレーション
ステント
購買
半月
負@@
プル@@
サーマル
ット
冊@@
体位
体力
消耗
アーキテク@@
Ａｍ@@
ｂｉ@@
ｓｙｓｔｅｍ
ＢＥＴ
促
エストロゲン
周@@
到
ｒａｄ
ＭｅＶ
難治
組合
監@@
督
徐@@
徐
留@@
性的
パーセント
ラミブジン
ＣＡＧ
胃内
プリズム
多少
ッチ
ゼン@@
チン
ＴＬＲ
病原体
名づけ
層状
認知
メガ
ＢＩ@@
才@@
発散
洪水
塩害
陸
広範
サイバー
モデ@@
フォル@@
マント
シベ@@
カラマツ
落葉
ｗｏｒｋ
Ｇｌｏｂ@@
ｏｎｉｃ
Ｃｏｍ@@
ｏｒｔ
所有
巨視
ジャ@@
ボット
Ｍｏ@@
括@@
弧
ｐｒｏ@@
支払
オフセット
針
ＩＭＴ
食塩
ＴＳ@@
商
レイヤ
Ｓｉｍ@@
Ｏｂ@@
ｅｃｔ
Ａｃ@@
ｃｅｓｓ
Ｐｒｏｔ@@
矢板
３６０
測@@
そ
去
ブレ@@
ストー@@
催@@
眠
上下
噴流
水流
Ｃａｎｄｉｄａ
ａｌｂｉｃａｎｓ
Ｍｎ
内耳
奇形
難聴
ＡＢＲ
誰
基@@
借@@
款
合流
括約
踏まえ
発火
ＭＲ@@
変分
極端
レプトン
Ｈｉｇｇｓ
定@@
取れ
プロリン
管@@
ＱＷ
ポリウレタン
ＮＲ
兼ね備え
骨膜
チアノーゼ
ＡＭＰ
卵巣
成熟
恒常
ＧＯ@@
シル@@
根端
接@@
峰
尾@@
オリ@@
道@@
のり
下行
椎間
インク
１９７２
大差
ーニング
ヘルツ
落雷
流出
プリ@@
銅@@
張
積層
ＰＷ@@
ｉｚｅｄ
ｍｉｎ@@
ｕａｌ
ｍｅｔｈ@@
ｏｄ
ＫＤ
かくはん
ＴＢＰ
ＪＴ
接着
色度
エリア
マー
Ｍｏｎ@@
Ｂａｙ@@
生ごみ
桁
力@@
陰影
園芸
番号
ｕｌｌ@@
双極子
便
服薬
印@@
鑑
装@@
サイクロン
飛散
ｅｃｔｉｏｎ
ｓｔ
ｅｎｔ
ｋｅ
ｕｄｙ
ＳＨＲ
ろ胞
バセドウ
トリプトファン
含量
ＣＢＦ
排煙
Ｗｉｅｎｅｒ
孔
ｏｒｙ
せん断
Ｉａ
ち密
ＥＧ
ＡＴＰａｓｅ
遂行
いれ
バンチ
ＢＣＯ
ＮＳＡ@@
探求
カム
当科
ＣＣＲ
内径
ｃｍ@@
Ｖｏ@@
自立
きり
２２@@
長野
信
−
ｐｐ
Λ
埋設
敷設
縮退
波面
も@@
ドキュメント
体積分
偏移
中核
次々
振り返
刻@@
ｓｔｅｉｎ
入出力
垂@@
°
ＨＥ@@
互い
楽し
クロミズム
磁力
下痢
案@@
自覚
ヘル@@
シン@@
現代
象@@
徴
初@@
およぼ
Ｄｏｐｐｌｅｒ
ｍｅｒ
ヌクレオシド
ダブル
寛容
巧
裏@@
在院
財
遠方
鑑@@
賞
Ｆｏｒ@@
エバネ@@
セント
Ｂｉ@@
フラストレーション
アレル
クリップ
剰@@
余
層間
考@@
ポルフィリン
客観
フタロシアニン
マンノース
アミン
アダプタ
粗大
国@@
籍
開業
労働
濃
発病
海@@
保障
ブレット
感知
ＨＰＳ
帰納
ｏｔｒ@@
オレフィン
ケトン
不斉
実状
校@@
庭
組み@@
水力
フォーム
ファクタ
ファジィ
Ｐａ
ＷＧ
つな
河@@
童
かぜ
点滴
感光
内蔵
Ｉｓ@@
溶出
市中
戦
と@@
簡素
利@@
留意
密封
線源
関わり
ＤＬＴＳ
ＭＭＳＥ
Ｈｚ
エネルギ
リッ@@
ヒ
フリ@@
視野
数多く
ｅｍｅｎｔ
配向
ＭＡＣ
諮@@
疑@@
ｅｒａｌ
毎年
Ｈｃ
未
盤
イレ@@
ギュ@@
Ｈ．ｐｙｌｏｒｉ
病原
アーチ
剛
入所
塩水
レジスタ
投機
めっき
ｖｉｔ@@
過冷却
はん@@
糖鎖
ガングリ@@
ｓｃｈ@@
実地
腕
優秀
受賞
カーブ
秘@@
ＳＲＭ
ヒドロキシ
若齢
老齢
キメラ
フレ@@
ＮＲ@@
シリン
ドパミン
北陸
管内
農村
整
四国
前記
爆@@
Ｒｂ
治
要請
ループス
腎炎
徹底
貌
外来
抜き
伸縮
かゆみ
日光
等温
港
芯
折
調剤
赤潮
ＳＱ@@
テーブル
生残
フェロモン
ＡＬＴ
ｋＡ
プロピレン
骨シンチ
腸@@
ｍｉｎ
切り屑
複素
我が
ｅｒｓ
投@@
チェックポイント
録音
ギング
注@@
ＨＧＦ
収着
ＤＤ
ナイザ
前兆
粉
Ｍａｇｎ@@
ｕｎｃｔｉｏｎ
バル@@
Ｙｏ@@
ｕｌａ
メトリ@@
ゼーション
開設
ファリン
軍
共@@
催
フライト
ショウ
送電
母線
変圧
トレランス
ＶＬＳＩ
Ｍｉｃｈ@@
恒@@
星
取付け
シャープ
横切
タリウム
秋
降
時@@
潜水
射出
めざ
ＢＷ
旧
ソ連
植栽
ＲＤＦ
ボイラ
脱硫
重金属
ユニ@@
１７８
役立て
正負
泥@@
着火
チオフェン
一緒
ＣＯＤ
好まし
撃
デオキシコール
ヘルス
ＦＲ
ＦＥ@@
浄水
ゴースト
さし
ＩＭ
仔@@
スター@@
フルーツ
ジュース
球体
疎
間隙
縞@@
見積も
整え
右下
再燃
文学
調達
ヘマ@@
フィリン
着目
幼児
乳幼児
Ｉｓｉｎｇ
Ｈｅｉｓｅｎｂｅｒｇ
ピット
フォール
除圧
薄板
筋@@
幾何
ＮＳＡＩＤ
ｖｅｒ
省@@
察
増分
疑問
ツイン
ＳＯ
ブラ@@
フィッシュ
頒@@
パーソ@@
称
パーク
クレ@@
ゾール
レッド
柱@@
思春
ボイ@@
ルド
コーヒー
衝@@
ｃｅ
Ｍｅｔ@@
ｌｏｇ@@
ラミ@@
ネーション
テラ
保管
給油
給
Å
ニン@@
熱傷
２３９
配分
発@@
Ｔｅｃｈｎ@@
ｏｌｏｇ@@
ＸＰ
Ｓｙｓｔｅｍ
手がかり
類型
アリ
国家
史@@
気温
すでに
スペイン
商用
模
聴@@
ＰＦＣ
テオフィリン
ューション
カプセル
気分
投薬
遭遇
はっきり
躯@@
紅
丘疹
エンジニア
徹@@
夜
挑戦
ｍａｒ@@
ドル
ダイレクト
打ち上げ
スペーサ
癒合
感作
アモルファス
小球
凹
ポリマー
ＧＥＲＤ
逆流
ＣＺ
二色
要領
Ｃｌ@@
テンプレート
ＷＫＹ
損な
ＣＴＡ
読み@@
フ
メラニン
バナナ
オレンジ
モン
トウ
鏡面
ウィンドウ
疑似
半@@
家電
震源
ｉｏｌ@@
縦@@
金額
仕上げ
グリ@@
友@@
ＡＩ@@
離島
ＩＳＤＮ
コンセント
施@@
概@@
狭小
ワイ@@
いき
湿@@
防水
肺@@
ＥＲＰ
流れ@@
ビスマス
均等
代
ーター
ＲＳＶ
広葉
小径
濡れ
浸
融解
冷熱
蓄え
脈管
歩
リード
花
術者
老人
明か
帯@@
接地
Ｈｏｄｇｋｉｎ
Ｈｕ@@
起電力
数式
ＮＵ@@
ＲＢＳ
重心
了@@
胆
ポリメラーゼ
ヒカリ
未熟
ピンチ
ＰＯＳ
配布
２５０
乳化
脂@@
肪@@
乳剤
ｏｃｃｕｓ
富士
ハニカム
栓
アダプ@@
／ｍｉｎ
逆@@
潮
ミル
ＣＡＴ
スレーブ
迄
中立
連@@
仙台
松下
シンチレーション
クリア
Ｌｏｒ@@
レー@@
クローニング
蛇@@
カラム
二価
凋@@
トラック
Ｐａｇｅｔ
南米
ナス
げ@@
水産
院内
過ぎ
ＥＦ
閉@@
そく
度合い
Ｗａｌ@@
スピード
単相
ａｒｃ@@
ＡＣＦ
ｎｅｒ
ＥＥ@@
父親
減数
引
掻
粘土
ヌクレオ
ソーム
ＢＦ
プロフィール
クル@@
シークエンス
エキソン
ミスセンス
妨げ
叉
マラリア
原虫
ＩＰＦ
習得
ＳＮＲ
ｏｄｙ
遂
盟
過熱
回腸
根治
柱状
毛様
編
普遍
ｕｐ
Ｄｅｌ@@
ｗｉｔｈ
Ｔｉｍｅ
フロート
不眠
悪@@
各層
間力
矢@@
掛
ＮＣＳ
ＳＥＰ
ＶＥＰ
愛知
胃@@
腸炎
現われ
寒
重油
ッカ
硬性
コル@@
着用
参入
ポリアミド
迷走
脱
芽
錠剤
オリジナル
ハ
スズ@@
養分
側@@
可塑
もう
ｏｓｈ@@
サルタン
最@@
岩石
鉄鉱
ぞ
没
ヒステリシスループ
アルファ@@
ベット
暗黒
Ｌａｎｄ@@
ＥＯＳ
ラップ
銘柄
投票
捉@@
え@@
デンド
Ｄｏ@@
コツ
付帯
鉄心
流産
早朝
飢餓
グリコーゲン
Ｇｙ
フィブロイン
ラベル
待
宗@@
ＲＧＢ
１９７９
ダンパー
高層
餌
住@@
コンポジット
見積り
悪臭
ＣＴＰ
枠
逆数
概ね
たど
ｈｉｇｈ
および@@
ひ臓
ぼうこう
賢@@
澱粉
着花
播種
ジェネ@@
ヒドロペル
オキシド
空港
ｙｐｈ@@
ｐｏｒ@@
Ｓｔｒｅ@@
ｏｒａ
新種
昇降
作物
正味
どん
方形
レイアウト
且つ
つく
虫
メチレン
ンバー
日長
Ｈｙ@@
ｒｉｄ
１３０
代え
偏析
診察
紅@@
事態
高まり
手指
糸@@
レンチ
いで
ターニング
宅@@
公
微粉
比@@
ボックス
伝熱
並
ミネ@@
嶺
継@@
鴻@@
４１０
ボリューム
お@@
ステ@@
ッキ
渦流
クロック
ダウン
シュミ@@
実在
ディフューザ
失速
斜@@
ＣＰＣ
細@@
プロペラ
ヒアリング
パルサー
１０１２
カー@@
ペット
ＮＡＤＨ
オキソ
教@@
柵
ウス
回り
デス@@
ｏｎｄ
＊
皮@@
粒状
ｓ／@@
ｌｏｂ@@
用@@
塩類
サプリメント
読@@
込
ＸＹ
へ@@
Ｌａｎｇｍｕｉｒ
探針
ズーム
リッジ
固結
１４０@@
ＦＤ@@
雲母
長石
必@@
ーゼ
すぐ
凍
運
リノール
ＣＣＰ
密接
資格
依然
造形
ポーター
ｓｏｌ@@
初頭
真
ｃｙｃ@@
ｒｅｓｐ@@
ＣＲＥ@@
上面
ソーラー
ダイマー
有@@
ｔｅ@@
デルタ
ｆｓ
ＰＨ@@
ＬＩ@@
別々
外装
ラジアル
インダクタ
テー@@
ピング
始動
キング
Ｔｆ
パート@@
ａｐｔ@@
ｒｏｓ@@
ｃａｌ@@
ｅｆ@@
ストーマ
膝@@
選手
ストリーム
ＧＢ
ｍＷ
虫卵
ダイア@@
フラム
ＶＲ@@
容@@
認
葛@@
藤
あ@@
心@@
菌体
マスト
収支
リポソーム
１２５
エリスロ@@
マイシン
変量
ＡＳＴ
関西
専
広島
ｂｉｔ@@
Ｌａｃｔ@@
ｅａ
ｕｎｇ@@
バック@@
ボーン
禁煙
Ａｌｚｈｅｉｍｅｒ
リリース
ＰＨＢ
１６５
時変
定期
七
ＰＬ@@
ブロモ@@
クリプ@@
ただ
一斉
ＩＩｃ
問診
ＶＩＩ
ＭＨＤ
舶用
ビジュアル
文法
肉芽腫
ＴＸ
植@@
再帰
折り@@
急冷
かく
たん
鈍@@
アトピー
９３
簡潔
南北
カ所
トレイ
軟膏
ＡＶ
ロータ
１５００
ペル
オキシダーゼ
イーサネット
根絶
６７
１９７７
濁度
経時
光軸
ＡＬＤ
ＴＡ@@
ＴＯ@@
Ｈｆ
うま
大型
縫@@
粗さ
ＭＣ@@
ＭＢ
ショート
メバチ
印
擾乱
ＺＴ
当該
サル
陸域
ダクト
フィッティング
な@@
ＳＴＯ
積算
請@@
スペクトロ@@
練
スライ@@
ａｃｉｄ
ｋｇ
ージ
イチ@@
ｕｒｏ@@
ｐｓ@@
ｓｃｏｒｅ
コウ@@
群@@
トリプタン
八@@
幡
換算
カルマン
地山
ＨＢ
ＤＰ@@
器械
スター
ＭＢ@@
芽球
重水素
列島
新型
諮
弟
ふさわし
復水
ＧＣ
測位
竣工
アセチレン
マル@@
ペンタ
たら
ハードウエア
メニュー
数十
芋@@
ＧＡＢＡ
オーバヘッド
ファジ@@
ィ@@
薬品
電化
増@@
滑走
内視
競技
気道
惹起
勝
駅@@
務
ＥＭＣ
ＣＶ@@
水腫
ＲＤ
ＧＭＰ
ＧＤＰ
実大
放牧
雑草
液胞
ＮＡＤ
チロシン
単なる
餌料
ＣＬＡ
ｐｈｉｌ@@
直流
幸@@
弾@@
ＢＥＲ
オペ@@
レーター
付属
ｂｉｔ
予熱
径@@
曲@@
り@@
ソフト@@
ラム
重@@
向
Ｇｄ
Ｋａｌｍａｎ
ホスホリパーゼ
ＬＩＭ
サルモネラ
ｍｍ@@
すい臓
髄質
南東
大西
下部
ＮＤ
塗抹
ガイダンス
助成
言え
銅箔
ユー@@
カリ
毛細管
砲
議定
どれ
箔
サンドイッチ
昇華
白質
ＰＩＰ
ＡＮＣＡ
倉@@
敷
凸
不活
ＴＥ
アロイング
原生
ｉｔｒ@@
ｏｍｏｎａｓ
上部
プ
ＦＩＡ
マイクロホン
選好
表@@
車載
特@@
需
見込み
つぼ
草@@
短日
わい
ＮＡＤＰＨ
美し
ＰｒＰ
仮
或いは
タッチ
膜@@
アイソ@@
好気
放
陰@@
左側
π
術中
ヒドロコルチゾン
Ｋｕ
Ｋａ
穂
収量
直噴
化生
エアロゾル
バック
グラウンド
創薬
Ｋｒ
エキシマ
ｍＪ
舞@@
鶴
海上
試
Ｄｕ@@
Ａｋ@@
ａｌｓ
ｅｃｈ@@
再編
Ｌａｎｇ@@
カウン@@
梁
オス@@
スイング
ピクセル
社員
ヒアル@@
ニダーゼ
斥力
遍歴
地帯
ゆる@@
やか
伏
大地
油脂
妨害
論じ
トカマク
大分
新設
近辺
豪雨
聴
軸@@
旋
大径
クター
有痛
落ち@@
脆性
延性
Ｐｔ@@
丘陵
羊
風景
舎
上空
分@@
譲
ション
ティー@@
ろ過
倒立
興
前庭
受け@@
ネマチック
小滴
テンソル
ｏｗ@@
ｓｋｉ
エンベロープ
ｏｔｏ
Ｉｎｄ@@
スロット
到着
直ちに
落と
ヒ素
ＩＦ
サッカー
観@@
産科
予め
ＤＡＳ
待機
ｗｏｒ@@
ガンマ
柄
η
むしろ
ｉｎｉｔｉｏ
穴あけ
捕らえ
Ｓｅｒ
ラグランジ@@
ュ
シング
薄層
プラグ
粟@@
ホイール
Ｒｈ
世帯
マイコプラズマ
アンチモン
ドープ
ＭＯ
ＤＲ
Ｂｒｏ@@
ｕａｇｅ
フォーマ@@
ツ@@
タンニン
配合
脚@@
分光法
ＰＬＡ
ｏｍｙｃｅｓ
ｏｓｕｓ
ｃｙｓｔ@@
ｏｒｉ@@
ａｌｉｓ
Ｂａｒｒｅｔｔ
適@@
石@@
アニメーション
ＶＵＶ
モノクロ
ＤＮ@@
マテリアル
小学
しか@@
合い
ｐｎ
食欲
ど
反発
荷電
つか
ＮＢ
ＮＥ
経管
ＴＩＧ
ワイヤ@@
マングローブ
テクスチャ
イヌ
判別
居住
商標
意匠
男児
ＧＶＨＤ
吸湿
出生
パシ@@
消
ｄｃ
掘削
相似
発情
授精
平坦
切迫
ＦＰ
バイパス
玉
マイニング
Ｓｔａｒｋ
化物
移送
除菌
車軸
単回
ｍｉｃｒｏ@@
ｏｓｅ
ＰＰ@@
秘密
螺旋
刷@@
り込み
開示
法令
首都
フィ@@
ア
象牙
脱灰
脚
対数
結局
ブレー@@
スルー
フェライト
感応
農作
海産
核種
初発
インターフェ@@
ストラップ
右葉
グラフト
下地
出発
ダミー
無し
絹@@
頻発
慮
根本
コーナ
ニル@@
ジピン
鋭
スカ@@
（株）
去勢
子牛
震災
潮流
胸郭
侵襲
縮減
円弧
磁歪
同意
目覚まし
山岳
引き出
轄
健全
理
降雪
回顧
パンタグラフ
ルト
助け
Ｈａｌ@@
ａｎｅ
分数
Ｅ．
ｉｎｄｅｘ
種別
フォト
カットオフ
アナライザ
減圧
導管
円@@
在来
ＥＤＩ
イズ
ポー@@
Ｐ／
キラル
ＰＴＦＥ
結びつけ
カルシ@@
ＲＢ@@
ＦＮ
インパルス
Ｌａｐｌａｃｅ
消え
ブー@@
吸い@@
搾@@
粕
糞
Ｎｅｗｔｏｎ
ａｐｈ@@
ねらい
ＴＣ@@
ＬＲ
リアクトル
事件
ＳＯＭ
Ａｇ@@
ＴＥＡ
尿量
Ｎｅｒｎｓｔ
ＭＵ@@
載荷
ひび割れ
ｍｙ@@
オランダ
軒@@
帰還
数@@
消@@
毒@@
Ｅｌ@@
ａｔｉｃ
津@@
海峡
周産
１９６０
鋳型
じ@@
湯
ＴＨｚ
起点
マッサージ
電導
重篤
オルト
エステル
薬局
麻薬
周
夕@@
布@@
ｙｐ@@
ｄｓ@@
ａｌｅ
六
図式
トル@@
キット
せん妄
帳
書@@
汚泥
ｏｃｉ@@
両端
述
カルボキシル
ロイコ@@
トキシン
マグロ
解凍
表記
橋脚
Ｂａ
阻止
ジェント
理学
留
ｆａｃｅ
自主
一括
ＣＰＲ
並進
セー@@
４５０
ｄｅｌ@@
ａｙ@@
ａｎｅ@@
ｍｅｔ@@
コルチゾン
珪@@
検定
Ｓｅｒｖｉｃｅ
貼り@@
塩分
背
臥位
ｊａｐｏｎｉｃａ
Ｒｅｓ@@
ｅａｒ@@
よ@@
胸椎
肋骨
胸骨
内臓
諸@@
層@@
溶込
威
１６@@
誉
Ｍｕｌｔ@@
ｉｌｅ
釜@@
鉱山
熱線
学年
ゾン@@
糠
ヒル
雑種
下が
シリ@@
間質
ＣＰＡＰ
混雑
法人
農地
ＳＳＴ
浄
水場
浸漬
プロパ@@
万@@
ブランケット
トリチウム
ただ@@
ちに
ＬＴ
ＴＰＰ
ウエット
ポジ
伝染
疫
良否
念頭
切り替え
災
ピー@@
ゥ@@
厳格
肝要
ＥＥＬＳ
強皮
つな@@
かえ
ジオ
グロ@@
ープ
計装
ｕｔｅ
開@@
モルタル
堅@@
端部
ＬｉＦ
役@@
客
ネフローゼ
増感
隣@@
ぶ@@
求ま
東部
肝内
ＥＰＭＡ
ステンレス
坐骨
マグネシア
イット
節@@
急務
吉@@
儀
マネ@@
キン
宮城
山形
鳥取
住友
貴
育苗
青森
尻@@
屋@@
受傷
吹@@
ｅｐｔ@@
Ｉｎｆｏｒｍａｔｉｏｎ
Ｌｉｅ
曝
ｓｉｎ@@
ｑ
圃場
バクテリア
なく
ＤＰＢ
眼鏡
枕
張@@
ＶＴＲ
鉱物
変異体
神戸
れ@@
あい
セラ@@
口唇
ストレーション
毛包
眼球
わけ
描写
億
万
ビニル
アセタール
湿式
套
香@@
辛
外陰
マウント
暗号
１３@@
車内
ＤＢ@@
ｙｓ
印象
炭水
糖@@
デンプン
至適
蛇行
海岸
津波
ＬＤＬ
見直
とれ
双方
暫定
核子
Ｐａｕｌ@@
１９８４
三叉
食糧
不法
占@@
バックライト
我@@
寄@@
Ｋｅｌ@@
Ｂｒｏｗｎ
着陸
漢方
量的
互換
Ｆｕｓ@@
単語
音節
ＧＡＤ
ニトロ
筋炎
θ
オリゴ@@
ドロ
ＳＰＲ
交代
回生
深海
洋上
フラッシュ
ｄＨｖＡ
抗生
卒@@
屠@@
畜
ジー
マーケティング
ｒｏｎ
リミ@@
ｄｅ@@
ｕｌａｔｉｏｎ
ｍｅｓ@@
けん
送出
橋本
二@@
郎
ウン@@
浸食
没@@
媒介
微弱
パルプ
憎悪
実機
じん
略
プルーム
薄型
カスタマイズ
ｖｏｎ
ｅｎｋ@@
単離
ＯＬ
軟@@
持ち
色彩
プス
漸減
本症例
ＰＣａ
聞き@@
納期
小葉
管腔
励起子
職種
かかわり
従事
佐賀
奈良
岐阜
開
幾
ｒｉｘ
ＷＰ
シナプス
スペー@@
アリール
髪
ＦＴ@@
ストリ@@
ｄＢｍ
散@@
胸
漏
好み
上述
Ａｈ@@
ＤＯ
Ｃｕｒｉｅ
チェンジ
操舵
充
ガスケット
大別
未分化
アマ@@
愛
裂孔
チオール
滑@@
マスキング
ＫＮ
１９７０
チタニア
冠
あまり
ｏｓｓ@@
クロー@@
ゼット
棚
グラフィック
頓@@
マトリ@@
会員
好@@
幌@@
延
労
申@@
付近
ＴＣＡ
ヒト@@
中層
成り立
フッ素
ＳＭＡ
副題
清潔
ばかり
正面
勝@@
算
電
エクセルギー
苗木
ウォーム
円形
ＦＭＳ
ＳＷＮＴ
蓄
あと
園@@
祭@@
入り@@
混入
レー
食べ
温@@
振戦
劇症
潅@@
発芽
溶着
マニ
ッカ@@
ライド
アポ@@
クレーム
延べ
ｙａ
ｓｍ@@
ａｌｌ
厚生
ａｇｅ@@
ＨＶ
ニジン
Ｇｏ@@
ペニシリン
冶金
母@@
校
中年
実質
対話
ＷＯ
凝集
エキスパート
徐脈
近位
デュ@@
ポテン@@
ショ
贈@@
ソニー
のぼ
ケーキ
Ｅｕｌｅｒ
ＣＯＳ
珠
降@@
三宅
火
陥没
ドレナージ
すず
リル
Ｌｅｗｉｓ
本州
水相
アクセ@@
チオ
エステラーゼ
セントラル
外因
潜血
セロトニン
アセチルコリン
ガストリン
Ｇｒｅ@@
ｅｎｂｅｒｇ
陸@@
表層
扱い
臭素
北極
主義
ＭＭＣ
Ｂｕｒ@@
右肺
脱気
ｐｙ
Ｔｕｒ@@
ゆう
ＣＭＬ
ＳＣＴ
自家
ＢＭＴ
前部
異種
春季
ホスファターゼ
フォスファ@@
ターゼ
Ｋｉｒ@@
鋼線
１０８
解法
卒業
萎凋
ロバ@@
声帯
ひだ
音源
切換
ロス
沸騰
ホルマリン
風@@
メソ@@
タン@@
グル@@
修
ｏｃｏｃｃｕｓ
Ｂａｃｉｌｌｕｓ
スペクトロスコピー
底
筋群
失禁
動静脈
弊@@
モール
西
トナー
締@@
レプリカ
ＩＳＴ@@
好酸
全量
充@@
氏
座@@
バンク
フォーマット
スチン
中高年
養
１８００
まわり
生着
胃腸
空腸
インターフェイス
ｈｒ
好中
表れ
用紙
記入
簿
通り
機序
ファイン
醸@@
転化
塔
抽象
大口径
ＥＭ@@
投射
ＫＩ
ベリング
スリーブ
余震
究明
無電解
１０１６
傍
ＶＧ
ａｇｎ@@
ガム
Ｌａ
Ｎｐ
Ａｍ
ふっ
エポキシ
俳@@
優
技
汗腺
蓄熱
プル
様@@
保育
全摘出
漁船
ＡＦＰ
ＫＡ
ＣＥＡ
較正
占
砂
代用
ヤー
ニューロ@@
パシー
吹出
１３２
買
テル@@
ＥＸＡＦＳ
１９０
Ｐｂ
ドラム
開存
少量
健常
サーチ
一番
ＣＡＢ
ＡＡＡ
既設
コンデン@@
タップ
絞@@
Ｅｕ
Ｔｂ
数量
Ｔｇ
解体
気化
さび
ｒａｂ@@
義@@
網羅
害虫
越冬
効
ＡＣＥ
ＥＲＫ
ＰＫ
ショウジョウバエ
フィード
浄@@
樋@@
装荷
品@@
レプチン
展
熊@@
ザ
童@@
謡
沈降
ショップ
３０@@
明白
ワーキング
ストレプト@@
Ｓｔｒｅｐｔｏｍｙｃｅｓ
ｅｕｓ
オン@@
デマンド
ニクス
ろ@@
ＭＣＡ
ｓａｔ@@
肉@@
老年
灯
ＴＥＯＳ
告知
インテグレーション
サーモ@@
ピー
フロア
異所
眉@@
左眼
捻転
１９８６
プッシュ
Ａｕｇｅｒ
公平
シラン
固着
ＣＴＳ
発赤
ＣｓＡ
トランスフェラーゼ
マブ
画
ジャン@@
ｒｅ
Ｏｒ@@
ョ@@
バン
条約
締結
ミオ@@
オーキシン
でん
ｐｐｂ
ｐｇ
ＣＵ@@
便益
済み
複写
１３４
定点
創製
極小
郵政
シー
魚
マンニトール
ＬＥＸ
ウォ@@
ボーリング
肺胞
ペプチダーゼ
ドラフト
壊
追尾
所属
強酸
覗@@
随時
発声
ＥＣＧ
ｒｏｌ@@
ロイ@@
ペプ@@
ＵＩ
引き上げ
ＳＣＩＤ
レセプター
天@@
王@@
圧延
外界
底面
吸込
本合金
時効
水路
岸
ホールド
北西
正式
下回
総説
カキ
沢
都@@
区@@
沿@@
ＨＣｌ
Ｅｔ
蒸着
研修
ゴナドトロピン
ＧｎＲＨ
攻@@
ＰＩＤ
イニ@@
エピトープ
林分
心房
細動
刺@@
聴力
押さえ
ミスマッチ
触@@
ジュ@@
ラス
減速
穏
ブランク
トロン
サイン
共和
ｍＶ
合致
ＥＣＴ
Ｌｙ@@
前述
プロピル
ウラシル
ＴＲＡ@@
前腕
ガーネット
双曲
メニスカス
強風
ｃｉｎｏｍａ
ナイロン
モノマー
犠牲
無水
見掛け
品位
単量
ゆ
ＨＲＲ
ふっ@@
ＴＤ
船体
漕@@
ｅｎｓ@@
ｉａｎａ
ｙｇ@@
ｏｐｓｉｓ
ｍｕ@@
ガル
連成
ＥＥＧ
うっ血
マダニ
ｙｓｉｓ
ｉｃｋ
ＢＯ
Ｃｏｌｌ@@
Ｔａ
り患率
原型
牛@@
合板
パーティ@@
鋸@@
刃
立方
採
上方
ＳＳＣ
ｉｌｉｔｙ
ＸＲ
受精
ＰＫＣ
ＰＡＲ
貼付
適宜
スキュー
履
操業
燃
併せ持
御
貯留
捕捉
錆@@
博
タクシー
インプラント
盲
Ｓｏｌ@@
Ｂｕ@@
煩@@
わし
ｋＤａ
画分
ｍｍＨｇ
ｐｍ
縮@@
ホモ@@
ナイ@@
ウレアーゼ
鹿@@
絵@@
聞き取
回盲
ＳＲ@@
エンス
透@@
ばらつき
公衆
プラスミド
版@@
キャリブレーション
ラジン
リソソーム
スラ@@
近@@
ＥＳ@@
感@@
想
ｆｉｌ@@
左室
ＬＭＳ
ゲスト
本例
ＧＨ@@
ｈＣＧ
魔@@
変成
ハイドロ
テオミクス
マイグレーション
立ち@@
返
いた
曽@@
干潟
ハプロ
構内
脱離
縮
ポリシー
斎
１７@@
カルテ
要件
芽@@
胞
相同
ビード
枠組
アプリ@@
オリ
ＣＧ@@
ヌ@@
イントロン
割
ｓｐｅｃｔｉｖｅ
錯
マイクロマシニング
ヨー
ｂｅ@@
ｒｏｐ@@
ａｄｅｎ@@
功@@
罪
強固
ＫＰ
加わ
チュー@@
伸筋
尺@@
引き
多大
明電
ーブ
アンギオテンシン
なくな
坂@@
好適
抗@@
謝
思@@
細管
内因
充満
毛細
全層
ＨＩＰ
民@@
営
ミオシン
悪心
ＳＳＲＩ
卑
スペ@@
キュラム
ＴＩ
ｉｎｓ@@
ｏｃｋ
ＣＣＫ
リー@@
ング
ヘ@@
送風
農薬
ＫＯ
ＣＮ@@
ホル@@
足底
ＩＣＡ
淡@@
ソ
変種
ＭＩＢＧ
シンチグラフィー
確め
一旦
後退
レチノイン
冷間
ブラウン
コーダ
濃縮
くらい
枯渇
兵庫
釜
ＰＩＣ
魚介
範@@
ちゅう
ｈｅｒ@@
壁@@
在
右膝
精細
メタ@@
加入
１２００
ＰＵ
発泡
加水
９９
上がり
ムー@@
Ｎｅｔｗｏｒｋ
貫入
ゲン
驚
シングル
ジャーナル
省力
しば@@
らく
ａｎｇ
ＮＢＩ
ｐｒ
毛管
ウィ@@
水痘
ｉｇｈ@@
ａｖｅ
ｉｒｃ@@
偏波
ゅう@@
リング@@
動揺
具合
椎@@
茸
ジウム
歯肉
担体
ポロイダル
鼓@@
ｉｃｈ
Ｔｏｒ@@
ｇｅ
尾側
プロー@@
ビング
埋め@@
ＨＶ@@
省エネ
レット
プレット
体長
コイ
ダイス
沿い
終末
キューブ
Ｓａｃｃｈａｒｏｍｙｃｅｓ
ｃｅｒｅｖｉｓｉａｅ
チャンバ
協定
創設
Ｎｅｅｌ
焚
重ね
頼
ネン
キュウリ
う@@
どん@@
持@@
久@@
周知
巡回
母斑
小形
可変速
コマンド
アッ@@
作型
春@@
命@@
題
仲@@
暴@@
内層
フッ@@
入り
ウシ
敷@@
藁
行程
えん
鉄損
腰部
コンパ@@
スティング
透磁
清@@
横浜
トラフ
ｎｇ
ｍＬ
ＧＯＴ
蜜
養@@
蜂
主要因
未満
膜面
ＢＣＧ
休眠
ミセル
要@@
リン@@
ｙｌ@@
Ａｐ@@
ｒｅｕｓ
係
ボタン
ゆるみ
弦
Ｆｒｉ@@
ティック
ＥＣＬ
石川
街@@
ｓｔｒｕｃｔ@@
ｃｅｓｓ@@
ＴＭＡ
大陸
全域
アシドーシス
器質
＞
マルチパス
定位
同心
ＬＦ
ＰＢＣ
洗濯
ろう
／ｌ
００
増多
労作
息@@
契機
一過
正方
釈
残肝
温熱
ｐｅ@@
経腸
製剤
フォワード
博@@
ＮＭ@@
ｏｌｄ
戸@@
健診
ＦＭ@@
ＦＥＬ
外周
メッキ
カルス
真性
Ｌａｖ@@
ｕｓｔ@@
ｉｆｏｌｉａ
幽門
像@@
おき
縦渦
ｂｙ
ノル@@
ウェー
Ｐｌａｎｃｋ
Ｌａｍ@@
挟@@
み込
ホモ
ＧＰＣ
ｏｗｅｒ
ＦＲ@@
スラスト
ピン@@
自験
ストラ@@
ヨー@@
マー@@
ベニ@@
ザ@@
カラ@@
フト
サケ
ギン@@
マス@@
スチール
障@@
碍
被爆
浅
４０@@
Ｇｕ@@
ａｓｓ
ｅｔｒｙ
０２
排膿
ピンホール
解除
粘
ちょう
退化
亜型
減じ
ｔｏ
’@@
待@@
ＢＰ
ｏｒｉ
携@@
低次元
トー@@
鳴@@
リアリティ
ダイナミ@@
ズム
汚@@
ＰＡＦ
ＡＤＣ
ｕｚ@@
ゼータ
Ｗｅｉｂｕｌｌ
最尤
荷
積載
ＥＣＰ
Ｓｃｈｏｔｔｋｙ
溢@@
卓@@
常温
本病
台木
列@@
エンテロ@@
回@@
ｙｓｔ@@
ＭＦ@@
ダウン@@
混在
病勢
倍@@
バンプ
雨量
カップル
ホメオ@@
シス
べ@@
黄@@
歯@@
綿
けい素
ウイ@@
Ｐｅｉｅｒｌ@@
フェルミオン
星状
電器
Ｋｄ
Ｔｂ@@
Ｋｅｒｒ
ＷＡ
嫌
２０１０
革
富化
ＭＰＣ
熱量
酢
機材
氾濫
ＰＳＳ
音質
ソレノイド
チェックリスト
目安
前線
進入
ＸＰＳ
つい
論点
陸上
勧告
治験
はじめて
食味
Ｐｅ@@
トレンド
Ｌｏｒｅｎｔｚ
リボ@@
フラビン
層内
所定
散
かた
並み
追@@
随
ブレンド
異
天井
コラム
ねじり
ードル
錐@@
ＳＵ@@
ゾン
デル
カス@@
ツベルクリン
ｃｏｍｐ@@
ｌｅｘ
ｒｅｇ@@
ｉｏｎａｌ
ｓｙｎｄｒｏｍ@@
遠位
古代
ミア
ハムスター
モルモット
種苗
ゅ
半ば
インター
泡沫
ファー
ゲノ@@
ミクス
カツ@@
ナノ@@
いっ@@
相図
ポン
似@@
ＡＱ@@
液膜
真核
放線
強ま
Ｍｅｔ
Ｙｏｕｎｇ
明暗
肉芽
ＢＨ
トーン
調合
胃酸
伸長
ｔｒｏ@@
ｌｅｄ
ｉｎｔｅｒ@@
墾
牧草
ｄｅｒｓｏｎ
Ｍｅｔｈ@@
ａｎｃｅｄ
ａｔａ
ｈｃｐ
無声
Ｓｂ
事前
根圏
ＨＴＭＬ
オペレーション
コレ@@
ＭＣＴＤ
着
先駆け
移入
Ｂｏｒ@@
ｎ‐
Ｍａｒｋｏｖ
回分
話者
ニュース
腫@@
した
Ｈａ@@
ｍｏｐｈｉｌ@@
ｆｌｕ@@
続き
ＩＣＵ
班@@
患側
胸筋
前報
とりあげ
セ
エビ
幼生
ホン
Ｇｉｂｂｓ
ールド
恥@@
公称
ふる@@
固溶体
ＨｂＡ１
ペイ@@
フォーマンス
ＰＣＮＡ
ＩＩＡ
住
寺
松@@
復調
ヒドラ@@
浮動
シュ
クランク
磯
両種
Ａｎ
Ｎｅ
輪状
Ｆａｂｒ@@
厄@@
ビュー
フレット
ＴＴＰ
ｏｃｏｌ
ｌｅｘ@@
入口
シンターゼ
ｓｔｅｒ
ＰＤＣ
火力
管癌
ジストロフィン
スプライシング
ＳＳＲ
逼@@
迫
飼養
仮@@
足部
ＷＨ@@
欲@@
バーチャル
反跳
梁@@
ＬＣ@@
ＭＲＳ
臼@@
舞
スタン@@
郭
米粒
離脱
すい
受胎
耐用
ネガ
エル
汚
ケー@@
Ｍｕ@@
補液
因果
取りまとめ
バラツキ
有病
令
ｒｅｓｓ@@
転子
淋菌
ラル
管路
連立
吸光度
資産
融資
権利
給与
退色
溶
フラボノイド
可溶
呈@@
激@@
同側
スピーカ
当たり
カップリング
ハミルトニアン
穀物
玄米
電算
ＴＬＣ
量論
ジクロロ
独@@
熱力学
ロジスティック
すす
前駆
刊行
はく離
湖沼
ｕｎｃｔ@@
妨@@
蟻
世
騒
選別
ュー@@
りつけ
アドバイス
随@@
くらべ
ベー@@
ジー@@
ンズ
’ｓ
ｉｓｅ
１９８５
１，@@
クシ@@
不溶
ｓｕ@@
ｏｘ@@
ｍｕｔ@@
水域
曇@@
極微
アレー
アンダー
きめ細か
グロビン
ＳＴＮ
太@@
学問
側方
アジ
確証
明@@
プレーン
ＣａＯ
給気
Ｂｅｔｈｅ
スキル
病状
モザイク
占拠
ＱｏＳ
ＯＤ
防除
悩@@
弱@@
無痛
キノコ
ｍ３
優@@
雅
インシデ@@
ジャー
１０１０
ＣｕＣｌ
１９７１
稲@@
わ@@
持ち@@
司@@
等@@
斑@@
ナシ
ｍａｎｎ
弧@@
Ｎａｖｉｅｒ
Ｓｔｏｋｅｓ
丈
ラム@@
スタイル
′@@
地元
カチオン
マグネット
ＩｎＳｂ
とりわけ
光沢
侵
提起
麻
イレウス
ウェット
焼き@@
是正
外的
内的
メラノーマ
チア@@
ダゾール
駆@@
ラッピング
ブイ
神@@
高山
水田
ドック
ケット
アンド
ＥＣＤ
専@@
任
イスト
ホイ@@
井@@
架橋
傍@@
幹部
巧@@
ばら@@
ｓｙｎｄｒｏｍｅ
ａｓｔｉｃ
ｒａｙ
訪@@
メ
ｓｋｙ
ＳＢＴ
ブラスト
直視
オーバ
繁@@
華
遊
ＪＲ
鉱@@
熱延
ＢＩ
基線
バラ
ＣＴＤ
コレクション
如何
本年
帯血
透
亮
ート@@
下剤
推@@
行き
ＭＣＤ
併給
ｔｓ@@
弾力
ＩＵ@@
ＧＲ
頻繁
マグニチュード
胆道
ｐｈｏｓｐｈ@@
ａｍｂ@@
宿
寛解
膨隆
ｋＪ
確@@
地位
単発
コンピ@@
採取
会計
１４００１
ｏｓｐ@@
ａｕｔ@@
ｉｃｌｅ
波源
ＴＡＴ
肘@@
病床
ほ乳
肥育
ｍｕｌｔ@@
ｉｄａ
脅@@
補聴
噴火
ほ@@
冠状
液相
引起こ
偏@@
水車
ランナ
香川
重極
堤体
直下
倒@@
ＰＡＨ
煤
エマルション
ローマ
ＥＴ@@
威@@
レニン
オーバー@@
損耗
準位
阿@@
武@@
隈
山地
ＦＬ
イル@@
顔@@
再度
シード
見かけ
欠落
補間
アセテート
河口
ＢＯＤ
マイコ@@
組換え
締
各項
まったく
ｍＫ
高熱
ッジ
中等
暮
マット
尾部
装具
ＰＶ@@
固め
ＮＧ
枚@@
ふまえ
Ｐａｇ@@
子葉
高力
ＥＩＡ
たい
フタル
中長期
鞍
アゾ
異質
付随
ｉｎｉｔ@@
カルニチン
潮汐
高低
視認
鮮@@
以後
京@@
癒着
ａｉ
組立て
取上げ
エノ@@
ラート
ミツ@@
バチ
卵白
本論
リソグラフィ
フィルタリング
打ち
撤去
施用
Ｃｈｉ@@
ａｒｉ
固溶
教え
手帳
セン
ドーパミン
リバ@@
ウンド
Ｃｘ
銀@@
脱窒
訴
μ@@
グリコ@@
ミノ@@
ＤＴＰＡ
ベンダ
ＴＭ@@
浴@@
電機
精巣
附属
相補
ＩＬ@@
ＳＡＣ
スタンス
下面
カリ@@
エレクト@@
不織布
メー@@
おおむね
Ｏ２
矢状
振り@@
浮き@@
防振
遮音
キャッシュ
髄@@
高位
ＦＦＴ
近隣
アン
切@@
ＮＦ
エピ
リウム
反り
霊長
痛風
Ｓｒ
巻線
アドミ@@
ッタンス
′
通電
ｏｍｅ
焼灼
ＡＡＳ
恐怖
固@@
まり
貫
ｅｔｔ
ｗａｙ
夫
とり@@
陸棚
ネル
Ｌａｇｒ@@
アルキ@@
Ｌｙａｐｕｎｏｖ
アム@@
財政
陥
脱色
ホース
大変
ｙｌ
相殺
巻き込
病@@
収納
吸@@
瓶
何@@
髄膜
店@@
ＵＮ@@
ＰＨＡ
ＰＷ
Δ
ＱＲＳ
孔径
ストリッピング
木質
槽
銅板
ウレタン
厚@@
導電
ＰＴＡ
ｒａｄｉ@@
皆
ち@@
事柄
紅色
触診
東洋
名称
埋込
ＳＨＧ
カルボン
体動
リモ@@
滅菌
Ｈａｍ@@
ｂｕｒｇ
ＷＴ
ＮｉＦｅ
飲食
数千
余剰
￣
捕
ティクス
インス@@
メン@@
さや
桁@@
制動
オール
２０１
葉酸
ＩＥＥＥ
ＶＥ@@
造成
除@@
排@@
階
書換え
ｍｏｒ
株式
社@@
債
済
ッピー
肝@@
ｖｉｒ@@
ｍｅｎｔ
パール
牛群
イネ
づ
スチ@@
もち@@
Ａｂ@@
限外
端@@
緒
兼ね@@
ビー@@
セボフル
ソリューション
疫@@
Ｈｅ
テトラ@@
畿
切欠
エッ@@
鉱石
リブ
ーズ
賄
貧
綱
ミズ
すず@@
楽器
遠@@
腐敗
ライナー
びまん
益
選@@
Ｚｅ@@
ｅｍａｎ
ひ骨
極薄
貼
コロナ
カウンセ@@
延命
Ｊｏ@@
ｃｈｅｒ
ｏｒｐｈ@@
歯周
病菌
ＬＰＳ
ノキ
薦@@
埋蔵
夏期
当時
原始
ＣＡＢＧ
時刻
据@@
打設
ＥＳＩ
情緒
都合
いき@@
さつ
レコーダ
痩@@
パーティ
ブック
はい
ＰＷＶ
稀@@
ＡＣＡ
ポン@@
へき
縦型
麦@@
複
包
断裂
ロドプシン
敬
キャラ@@
宣@@
伝
じょく
Ｍａｓ@@
天秤
シメチジン
ｉｓｔ@@
卵@@
鶏
Ｍｂ
ＢＬＭ
賊
泌乳
乳量
外壁
押出
れい
極子
汎
１０４
医科
灰@@
吸光
腹症
腸間
弁@@
惣@@
懸垂
プロモーター
ＰＫ@@
ロング
なが@@
畦@@
塗
ざる
大変形
軍@@
ピ
経由
プラー
定在
て@@
ＮＳ@@
体幹
型@@
蒸散
フォーミング
ピラミッド
ぼみ
プロテオーム
過多
乗算
個数
ガドリニウム
エコ
挟
従@@
兄弟
獣
撲@@
滅
大臣
数え
吸水
掌
せき
於け
髄様
全摘
輝
ＴＳＨ
ＢＤ@@
索
同胞
ｕｈ@@
ピエゾ
おのおの
ＥＲＣＰ
難易
ダイアモンド
ＥＤＦ
両極
テール
セイ@@
ヨウ@@
すすめ
もっとも
賞@@
賛
パッ@@
５０６
緑化
びらん
ＨＴＳ
五
岳
頂
霧
掘@@
因
驚@@
大き@@
あら@@
未@@
婚
滑
しゃ@@
相性
直列
手掌
えき
へん平
アセン@@
ブル
協同
ｅ‐
ｂａｓ@@
堤
ＡＴＬ
ファイリング
衣
湿原
Ｂｅ
硬結
バエ
検@@
腫よう
平滑
かご
トロポニン
リーダー
本部
後継
ＧＯ
来院
Ｃ．@@
ａｒｉ@@
亜属
眼圧
充血
帳@@
養豚
偏極
Ｘｅ
１２９
元@@
バイポーラ
オオ
ハイビジョン
静圧
ＵＶＢ
蘇生
ブロ@@
２２０
脇@@
役
返@@
却
局@@
穀@@
フード
シャント
Ｍｅｄ@@
再捕
内海
築@@
躍@@
室@@
消音
所@@
桑@@
レシ@@
加害
２２５
媒@@
染
線状
ＰＧＡ
６０００
グラウ@@
ハライド
ＫＦ
孔@@
ベル
ＩＮ
ラグランジアン
心肺
サンド@@
パイル
まい
編成
樹皮
書き換え
ニュートリノ
大手
来る
ｅｌｌｅｒ
バッテリ
複屈折
ｃａｒｅ
´@@
乱
フォント
絵
ず@@
岬
運行
隻
但@@
犯
全社
本数
ｓｓ
以@@
カウンタ
ゲーション
前年
ｐｅｒ
トピックス
スケ@@
庄
ＮＦ@@
カスト
旋削
外形
貝
ダイヤ
座席
脱@@
穿刺
ラク@@
牧@@
函@@
本線
Ｓｅｒ@@
キセノン
残さ
震@@
央
前面
精液
ジット
丸@@
井
レクチン
ダイナモ
烏@@
龍
溜@@
揺
紛@@
約@@
Ｅｒ
エス
著効
方@@
台車
佐@@
アイソ
補@@
紋
クリアランス
通知
運@@
ｑ@@
漸増
少@@
水槽
ｏｒｄ@@
汚水
許@@
諾
ファクシミリ
ネオ@@
澄
放@@
討論
ノック@@
安静
立位
指@@
先天
ノリ
辞@@
典
ＷＩ
ホルム
助@@
高原
有料
冷@@
識
金@@
気球
天体
珪藻
耐圧
エフェ@@
ドリン
ＮＩ
ＴＣＤＤ
環@@
ｍｅ@@
一元
インダ@@
自宅
昼
陥凹
聴取
ベル@@
突き@@
久
ＫＴ
解@@
綾@@
立て
腐@@
ネリング
Ω
受入れ
限局
マクロライド
母体
小体
ＰＴＣＡ
出水
地動
ぐれ
蓋
磨耗
対合
半値
弓
短@@
公社
ＶＰＥ
累@@
ディング
オリゴ
へん
解読
Ｄｒ@@
ｖｅ@@
リーク
ｏｆｆ
党
双対
刑@@
浜
１４７
任@@
ミュー@@
封@@
性比
磁器
美術
南西
傾き
根系
学術
ＴＣＥ
ｉｎｃ@@
加算
メタ
新生物
パーマロイ
促成
分間
バックアップ
骨端
拒否
解毒
ｖｉｎ
遊離
フラッタ
タイル
稜
カルボキシラーゼ
漢字
ａｎｓ
月@@
旬
養成
Ｔｍ
誤り率
前進
傷@@
ベアリング
ＡＢＯ
乳汁
搾乳
喚起
渡@@
航
海中
献血
ＪＰＥＧ
隅角
養生
ｎｉ@@
ｐｈ
態@@
後天
血友
ックアップ
翼@@
抗力
コンディ@@
換
通路
跨@@
築
モノアミン
国土
リボザイム
傾@@
Ｍａｃｈ
掛け
まき
ｉｅｒ@@
エナ@@
微@@
流下
東南
テン@@
グレイン
ＳＩＭＯＸ
ポリマ
自社
船@@
殆@@
んど
Ｍｂｐｓ
ヒアルロン
示@@
体液
瞳
ｕｌａｒ
Ｅｒ@@
ｙｔｈ@@
ＲＥＭ
インフラストラク@@
チャ
書き@@
ＡＰＳ
昔
私
ｉｔｔｅｒ
巻き@@
ｌｙ
Ａｖ@@
ＳＭＣ
物語
液中
爆
可搬
岩@@
窓@@
クリニカル
２３５
マイナス
作付
コレラ
鋼製
間葉
アル
符@@
空腹
愁訴
カイコ
コージェネ
ッド@@
フォン
ＴＮ
たばこ
曲が
テレ@@
直面
同じく
ッタ
書き
宝@@
重みづけ
ランク
Ｗｉｌ@@
替わ
抗酸
紛争
助長
骨材
インド@@
シナ
半島
貯水
Ｊｏｎｅｓ
１２２
粉塵
カビ
温州
ミカン
ポンピング
アカ@@
ペラ
保@@
ＪＥ@@
林業
センサス
水耕
アス@@
ハク@@
サイ
キャベツ
ダイコン
ワ
アブラ@@
６３０
水冷
ＡＭＬ
ｅｒｒ@@
ｅｌｄ
左房
抜歯
歯科
欝病
カーボネート
堆@@
顕性
ビン
頬@@
可燃
喫@@
Ｇａｕｓ@@
織@@
釘
モン@@
ゴル@@
甲殻
無菌
親魚
耐火
収@@
蔵
ＣＦＲＰ
ポット
揚水
送水
崩れ
ガニ
ｊａｐｏｎｉｃｕｓ
ＩＢＤ
莫@@
ょ@@
鍵@@
蔓延
勘@@
Ｓｔｅ@@
コレステリック
ｋｉｎ@@
半減
リア@@
ノン
スポ@@
グアニジン
全般
脊@@
成虫
製鋼
直前
枝肉
ドーパ
プリル
メト@@
純@@
集塊
ω
主治
紡錘
納豆
アウトソーシング
土質
ｎａ@@
ストロンチウム
トール
１８０
ｍｏｌ
梱@@
奪@@
還
リン酸
論述
吉
クリーゼ
ＤＦＴ
コロニー
水滴
奏効
丁
測光
インフォ@@
マティクス
巡@@
大小
殺@@
リップル
偶然
腎癌
西欧
抑止
起始
敗@@
血症
エリスロポエチン
プライマ
ジン@@
イント
Ｒａｓ
Ｒｈｏ
Ｉｇ
髄内
艶
１１@@
ＲＡＰＤ
厨@@
スピー@@
ふく射
ボトム
潟
刃@@
急増
ね@@
ハワイ
有茎
吊り
困@@
惑
ポジティブ
紫色
花弁
６４０
貞@@
ブドウ
ＴＳＣ
ＳＩＭＳ
教示
高脂
Ｃｈｌａｍｙｄ@@
中部
ウェハ
戦@@
トランジ@@
下層
ペースメーカー
吐出
延ば
志向
甲@@
児童
資@@
堂
トープ
該当
木部
ヒドロキシラーゼ
ｉｂｌｅ
比重
＜
釣合
俊@@
敏
トリプシン
Ｄｅｂｙｅ
ｍｅｄ@@
ＣｏＡ
アデニン
クト
ＡＴＡ
クロロ
ｓｉｔｕ
不死
ヘルペス
Ｅｄ@@
剣
きっかけ
ａｓ‐@@
Ｓａ@@
ｅｅ
止血
潜熱
ＥＤＸ
／ｓ
前額
部痛
ミオグロビン
ｏｓｉｔ@@
魚@@
ＲＥＥ
Ｇｌ@@
ｅｒａ
カテキン
就業
ゴルフ
郵送
酎
コンビ@@
ナント
生地
トラ
ディー
秋@@
操
ヒー@@
Ｐｂ@@
形@@
放流
流水
シリン@@
縦断
財@@
スカ
望@@
縦隔
ダンス
ジック
ワイ
ν
奇
ビオチン
ＤＴＡ
対立
残余
初代
コンバ@@
旭@@
フーリ@@
ェ
瞬
踏
仙
集ま
集成
賢
取り囲
妙@@
湧
ストロ@@
ジカ
相間
格
血@@
ぼ
ＫＳ
けい
ｍｏｌ@@
ｐｏｌ@@
ｅｔｈ@@
ｅｎｅ
摺@@
鉛@@
筆
制振
ダンパ
ブタン
ＬＰＧ
バーサル
等化
トラッピング
ジア@@
ＶＣＭ
ストレージ
求
タケ
核型
ｅｆｆ@@
フォルニア
キノ@@
主眼
もしくは
円盤
耳介
ＩＩＰ
転帰
玉@@
ＣＨＯＰ
コールド
ジョイント
図書
突@@
耐糖
４８０
成育
センス
チェンバ
故@@
十
ＮＯＲ
定法
ＤＧ
擬
泉
闘
ータ@@
リゼーション
Ｋｍ
ＭＰＩ
ＧａＳｂ
ＵＩＤ
か国
硫
無害
肩@@
Ｊａｃｏｂ@@
１１７
カマ@@
発注
背@@
ミクロ@@
ダゾ@@
封止
併発
結露
長尺
リポ
各組
織
典@@
拠
蜂@@
ｌｏｇ
テーパ
ｕｍｅ
岩手
点眼
バネ
っくり
けいれん
れん
ミスト
アニリン
領
ＵＬ
ミニ@@
スクラップ
栗@@
代理
ＳＯＧ
声@@
浮力
筋膜
途@@
絶
淡路
ＶＬＤＬ
プロテイン
懸濁
桜@@
２２２
横ばい
τ
娘
色々
セクタ
アノード
コネ@@
２人
鉱床
１４３
Ｙａｎｇ
（社）
海面
遅発
コンポスト
臭@@
ころ
バルト
こはく
産出
困
調@@
関@@
ムスカリン
等方
演奏
官
Ｈｏｌ@@
ｉｎ‐
Ｓｃｈｗ@@
動詞
句
省略
乗客
理研
ハイテク
ニュートン
裏
換@@
プロフィ@@
ζ
ｆｏｒｍ@@
ｏｒｎ@@
くれ
Ｃｏｘ
スピングラス
Ｂｌｏｃｈ
ＴＥＣ
鋼材
ａｃｃｈａｒｏｍｙｃｅｓ
ｏｍｂ@@
潜時
ＳＨＲＳＰ
声門
ＭＳ@@
目録
分科
前期
暗示
プレー@@
イング
炉内
グラ@@
分域
技@@
イソ@@
プレン
ブタジエン
ＳＤＡ
発射
迎え
Ｃｏｌ@@
ｏｆ
全員
永@@
いし
詳@@
バイオ@@
毛@@
利
業績
近畿
スク@@
果
バッ@@
生薬
節減
インペラ
アンチ
２Ｏ
ｔａ
リゾ@@
所得
壁面
梅@@
雨@@
ＦＲＣ
Ｓｃｈｗａｎｎ
糖度
しょ糖
剖検
ルシフェラーゼ
心配
Ｈａｒ@@
ストレ@@
ＢＬ
オキサ@@
ゾロン
繰り@@
揃え
ＨＳＰ
疎水
涼
直角
面内
本剤
肝性
昏睡
開裂
志@@
潅
Ｔｈｏｍ@@
破@@
アッセイ
情@@
見い@@
徳@@
クチン
ティブ
事後
双晶
符
サビ
天敵
セミナー
基調
穴@@
使い@@
捨て
連絡
オーム
ケイ
署
鼻@@
根部
ａｍｉ
ラドン
ホスホジ
官能
ＴＲＨ
δ
透かし
Ａｄｖ@@
石鹸
ナル@@
尊重
噴門
８１
骸
ｅｒｇ
ＣＯＰ
小さ@@
システイン
冷水
ヘリ@@
スイ@@
もちろん
狂@@
打込
噛
ヨン
転落
メチルプレドニゾロン
ピル
エミ@@
富山
台形
炉@@
肋間
壊@@
改札
通行
裂隙
バソ@@
プレシン
尿崩
ファクト
ブレーク
プラス@@
シンチ
メーター
グリセリン
軽@@
組み換え
凍@@
細粒
ジェクト
ｏｒｍ@@
リティ
入り込
ミン
ＳＥＴ
カイラル
恒
ラビング
途
建て
吹
余暇
１３７
某
１６８
奏効率
右心
ｄｅ
ライニング
Ｍｉｌｌ@@
ライフスタイル
メイド
被
Ｆｉ@@
水位
近医
突発
報
リプル
弱点
繋が
ボン@@
ベ
ＳＯＲ
デューサ
励振
５６０
リサイクリング
距
セグ@@
熱水
苛@@
酷
小管
溶離
齢
アルツハイマー
スパン
政
プラズマジェット
ｕｌｌ
居@@
Ｂｃｌ
取込
プロダクト
シンチグラフィ
ＫＲ
インデ@@
ンテーション
ニド
頚椎
工@@
彫@@
刻
敬@@
若@@
トリノ
長大
ミリ@@
円周
ヘリカル
ベーチェット
２０６
フロン
チョ@@
づ@@
怒@@
挨@@
拶
タール
逐次
往@@
遷
音速
ＶＭ
ＧＰ@@
通年
サプライチェーン
高次
プロバイダ
ＳＰＥ
河床
茂
奨励
ｈａ
低次
薬液
バスタチン
遡及
引力
可積分
ＬＨ@@
組換
インタ@@
失神
ＬＴＰ
草地
絞り
アストロ
とおり
ペイン
ベリ@@
ＵＴ
ＱＴ
５３２
太
ウラ@@
ニル
Ｔｏ@@
ＯＫ
のこ
ラウ@@
延伸
コムギ
沈下
１２１
逆比例
皆@@
ＪＥＭ
長寿
込め
フェリチン
Ｍｓ
ＤＣＡ
μｇ
分画
寒@@
余分
断端
ビニール
歯数
筒@@
視察
ＩＧ
焼結
Ｎａｖ@@
ａｌｉｔｙ
車種
ソル@@
針@@
灸
管径
ｌｉｐ@@
場@@
交え
図法
鹸@@
外挿
ＨＰＴ
パイ@@
洋@@
缶@@
詰
取出
擦
増倍
Ｂｏｒｒ@@
東芝
航海
析
引@@
最悪
メチル@@
メタク
リレート
セメントレス
裂@@
ｑｕｅ
ルーメン
人手
ＣＭＳ
慣行
ＲＩＥ
入札
珍し
アセチル
郭清
民族
父@@
氏@@
土圧
アルカロイド
廃熱
泳動
１９７５
天気
弘@@
多用
プレックス
ＰＳＩ
請求
ｈｙｐ@@
ｏｐｈｉｌ@@
卸@@
売
モンスーン
吸熱
研@@
摩
内面
ＰＣＬ
棄
励磁
ｙ‐@@
沿面
密閉
ＲＮＡ@@
ゲル@@
ハンス
ピリジン
布設
プロセシング
ＭＵＳ@@
まちづくり
パリティ
休止
ＴＨ
スマ@@
トラル
１９８
ＡＯＴ
苦情
気液
ＬｉＣｌ
（@@
・@@
誌@@
メット
ンプ
ＮＭＤＡ
結び@@
ポーラ
池@@
袋
Ｒａｙ@@
重ね合わせ
益々
リサーチ
ＦＫ
巨@@
騰
スクロース
くりこ
珠@@
洲
能@@
登
ニオン
噛@@
み合
毒物
ＣＪＤ
固相
階級
昇@@
身@@
遇
評@@
拙
たとえば
律速
ゆえ
キサ@@
Ｈｆ@@
ジル
メタデータ
出穂
喉@@
フレキシ@@
ビリティ
ｓｌ@@
非鉄
スチレン
シガ@@
ｅｓｔ@@
マイナー
クラブ
耳石
裂
エビデンス
ラジ@@
エータ
低迷
Ｄａｔａ
デカ
砂質
コホート
液面
賛@@
トウモロコシ
杵
郡
過食
鎖長
ａｎｓ@@
エピ@@
スナ@@
多相
ｙｄ@@
手が@@
都心
捺染
群間
クロ
胎@@
マイト
零@@
ｆｌｏｗ
山間
コルチ
コステロン
復
ビニリデン
アデ@@
靴
均衡
注腸
後面
ＱＤ
ピア
栽@@
剛@@
震
色光
ｙｒ@@
十@@
嵐
ホロジー
Ｒｕ
侵食
がり
態度
±
賦@@
与
てんかん
造@@
ＦＩＲ
振れ
車@@
封
デシ@@
シェー@@
申請
式@@
当り
ＳＣＮ
文脈
俗
肉厚
強直
リアー
フローサイト
表式
モジュラ
ッシュ@@
芽腫
コラ@@
プロピオン
脳底
半身
挙上
詰@@
企@@
カル
発想
調律
円板
ＴＰＮ
櫛@@
機転
消炎
含@@
課程
ダイヤ@@
ドライ@@
ロジカル
濁@@
臭化
非@@
６７０
破れ
輸液
云@@
μｓ
ＳＩＲＳ
クリート
滴
リハ
越@@
薄肉
ょ
Ｗｉ@@
徐放
販
かび
高調
ブラート
フル@@
ポリゴン
分娩
化膿
架空
スライディング
複視
黄斑
サイトカイン
ＮＧＦ
らせん
総和
弁別
払い
代@@
ホールドアップ
玄@@
卑@@
弥@@
単軸
削
エンドミル
‐Ｏ
メニ@@
水辺
ハンドリング
流束
ＩＭＰ
ッケード
ＲＦＰ
エチル
アルキル
Ｍｉｃｈａ@@
連関
埋立
→
コンピューター
配水
伊豆
諸島
鼠径
標定
東海道
予@@
冷暖房
養護
ポリスチレン
敏@@
農
ＴｉＣ
ＤＨＥＡ
胆@@
摘
スプレ@@
１８５
着生
凄@@
プロテ@@
粛
テクノ@@
Ｓｅｌ@@
転流
ＳＵ
福@@
腰@@
し好
沖
水深
ＡｒＦ
建@@
Ｐｉ
コンタ@@
パウダー
顕熱
肢@@
側鎖
パッキング
クロストーク
シュート
ダー@@
バウ@@
疹
アー@@
ｕｌｅ
現用
骨粗しょう
読み出し
ＦＬＣ
ガラ@@
１４１
乗車
ｓｃｈｅｒ@@
旺@@
盛
砂@@
上り
ＨＦＣ
テック
清酒
陳@@
腐
蛍@@
飾
ｋｂ
日齢
査@@
満@@
ＰＡＭ
危ぐ
植え込み
聞@@
こえ
隠
負性
幼稚
撚@@
偽
ほう素
Ｓｃ
アクチン
快@@
伊
ビル@@
ＲＮ
念@@
表在
角質
またが
ｅｔｒ@@
ｏｚ@@
巻き
抜
給湯
一人
サイジング
性腺
ＭＸ
漂@@
対馬
海流
ネマ@@
ａｃｅｔ@@
程@@
塊茎
管壁
献@@
洞@@
肺野
木造
クロマ@@
処
シロアリ
食害
ｎｏｖ@@
即
チンパンジー
発話
アセトアルデヒド
いつ
波@@
キソ
当事
Ｗｅｉｂ@@
瀬
踏@@
ゼン
揺れ
マグネタイト
イダル
通話
尖
稲作
銃@@
９７
ｃｍ２
軽症
シリカゲル
メトトレ@@
キサート
内在
見出し
ＶＯ@@
緊密
級@@
友
下限
Ｎｘ
しゃ
ｉｅｄ
両親
ブロー
被@@
服
隣
デキサメタゾン
内殻
Ｓｍ
Ｙｂ
過小
見つか
マンマシン
住居
ｄｏ@@
ｕｂｌｅ
ｃｏ
多元
リド
ＰＷＲ
煮@@
暦
尽@@
荒@@
アバ@@
埋@@
竹@@
免震
送受信
ッシング
ゼ
ｍｏｄ@@
Ｋａｌ@@
ｃａｐ@@
ｏｎｇ@@
上清
隠れ
下顎骨
ＮＳＥ
トモグラフィー
ＲＦＬＰ
触
調味
分解法
カイ@@
２８０
肯定
実車
腎@@
摘除
いかなる
エル@@
胴
破面
隙
燈
ＭＥＮ
腔@@
ｌａｓ@@
サリチル
ピラ@@
ミド
濃@@
薄片
ＹＢＣＯ
産学
験
線@@
審
挫@@
多値
彩度
価数
坑井
呂
不稔
尿路
葉緑
ａｍｉｎｅ
ｔｅｉｎ
単色
返し
僚
榛@@
男
椎
層別
享@@
衰
油剤
腸骨
らし
机@@
潜@@
射影
咲
ＴＦ@@
弱め
結実
演じ
喜@@
ケージ
油膜
忙
偶発
ハイブリ
ダイゼーション
綴@@
多摩
圧入
果皮
癒@@
ｇａｎ@@
Ｅｍ@@
ゲイン
酸度
尖@@
エコ@@
本機
例題
糖質
単層
ダングリング
ボンド
片@@
主力
最長
排卵
川@@
アニー
導@@
那@@
珂
婦
構@@
マッチ
くり
製鉄
音圧
ラー@@
ＸＬＰＥ
製薬
ード@@
跳
ＮＰ@@
ターゲ@@
ッティング
コンベヤ
普通
ｒｍｓ
ｉｎａ
下血
フィブラート
泣
ＩＴＡ
ルビ@@
漏@@
えい
振る舞い
祝@@
造林
モーダル
摂
播
‰
頻
ＡＨ
ｙｓｐ@@
全部
閃@@
絡
ｐ‐
評定
地絡
着床
読影
ｌｉｎ@@
使え
ヤード
Ｍｏｔｔ
インデックス
割り@@
振
ルミ@@
ＳＣＬ
勇@@
祖先
定型
ＡＤＰ
Ｈ２Ｏ
遷延
３７０
本態
ＮｉＯ
／Ｃｕ
桜
３５０
階調
ｆｔ
Ｉｒ
鼠
底層
オルガネラ
参画
金沢
筑波
覇
ＯＧ
供試
カテプシン
機内
おう吐
フィブリン
電磁界
ｔｓ
アトロピン
アライ@@
Ｔｓ
母材
母乳
グルカン
波高
トシン
△
豊@@
ネット@@
蒸@@
胎生
録@@
親@@
ＨＤＴＶ
切替
踏切
宅
乾性
ＰＺＴ
２１１
虹彩
携わ
レチ@@
応急
グロブリン
ヒツジ
ＳＲＣ
鏡像
総数
あらかじめ
レボ@@
サート
馬@@
蹄
ｉｃｉｌｌ@@
ハーモニ@@
ペス
ビー
メトリ
群発
ａｕｅｒ
ショニング
水層
揚力
ＢＳＴ
度数
ＤＯＳ
ブラシ
Ｍａｎ@@
ｆａｃｔ@@
ｎｔ
バリオン
スーパ
ｏｎｇ
底@@
貸@@
借
インターロイキン
ポアソン
水面
質点
マルチ@@
ミックス
混@@
プラ
秤@@
ソン
記念
ウェーブ
キシレン
ＤＤＭ
Ｇｂｉｔ@@
株@@
ａ／@@
ビウム
リモデリング
ＧＧ
ディップ
クランプ
執
バイト
フネス
包含
概日
ユビキタス
各群
臭気
おい
暖
飛
質@@
用法
充足
Ｐｙ@@
溶鉄
骨芽
ｓｔｅｒ@@
スペーサー
Ｈｅｌｉｃ@@
ｌｏｎｇ@@
ｅｍａｎｎ
フーリエ
腸管
カルバマゼピン
フェニトイン
袖@@
Ｏｅ
コーパス
伊@@
アスパラ@@
レタス
Ｐｒｏ
執@@
Ｂｒｕｇ@@
ａｄａ
ＣＹ
ＴＰＡ
有理
富士通
トレー@@
一期
デュアル
ＲＩＡ
ジス
ケーシング
鎖状
凸@@
凹@@
ｅｎｔｒ@@
ｒｉｎｇ
茨城
県内
ａｎａ
サザン
ピュ@@
徴@@
兵
大形
面@@
チロキシン
認@@
容
給電
散逸
ブラシ@@
蚕
ローブ
ージング
邪
裸@@
テ
暑熱
接
ピロ@@
青@@
プラズモン
ポラリ@@
アザ@@
汚濁
ナル
電車
ハーブ
ａｃｋ
ｏｌｄ@@
インフラストラクチャー
仙骨
アミ@@
トリプ@@
遊@@
ユニタリー
アルカ@@
掃
マグネ@@
インドール
菌類
ッ
Ｎｅｗ@@
ｏｎ‐
問い合わせ
７０@@
地震動
１２８
テトラフルオロエチレン
Ｌｐ
渇
ａｂｉｌｉｔｙ
葉状
シタ@@
療@@
蒐@@
サマ@@
磁極
蚊
ウマ
ＺｎＳ
ＣＬ@@
きっ抗
寛@@
クロロ@@
更
マイクロマ@@
後続
Ｃｄ@@
ＸＥ
めまい
砂糖
イッ@@
ウロ@@
スプリ@@
アス
槽@@
未然
習@@
花芽
ｓｐｅｃ@@
ゾル
Ｂａｒｒｅｔ@@
ＬＤＰＥ
すきま
ＥＧＦ
客@@
改修
梅雨
マル
幹@@
途中
Ｓｕｐｅｒ@@
リグニン
漬@@
匹
Ｗｉｓｔａｒ
一群
撞着
仰
まっ@@
夫々
ＭＨ
ｅｊ@@
食用
基ず
使@@
脈@@
ＥＧＦＲ
ｄｔ
ＣＯＯＨ
ＭｎＯ
飼@@
グルコ
アイ
体性
ダイズ
アズ@@
退縮
斬@@
俣
ブラン@@
ガード
終
い手
直結
ｍｅＶ
遅@@
メチシリン
計@@
知れ
漆
ニー
起立
巣状
単価
ぴ@@
快
側頭
後頭
アタ@@
十字
概述
バキュ@@
巨
尊@@
厳
レド@@
ティカル
＃
ｌｉｎｅ
勘
カオリナイト
観血
ｉｄｇ@@
突入
公差
＆@@
露地
庄@@
データ@@
２０４
盲検
ＣＡＰＤ
ＢＷＲ
ｏｃａｒ@@
シー@@
アルミ@@
グルココルチコイド
丸
エネ@@
フタ
４０００
メサンギウム
パラメーター
レノール
ａｎｇｅ
ｉｍａ
骨組織
ｇｏｒ@@
クレアチン
ヘリコ@@
搭@@
ルビン
ＣＭ@@
骨腫
ＢａＴｉＯ３
早く
性差
除湿
被膜
切れ@@
隅
フロー@@
痕跡
多形
磁壁
ＬＡＳ
ｕｄｅ
単球
示差
描
荷@@
従属
帰@@
ジュール
写
漢
注
部会
佐
僧帽
アルベド
ＲＯＳ
〈
〉
職場
重み付け
カルボニル
ーフ
角@@
テックス
ＡＥＳ
ｗｅｌｌ
右室
ＰＬＺＴ
流体力
イソプロピル
中山間
鱗
やさし
Ｋｅｒ@@
Ｒ．
Ｑｕ@@
ＢＫ
ルーフ
院
ＬｉＮｂＯ３
Ｅｉｎｓｔｅｉｎ
問@@
合せ
鋸
骨組
創部
抄紙
スパ@@
アクセプタ
シウム
ｏｋ@@
カプラ
ランス
おう
ＳＰＦ
藻@@
滴定
アプ@@
アスピリン
江@@
ｓｉｔ@@
ビスフェノール
立ち上げ
ナフ@@
イメー@@
−）
マイトマイシン
ＮａＯＨ
ショウ@@
ガ
歴@@
般
水酸
モノマ
数理
ペーシング
８９
空胞
湾曲
検尿
ニコチン
職@@
Ｐａｒｋｉｎｓｏｎ
週@@
優性
カロ@@
射
ムシ
蝶
ＨＭＭ
ホスト
課@@
税@@
ｏｓｃ@@
Ｎｂ@@
手背
アレーン
非晶質
ホ
仁@@
潅流
アンギ@@
脳@@
ｏｎｉａ
ａｒｉｓ
マグマ
液量
植物体
ゥ
幻@@
派
レジン
混和
嘗@@
表せ
麦
ｉｔｈ@@
ｕｎ
ペレット
レスポ@@
インタラクション
型枠
‐２０００
衡@@
サッ@@
ｉｕｓ
リソ@@
飛跡
重畳
細長
パーキンソン
浅@@
絡@@
畑@@
蓄電池
交配
バグ
ナック
ブタノール
ベンジル
鋼@@
類縁
紙@@
幣
浦@@
メタロ
プロテイナーゼ
中皮
ゾル@@
モンテカル@@
Ｓｖ
アスファルト
門@@
与@@
ＯＣＴ
４３２
ｉｃｈｉａ
ａｌｂ@@
ｉｃｏｌａ
Ｒａ
靭性
抗癌
支柱
恩@@
恵
沸@@
揺@@
プレーナ
タンデム
オートクレーブ
サラ@@
オートメーション
１９７４
打撃
ペン@@
ギン
吊@@
曹
ナノテクノロジー
ｏｌｔｚ@@
ＰＤＴ
集塵
アデノシン
Σ
４２０
クローズ
ＡＣｈ@@
Ｑｏ@@
祖@@
ブト@@
加湿
オス
沈み込
パレット
ＰｂＯ
雌雄
われわれ
リケ@@
左肺
１日
ＭＰＳ
榎
緩解
Ｔｅ@@
，０００
ｋｍ２
ヒノキ
ニー@@
ョ
詳述
苦
ナン@@
レジ@@
ゲルマニウム
雷撃
担持
定形
当院
婦人
床版
ソバ
窯@@
いき値
ドリ@@
非晶
リボ
ヌクレオ@@
成り@@
ドウ
ｉｍｅｒ
ＳｉＯ
ピルビン
ムターゼ
高張
しゃへい
２１０
Ｒｅ
ピッチング
み出
綱@@
残差
ジベレリン
塊@@
インテリ@@
軽鎖
咽喉
ＳＣＦ
プロスタグランジン
落@@
コンプライアンス
樽@@
キャビ@@
プレーヤ
尽
沼@@
焦@@
ＩＤＤＭ
Ｐｃ
襲
事@@
湯@@
肥効
本症
ノーマ
カテゴリ
ブチル
スフェ@@
Ｆｒｅ@@
山口
宇@@
迷
ィ
スカー
スキ@@
談@@
患肢
３１６
亜科
ＤＣ@@
Ｎｅｔ@@
ソーダ
京
アミノ@@
答
り合い
ｖｏｌ@@
トロンボ@@
イエ@@
ＫＹ
かい
標
島根
全周
最善
家@@
禽
カモ@@
建
フレア
トリウム
帽@@
晶析
複@@
々@@
彫
クロマチン
桑
直
尋@@
誠@@
ＭＰＤ
却@@
リエン@@
ストリーミング
ｔｒｏｌ
早熟
ＬＰＥ
芯@@
畳@@
破骨
Ｈｃ@@
さら
意向
ＭＥＳＦＥＴ
ラグ
ｆｉｅｌｄ
オレ@@
ダイナ@@
発破
ベーリング
シロ@@
ドプシン
ドレ@@
頂@@
青年
タワー
適度
他者
ヒューリ@@
濫@@
独創
アライメント
メイ@@
グリア
ＭＣＰ
カスプ
Ｒｏｂ@@
サイク
ヘリ
裁@@
はん痕
マニ@@
チフス
隆@@
日照
ｓｅｌ@@
虚
宜
所在
おも@@
期@@
消退
起炎
聖@@
間伐
耕
芝
両国
ａｌｌ@@
ｏｇｒａ@@
妖@@
精
ｄｌ
麗
参@@
Ｂｓ
ＷＦ
擁@@
護
≒
ワルファリン
ｒｉｓ@@
ｆａｃｔｏｒ
廃材
ＩＯＬ
Ｐｕｒ@@
諌@@
ＭＡＰＫ
まち@@
まち
ｋｌ
胃管
飯@@
減退
ご@@
格@@
自
界@@
窄
掌@@
モル@@
イス
弾
密@@
Ａｌｆｖｅｎ
蛋
ヤギ
存
ホワイト
ＫＥＫ
ダンピング
ｅｒｂ@@
ｈｙ@@
アクチュ@@
伸び率
計器
終期
線材
ファントム
１７０
１３１
自明
ｏｌｅ
豆@@
ゲニ@@
ステイン
かく乱
開頭
クリッピング
兄
Ｓｔａｇｅ
ＡＲＢ
標@@
汎化
リポ@@
ビュ@@
バイン@@
大橋
覚
ｏｓ
習熟
″
カバ@@
レッジ
糊
イソ
投棄
尺骨
ガー@@
サポニン
ＰＰＡＲ
一価
ｈｙｄｒｏ@@
ｌｏｒ@@
Ｆ２
ｒｐｍ
グラフィ@@
散見
浮揚
プット
メトリック
順応
御@@
周年
マスタ
鋳
片側
サイレージ
至@@
吸音
索@@
分断
受注
退@@
膨潤
積@@
四角
スズ
電磁気
ＣＰ@@
人的
動員
イワ@@
ｏ‐@@
洗@@
ファー@@
ウェア
メンバシップ
空乏
ａｃ
ｒｉｏ
午前
臥@@
社内
ｊｏ@@
ｒｅｎ
バリウム
遜@@
収め
滴下
放熱
寺@@
寅@@
彦
減容
杭@@
エレベータ
補完
Ｐｒ
サン
ぺ@@
排尿
遺残
ｔｉｍ@@
自給
ジャイロ
詰まり
術野
ａｅ@@
銚@@
ＨＯ
概算
ＫｒＦ
スワール
装入
インピ@@
ジメント
ニア@@
プロゲステロン
カルボキシ@@
アドホック
妃
晩@@
差し@@
シミュレーテッド
チロ@@
シナーゼ
てん@@
コルヒチン
密集
ベンゾ
薯
量@@
カセット
肝外
トコ@@
カス
クラック
協@@
ケト@@
庸
登熟
ｏｒｕｍ
定植
転座
募@@
１９８２
トレ@@
天候
チョッパ
組み合せ
堪@@
恵@@
肥@@
沃@@
卵子
授@@
ＤＮ
スメ@@
１４００
熟成
枕@@
１１４
織布
拾@@
水塊
アンジオテンシン
替
奉@@
仕
績
ポ
ＣＨＦ
日米
体質
見合
ＨＡＺ
ｃｙｔ@@
卵管
拍動
げ
上行
随伴
被災
スペクトロメータ
テトラ
ｏｐ
島@@
泳@@
３０４
カナ@@
求核
雑@@
穀
プラスミノーゲン
重鎖
カテ@@
ちつ
被写
構音
札
余り
黄だん
美
豆腐
漸@@
午後
統@@
括
−@@
サバ
体型
屠殺
膨@@
脹
招@@
歯列
ＣＩＰ
楕
ヒドロゲル
調波
イミダゾール
ＴＴＦ
発色
ＴＧＦ
柔@@
インシュ@@
リノーマ
Ｋａｒ@@
後流
ぜ@@
たく
パウ@@
進@@
鰭
劇
ＨｅＬａ
オペレーティング
月別
トリ
前野
警@@
鐘
言@@
気づ
ｅｃｋｅｌ
枠@@
偶@@
採血
承@@
ーマ
シュリーレン
夫@@
耐候
ベンゾジアゼピン
減弱
遮光
皮弁
ｏ‐
トリアル
黄
カテコール
患部
レドックス
二十
簡略
レオ@@
ペニ@@
ポラ@@
就労
ｎｅｕｍ@@
ｃａｒ@@
腹側
‐Ｂ@@
ｃｌ
リグ@@
託
ムンプス
インベン@@
対人
フェニル
守@@
匿@@
クローナル
化成
立坑
不在
ＴＯＳ
テラ@@
ＣＳＦ
症@@
高能率
順化
酔@@
髄鞘
耳下
弾塑性
セレ@@
ＮＥＳ
ｅｒａｔ@@
悩
橋@@
渡し
桃@@
千
ＣＨＯ
Ｌａｇｒａｎｇｅ
はり
Ｍａｎａｇ@@
交番
ムラサ@@
警察
ａｃｅａｅ
ｃｅｌｌ@@
おこな
還流
カルコ@@
貸
多体
ナール
有線
ミン@@
プロトプラスト
系@@
『
』
性@@
ボロン
キュー@@
古く
ヨ
ハナ@@
ＩＧＦ
癒
溶鋼
配糖
シダーゼ
責@@
混乱
軟弱
空冷
開け
ベリン
紡
均@@
呼び@@
湿疹
喪
Ｉｎｔｅｌｌ@@
ＤＥＣ
云
臥
ｏｒｈ@@
捉
クオリティ
ーナ
ＩＩａ
直上
乱視
ジラ@@
緩慢
祥
不振
貨@@
膨満
フェン
腸内
院@@
父
新梢
加硫
ズド
ＴＥＱ
１９２
整@@
個@@
座屈
Ａｕｇ@@
フッ化
％@@
兼
上市
紐
フラボン
イム
カスパーゼ
拭@@
徐冷
７８０
くさび
ボス
フライ@@
樹高
ＭＫ
オキ@@
シンボル
幕@@
歳@@
濃淡
鍛@@
錬
たわみ
カタラーゼ
ｐ／@@
先駆
蘇@@
我
サル@@
ｙｚ@@
Ｊａｐ@@
ａｂｒ@@
予知
Ｅｃ
険@@
原案
かさ
返り
先立
索引
尤度
マツ
ＧＶ@@
イソメラーゼ
ジェン
ゲッタ
共変
蛾
恒温
頓
極値
会陰
モールド
力価
ＳＰＥ@@
離断
ＨＵ@@
ＰＢＭＣ
プレキャスト
ロータリ
来@@
軸流
粒@@
血尿
工期
シンチレータ
囲@@
クトミー
エラスチン
Ｔｈ２
ｄｘ
帰
１９６８
ｕｃｌｅ@@
ＥＲＤ
グリング
面上
散水
染@@
歪曲
１２@@
閉じこ@@
埼@@
代り
勉@@
リノ@@
グラファイト
テキ@@
ッグ
げっ
寡@@
ＡＳＴ@@
読取り
ｍｔＤＮＡ
喜
コルチ@@
包埋
ホスファチジル
ドーズ
韻@@
枯死
糸状
オラン@@
Ｒｉ@@
ｎｍｏｌ
トランスフェリン
岐
セミ@@
ケラチン
まえ
１２４
ＲＴＡ
遮@@
鋭@@
正則
偏心
多軸
ウェル
ＥＤＴＡ
チニン
ｏｕｔ
砂防
インパ@@
ソール
耐@@
鉱業
ｎｅｌ
頻拍
ＩＮＳ
強迫
教員
考
増生
水生
ては@@
しえ
チーズ
感冒
グリシン
面体
ＣＲＬ
パノ@@
歯根
菌根
すり
銘@@
敵
掲@@
供与
１４０００
ＢＵ@@
波及
ＰＡＰ
ＰＶＰ
縮合
フェナ@@
坐@@
叔@@
撤@@
揚
マッハ
レイ
消臭
ウール
ふく@@
街路
フローティング
鳴
病歴
アニオン
コナ@@
シミュ@@
悔
雌性
脈
イミド
終局
絶滅
停留
ウォーター
穏@@
ＧｅＶ
Ｒｈｉｚ@@
ＡＯ
オニン
ｐｒｅ@@
シクロ@@
ヘキ@@
アジ@@
ラマン
オッ@@
ハイマー
風化
異形
歯槽
入熱
ダン@@
ヌ
エージング
Ｌｏｒｅｎｔ@@
呑@@
左腎
検量
潅がい
ウィルス
＜@@
０００
レイノルズ
他覚
シクロスポリン
いに
帰属
主徴
フルオロ@@
スプレイ
ポル@@
ＣＮＶ
対側
奥@@
チラコイド
アスコルビン
ＫＣｌ
段@@
漕
合わ@@
桂
塗工
ＰＳＫ
東西
追肥
除草
ノン@@
セロ@@
ヨ@@
定格
ラボ
風量
ヒスチジン
２４０
ジャパン
奇数
中型
伝承
検
右上
Ｐｈｅ
閣@@
ヌクレアーゼ
スル
ＨＫ
横行
浸炭
虹@@
彩色
徹
キシル
ノイ@@
栄@@
繊@@
難燃
トレイン
倦怠
ＷＢ
採算
トレー
層厚
段差
円環
ＩＰｖ
葉身
び漫
徐波
ニューロ
正診
含浸
およ
ＭＩＳ
ホート
ｉｇｉｔａｌ
ぬ@@
散漫
隙間
挿@@
１２３
われ
セリウム
ピバ@@
連日
直し
タキ@@
順次
ｒＲＮＡ
岩盤
編@@
ｏｓａ
ｉｎｏｓａ
かい@@
カプト
トリクロロエチレン
訴@@
斯@@
パイ
等式
ＬＭＩ
ビス@@
ホスホ@@
ネート
ＭＭＡ
水量
｛
｝
砕
オリン
県@@
タイト
海塩
錐体
偏り
爆薬
荷役
ｋｏｖ
らか
ｋｅｒ
卵母
装
紫@@
星@@
Ｐｒｏｌｏｇ
迷@@
クモ
以
塊状
狩@@
餅
かん@@
育@@
アブラムシ
和則
キソ@@
ファジー
８５０
ＳＤＨ
Ｈｏ
棄@@
きず
全光
智@@
高次元
戟
Ｇｏｌｄ@@
もち
焦
沖@@
マラ@@
チオン
テロメラーゼ
ゾーム
ゼイン
ＥＩＳ
真珠
病性
線分
動@@
奏
１５３
≦
ものづくり
藍@@
沈
増減
倉
Ｓｂ@@
レプト@@
ＡＬＬ
ＳＣＥ
シスト
歪@@
増設
クレチン
拓
キャピラリー
食後
２３８
ＴＲＵ
ＵＨＦ
緩やか
ｎｏｎ‐
―
ＪＥＮＤＬ
ストリー
テロメア
惑@@
ＳＹ@@
ホモジ@@
併存
堤防
栃@@
ポール
くりこみ
魚肉
リオ
筆@@
うけ
捺
ＨＭ
パターニング
漏斗
冷た
清
誇
岩質
スキン
急@@
伸
生起
スク
Ａｌｆ@@
聖
ベート
ピレン
レギュレーション
ｅｎｅｒ
Ｗａ@@
ａｗ@@
クエン
隔
食性
熱中
納@@
ｏｖ‐
ラフト
ｓｉｏｎ
ｏｇｒａｐｈｙ
自走
ＮＡＤ@@
刺入
デキストラン
果汁
コルチコイド
ｋｉｎｇ
Ｗｉｇ@@
‐Ｂ
ｙｐｅ
マニプレータ
或@@
業@@
類@@
ＡＣＬ
甚@@
胸腔
なり
泌@@
４６０
へい
メルト
フラク@@
備@@
変法
飛び@@
揺動
水熱
湿
ベーン
アジュバント
ダクション
光路
くも膜
スロ@@
翼列
コモン
舵
国内外
探傷
動翼
砂岩
公団
プラン@@
きゅう
揚@@
足場
抜管
捨
アオ@@
Ｌａｐｌ@@
ランタン
団@@
菌@@
ＭＰＥＧ
フロップ
曳@@
朝鮮
ＬＥＣ
ＮＳＡＩＤｓ
モモ
ＡＢＡ
ＨＡＰ
１１００
架
堀@@
バイナ@@
ＺｒＯ
弁膜
プラズマ@@
凝
１５５
１９５
ッセ@@
果@@
インジェクション
メダカ
ｕｌｕｓ
ノニル
胸壁
シクロヘキサン
措
ゾウムシ
ｓｉ
溝@@
ＣｕＰｃ
穿@@
譜
マト@@
ＤＨ@@
アンス
渋
火星
怠
ｋｃａｌ
散発
載せ
プロセ@@
スチャ
痛@@
究@@
樹冠
Ｗｉｓｔ@@
‐Ｋ@@
Ｓｙｎ@@
ｄｒｏｍ@@
機上
アセ@@
浴び
轟
偏平
リアク@@
受入
ガル@@
ｒａｓ
亜@@
抱@@
強め
ｙｌｏ@@
アミロイドーシス
取込み
コナゾール
担癌
極め
正中
免@@
不定
テスト@@
メディエータ
ｉｌｄ
域内
ＤＨＡ
水理
ｗｎ
ＳＣＡ
ＭＭＩＣ
胆石
外層
ドル@@
ｉｆｏｌ@@
ｐａｔ@@
ｓｅｒ@@
ＰＢＬ
奪
掃@@
避
スポー@@
値@@
打上げ
ドミ@@
ｏｔａｌ
ラミネート
臼
完結
キャリヤ
旅
眉
根粒
全圧
把
こみ
測地
Ｐｔ／
ＩＳＡ
すぐれ
１，０００
ぱ@@
ジェネレータ
ＦＵ
葉柄
汁@@
肥
エレ@@
ベーター
配偶
動画像
域@@
Ｖｓ
ＡＵ
処@@
あい@@
昧
プランニング
ＸＡＦＳ
栽植
ｐｒｏｔｅｉｎ
ｍｏｔ@@
中旬
下旬
ぼう
ショ糖
造設
給@@
過誤
カッ@@
雨水
褐変
底泥
ザーバ
マニピュ@@
流線
コンプレックス
続@@
Ｒｕｔｈｅｒｆｏｒｄ
ｃｉｎ@@
履@@
鋸歯
電析
反すう
コーナー
アウト@@
停電
臨@@
モヤモヤ
播@@
崩@@
不可@@
エラスト@@
仁
エン
誘引
シバ
Ｐｈ
動画
幼若
ビッグ
Ａ．@@
悲@@
ヒドロ
ザン
Ｔｅｃｈ@@
１０１１
同法
心地
ＮＡＡ
実生
萌芽
包接
ゅう
総務
落ち
裡
通院
石綿
ａｕｄ@@
誘
ＤＣＭ
カイン
ＬＵＴ
連系
塗@@
発掘
デイ@@
圧排
セルラ
辿
異性
兆
ポリアニリン
ヒルギ
定ま
プロポフォール
下行@@
委@@
Ｏ３
ＬＳ@@
周術
阪神
晶@@
切離
頻脈
プラスミン
ナチュラル
構文
ＦＩ@@
ＦＧ
だれ
ＧＴＰ
総計
燃@@
巴
‐Ｚ@@
仮性
深在
放物
瀕
ずり
綴
φ@@
ナン
奈@@
フィック
照査
いくら
本社
止水
Ｃｏｍｐｔｏｎ
ＦＸ
口側
ハーフ
樽
筋腫
ラーゼ
廉@@
防ぎ
チラ@@
腐朽
インキュベーション
Ｆａｂｒｙ‐
Ｐｅｒｏｔ
頚@@
アゴニスト
当量
バリン
エリ@@
傘@@
トランス@@
育児
麺
Ｈａｒｔｒｅｅ
かな@@
券@@
絶食
丹@@
Ｔｙｒ
ナギ
季@@
肋
ＧＷ
ブレード
後縁
ヘパ@@
デスモ@@
小数
隔@@
耐力
兼@@
Ｈｂ@@
Ｔａｋ@@
管制
Ａｎａｌ@@
ニトログリセリン
ＩＣＧ
ａｐｐ@@
熟@@
貯@@
ダイバータ
平等
μ
けれど
材@@
魚種
伏在
圧接
Ｇｌｙ
Ａｌａ
Ｖａｌ
Ｇｌｕ
Ｌｙｓ
走化
みかけ
豪@@
ペナルティ
ＡＮＰ
２０５
Ｃｕ‐
遊泳
ｅ‐@@
花こう
平準
叱@@
責
マイズ
シーリング
賃
植え
縁@@
霞
１７５
２９０
Ｃｍ
通勤
繊毛
小核
哲@@
／ｈ
疾@@
ｉｅｎｓｉｓ
しょ@@
ｅｍａ
左葉
冷風
届
リゾチーム
市街
セシウム
エディ@@
区画
亘
ｕｔｅｒ
明治
導き出
パーキン@@
ソニ@@
秤
刈
パーティクル
図れ
ｔａ@@
アルデヒド
脱皮
芝@@
乾
ＭＰＡ
好熱
防音
強膜
満
ＰＤＥ
サブセット
右腎
高年
何れ
シロキサン
包絡
ベタ@@
メタゾン
キャスト
カルボキシ
黙
カフェ@@
テリア
乱@@
療
著@@
ーリング
Ｐｅｎ@@
アスベスト
ｙｍｐｈ@@
ｍａｃ@@
締め
メラ
マメ
上旬
冒@@
険
鰻@@
行路
ヌクレ@@
チド
浸入
おこ
ポリアクリル
アミドゲル
伸@@
潰@@
塞@@
キシン
アランス
著
牛舎
ｏｓｔ
肉用
ｏｐｕｓ
ＳＺ
製紙
外反
倒
ペルオキシソーム
焼入
焼戻
ＫＭ
１０５０
ＩＣＣ
ｉｃｏｌ@@
トイ@@
序
メソ
窟
挑
フイル@@
ポリオレフィン
虚脱
掘
おそらく
里@@
粗しょう
平野
虚数
漁
長軸
折@@
シームレス
畝@@
デー
灯@@
闘@@
ｅｔｅｒ
ＡＣｈ
６６０
ｏｍｏｎ@@
職務
タリー
サプライ@@
プロト@@
カドヘリン
端面
アスペルギルス
圧密
押@@
捕食
産卵
交尾
求@@
添
らせ
シェーグレン
Ｃｈｌａｍ@@
逆転写
縦波
テイル
Ｒｉｃｃａｔｉ
Ｍａ
ガラクト
諸量
Ｇｉｎ@@
ケール
ラミニン
乗員
鞭@@
かみ@@
１０１９
シリサイド
ヘビ
火花
断続
伽@@
羅
ヘキサ@@
デカン
筋原
概
リジン
１１２
スルー@@
低域
防汚
ファセット
急変
陶
キャプ@@
滞留
ずっと
ＩＵ／
ａｃｃ@@
刈@@
メア
おう@@
ｊａｐｏｎ@@
モチ@@
羊@@
柏
己
浜@@
架構
ずみ
ラメラ
酷@@
早生
ＩＴＣ
径間
メラ@@
草原
ＦｅＯ
ｔｈｅ
サツ@@
センチュウ
恐@@
竜
Ｇｒｏｕｐ
逃
ソマト@@
きか
ーラ
償@@
点状
六@@
ウィン@@
慶@@
湘@@
スピロ@@
Ｌ．@@
揮
藍
函
開通
Ｄｅｂ@@
ソーシング
可及
避雷
ＦＷＨＭ
ぢ
碍子
くぼみ
建造
ＣＭＡ
カール
ァ@@
乗り
アキ@@
恐らく
Ｅ‐
和歌@@
Ｆｏｃｋ
鴬@@
Ｈｉｇｈ
ｕｓｈｉｎｇ
郵@@
１７００
挙@@
ｋＰａ
曜
耐水
彼@@
ホー@@
受講
含水
練@@
志
縄@@
ジエチル
裸
脱塩
Ｏｐｔ@@
彩@@
オリゴマ
外れ
ピリ@@
採食
血縁
ポジット
エピタ@@
耕@@
うん
ＰＳＩＩ
黙@@
ＰＶＤＦ
オートマトン
ＴＣＲ
レンダリング
訳@@
シクロホスファミド
ダリング
シャフト
支点
リドカイン
傾角
ＶＬＢＩ
防衛
リアクター
峠
枯草
門部
手足
１４８
迂@@
ｆｅｒｅｎｃｅ
ｏｒｕｓ
ＭＡＳ
鷹
壌@@
枚数
デヒドロゲナーゼ
シアル
Ｈｏｐ@@
Ｖａｌ@@
Ｍ．@@
リシス
モグラフィ
スキーマ
講習
オリティ
マツ@@
薦
肝門部
率@@
メンバ
筋電
脳室
セラミド
ジャイロ@@
撮
セフ@@
トランスフェ@@
カタ@@
群馬
渓@@
アレ@@
寧@@
ｉｆｆ
多点
ノース
ファミ@@
窯
シスチン
イミン
チジン
ポリフェノール
リアクタ
捨@@
明示
５１２
ｅｒｖ@@
Ｈｏｄｇ@@
ぽ
ヒドロキシル
ｒｅｃｅｐｔｏｒ
写@@
日内
停@@
業種
チス
ミルク
倍数
凧
挙
入室
水洗
頻@@
旧@@
ｇｒａｄｅ
システ@@
タウン
２１２
ーゲン
琉球
片持
依
がけ
スプリット
加@@
タウ
３３０
内挿
テトラサイクリン
ヘ
ブレーン
製膜
ビリルビン
Ｍ．
渠
加温
ＨＢＴ
ａｎｓｐ@@
操@@
Ｇｒａｖｅｓ
クロモ@@
バングラ@@
候
蒼@@
律@@
壁厚
陥@@
巻@@
シノ@@
病像
磁心
フォールト
鮎
寿@@
顎@@
奥
直感
労@@
きめ@@
甑@@
ＩＵ
バラ@@
多収
放飼
鯨
トリア@@
焼入れ
ゲ
配
ｍ／@@
ダイバーシチ
水源
許
老朽
結さつ
ノーゲン
ＨＭＧ
エキシ@@
癌腫
アルカン
均
レプリ@@
鼻汁
鼻閉
優占
胸水
上気道
沃
ｙｒ
漫@@
然
下地層
Ｒａｍ@@
硬@@
１５@@
咽@@
庭@@
延@@
条@@
帽
為@@
り返
オリーブ
Ａｒｇ
１５２
乾物
ルテ@@
較べ
頭数
純化
裾@@
最少
タル@@
装用
取水
幼@@
微動
ユビ
議@@
ロース
ＡＩＩ
ボート
塩性
シグ@@
ナリング
Ｇｄ@@
ＺＳＭ
ｃｈｉｎ@@
よう@@
猛@@
烈
助剤
カルシトニン
トランスポ@@
籾@@
鳩@@
フレーバ
ＴＰＯ
ワサビ
イムノアッセイ
ＣＷＭ
海氷
争@@
プロラクチン
カゼイン
痢
ビリ@@
死後
ａｐｌ@@
垢
ローム
英@@
ジーン
カルチノ
うつ
髄
やく
ａｒｉａ
デッキ
ノー
メディエーター
テクノ
託@@
カロチノイド
ヌス
蓋@@
果肉
カーテン
塚
３２５
ｏｉｄ@@
振@@
挽@@
輪作
坑@@
ケーソン
マニピュレータ
ーゼル
郷
宏
郷@@
融
定置
枠内
ＶＤＴ
コンドロ@@
涙液
猟
増体
アガ@@
上手
造粒
イワシ
レッ@@
オキシン
ＰＳＤ
ＤＳＭ
トランスジェ@@
拳
フェロ@@
霧@@
オンチップ
自励
縄
ストークス
エアー
炊@@
乱数
壁内
尿症
ジル@@
架設
互@@
グリタゾン
ν@@
クティブ
塵@@
ｂｓ
ューム
アンドロゲン
ゲナーゼ
ナフタ@@
ゴン
ジオ@@
異化
抱合
バイア@@
肺疾患
変わり
ボルタンメトリー
ＫＢｒ
ビッカース
経産
セクター
ミック
ｎｅｓ
刀
コルチコステロイド
Ｓｍａｄ
心嚢
趨
トコフェロール
頻回
ラクトン
供用
ケト
（Ｔ
ＶＯ
〔
〕
アポ
剥@@
協
Ｆａｒ@@
アジド
切換え
胎
ビブリオ
茎@@
有向
笑@@
遥か
グルコサミン
ｔｅｇｒ@@
臼歯
振子
維
報@@
麺@@
依@@
存@@
ＢｒｄＵ
シアン
トクローム
ｔｈｅｒ@@
外転
ユビキ@@
弱視
円孔
項@@
両眼
崖@@
ｐｈｅｎ
児島
拓@@
ＬＡＤ
ネガ@@
ソル
Ｆａｒａｄ@@
冊
ネギ
Ｌａｎｇｍｕｉｒ@@
ｌｏｄｇｅｔｔ
スプライ@@
ｓ‐@@
ＰＬＤ
靭帯
銭
ＦＡＤ
アワビ
けい骨
トロイダル
寝@@
ｊ
ミナル
韓
ナミ@@
酪酸
ＴＯＣ
インタラク@@
レリン
消散
憲@@
光熱
光量
水試料
１５８
１６００
薬効
エチ@@
エストラジオール
ベイ@@
□
燥
クロル@@
記@@
覆工
債@@
ａｎｕｓ
フィル
堅
震度
原形
糊@@
口部
ぜ
去@@
ヘリックス
畳
残胃
１０１４
前歯
ポーラ@@
アセトニトリル
ローズ
緑膿
静置
セミ
チニブ
衛
促@@
ハイパー
蹄@@
ブラジ@@
ャ@@
１４４
インゴット
牢
ゼパム
初産
保菌
珪酸
なん
握@@
予
収入
せ持
失@@
伐
吐
蒸
はっ水
盲@@
Ｓｍａ@@
プリ
ブタ@@
肩甲
眼振
ＫＥ
種内
楠@@
臓
南海
病害
ウレ@@
サイトメガロウイルス
庇@@
ａｔｅｒ
サイクリック
ＨＭ@@
支承
クルマエビ
グルカ@@
培@@
兎
ＣＯＸ
ＢＡＬ
ビオ@@
ヒド@@
ネズ@@
頻尿
ビン@@
文部
ナート
怪@@
痔核
着物
競
コガ@@
アカ
保水
打
バリ
ＳｉＧｅ
スパイ@@
ない
アセトアミノフェン
２Ｏ３
数百
余裕
択@@
ドッ@@
オリゴマー
底質
水管
英
ＩＣＡＭ
掻@@
吹込
常在
ＦＩＢ
フラッシオーバ
如@@
なる
インジ@@
ＩＳＴ
Φ
アシル
骨肉腫
ストラク@@
Ｆａｓ
ッチング
溶射
ンネル
バニ@@
斉@@
ＨＳＶ
Ｄｉｆ@@
怠@@
５２０
デル@@
滞@@
生食
穏やか
中膜
ＳＰｒｉｎｇ
フィー@@
カテニン
枯
汚損
月齢
へん@@
ａｒｕｍ
次亜
ｙｌｏｒｉ
シノーゲン
肺内
週齢
ＮＥＤ@@
モルフ
ＰＤＦ
縮約
羊水
ｍａｔ@@
大戦
オクタン
周縁
ストリーク
連れ
とめ
対角
グアニ@@
ＣｌＯ
ホログラフィック
ｋｈ@@
延髄
既
スケー@@
ラビリティ
顕
樹枝
荻@@
ベイ
埋没
国連
メチルアミン
躯体
渦糸
トキソ@@
Ｄａ
ｓｐ
トポイソメラーゼ
ダイアグラム
反力
ｈａｕｓ@@
ぜん@@
棲
外面
隠@@
仰@@
衆@@
農林
バクテ@@
ポータ@@
租@@
俵
スタイン
ＭｎＯ３
磯@@
スワ@@
玩@@
フェリ
トランザクション
貫@@
カスタ@@
アンジ@@
超@@
搬入
阻血
粒球
Ｍｅ
ニトロ@@
ヒドロゲナーゼ
卸
ＤＭＡ
ニトリル
戴
ＴｉＯ３
伐@@
１４２
ガラクトース
シクロ
アルドステロン
ｐｓｅｕｄ@@
ｍｅｌ@@
オレイン
附
之@@
樟
固液
プレッ@@
ブラ
ワラ
直播
すい液
射@@
レンス
復興
速@@
ＩＧＦＢＰ
罪@@
誇@@
当然
エンジ@@
層流
アクリ@@
願@@
ＢＡＬＦ
ＰＳＧ
Ｄｓｇ
摘@@
ガンマ@@
多価
≧
プロパノール
作図
泳
オオムギ
変色
Ｏｓ@@
八
和物
イオ@@
れ目
アラビ@@
Ｂｏｇ@@
ｅｎｓｅ
オペレー@@
こり
ピオ@@
クタ@@
庁@@
内陸
最多
ラント
中葉
しらべ
受給
尺
ｎｅｕｍｏｎ@@
≪
林@@
柔
フルオレセイン
瞬@@
麹@@
ピバカイン
描@@
オーステナイト
イオノ@@
歯髄
ＰＡＩ
解け
翼型
ｏｘ
愉@@
リアーゼ
キトサン
Ｐｔ／@@
棒状
噴
廊
アトラクタ
アカマツ
ＬＣＰ
せつ
惨
シスプラチン
シアノ
ベン
リミット
牧場
銘
ブン
堺
燐酸
好発
盆地
転院
遺跡
鉱化
グロー@@
Ｈｒ@@
μｍｏｌ
せ@@
統
【
】
サンチン
プロプラノロール
拘わ
酪
緊@@
玩
Ｔｙｐｅ
可換
緩徐
テストステロン
ＹＩＧ
ＭＪＤ
テンション
ベラ
嶋
維@@
払@@
インタラ@@
ＢＵＮ
竪
ステン@@
シル
メンブレン
袋@@
サイトカイニン
トラジェ@@
クトリー
梯@@
塗り
坑
手根
胃体
埠@@
アントラ@@
けつ
キノン
アクチ@@
ＰＢ
オキシ
ウリジン
ブロモ
黒毛
和種
Ｅｕ@@
オレキシン
，９０
受託
繰@@
動径
団地
メチ@@
マッ@@
コウ
１８７
アネ@@
ラクト@@
ほ
３８０
Ｔｒｅ@@
１３９
スタット
圧下
ジョン
歯面
ｕｒｉ@@
梢@@
カメ@@
トウ@@
抵
アロイ
もとより
枢@@
聾@@
唖
空燃
柑@@
橘
初乳
確度
彩
ナビ
ａｃｅ@@
エナメル
光起
イラー
落差
浮体
しく@@
同系
ＴＮ@@
スルホニル
育て
１８３
ｈｍ
錘
Ｃｒｏ@@
１４５
遺
際@@
上腹部
ｃａｌ
原研
Ｏｙ
ボリック
シンドローム
イントラ@@
キク
Ｐ３００
オピオ@@
１３００
オキシゲナーゼ
鎌@@
ｕ‐@@
低地
フタ@@
ょう
ｓｋ@@
騒@@
リオ@@
コシ
徳島
娩@@
拡がり
水頭
受電
内生
雛
ギガ@@
趨@@
凶@@
ｅｖｉｓ@@
はずれ
戒
銑
ＣａＣｌ
素質
肺門
滞
ＨＨＶ
ＩＥ
Ｈｉｓ
ｍｍ２
ａｎ‐
直筋
心材
混練
ムス
模式
トロンビン
淘汰
∞
クロマト
製油
鉢@@
クリン
イミュニティ
イー@@
ジアミン
小胞
ガイ
玄武
泥岩
単斜
ｋｙ
スフェア
Ｊｏｓ@@
宛
トーラス
たわ@@
幌
ふる
フィー
ハミル@@
骨片
プタ
視差
開き
コンベ@@
神
見積もり
ポジション
下血腫
ＰＧＥ
延び
トロニクス
ホスホ
低位
シャッタ
ほう@@
キシド
５，０００
寄主
鏡視
孔食
エトキシ
か年
シャル@@
完
３４０
入れ@@
ｋＷｈ
ステロール
萎
脱力
グルー@@
トンネリング
ＭＵＣ
ＥＤＳ
キノロン
ρ@@
ω@@
Ｅｓｃｈｅｒｉｃｈｉａ
ｃｏｌｉ
桟@@
掃引
術@@
九
閣
姑@@
土耕
賄@@
販@@
キニン
ＭＡＬＤＩ
ＳＩＤＳ
ソーラ
漸次
アフィン
ＣＰＡ
ｃｉｓ
ｔｒａｎｓ
アルケ@@
エーター
斑状
ラウンド
下葉
アザミウマ
削@@
賦存
むだ
煉瓦
ＲＰＡ
板上
ＴＣＮＱ
名詞
釣
打撲
擦@@
稼@@
Ａｒａｂｉｄｏｐｓｉｓ
小角
用地
曽
ニフェ@@
混ぜ
妻
飲水
ファ
ゾ
Ｐｓ@@
鏡@@
継代
実数
プラズ@@
ホジキン
並@@
卵胞
ｍ２
ヌード
狩
ぜい
重ね@@
ＮＡｃ
ナー@@
ＰＥＣ
リラ@@
クタンス
刷
忘@@
ガー
トランスポート
マグ@@
ブラウ@@
ゲン@@
謎
盤@@
ＩＡＡ
あけ
螺@@
ふく
在@@
ルス
シイタケ
アスパラギン
フィラ@@
ｉｎｉａ
桂@@
病名
いか@@
か焼
引き出し
棒@@
励
予見
ジアゼパム
プロダクション
プログラ@@
丈@@
始@@
ゆる
Ｐ．@@
患@@
営農
サーファクタント
限流
主桁
ラーメン
ｃｅｒ@@
ウォール
墨@@
３，@@
繊
婦@@
伺@@
経鼻
振る@@
もり
ヒストン
上葉
横紋
ホロー
づつ
インフォームド
警
プラセボ
フェンタニル
共形
ＨＴＬＶ
Ｈｉｇ@@
カルボ@@
プラチン
ヒンジ
１１６
オステオ@@
生菌
永続
詰め
等級
確診
じょ@@
ジャー@@
炊
煮
尚
Ｇａ０
キビ
２７５
ＭＰＯ
祈@@
崇@@
拝
徳
Ｇｉｂ@@
砥粒
．ｃ@@
テオ@@
Ｈｉｌｂｅｒｔ
顎骨
益@@
沫
体腔
５，@@
度@@
アベイラビリティ
ｒａｔ@@
鬼@@
譲@@
伝ぱ
タノール
ケート
匿
蔽
急減
ｙ‐
ゃ
ブテン
ａｍｍ@@
ニカル
正準
植え@@
３９０
テオグリカン
盛土
砕石
ｅｂｅｃｋ
テク
抜け
腺@@
ラスト
頚髄
ツキ
玄
耐病
受療
ルコ@@
ｄＢ@@
おお@@
支保
Ｒｈｏｄ@@
ＩＩＩａ
エンベ@@
プロトロンビン
止@@
重層
炭そ
クレー@@
奨@@
Ｌｉｆ@@
硬直
後根
ボラ
サーベイ
遭@@
偶
帰せ
＝@@
ＨＳＤ
徒手
征@@
煤@@
嚢@@
ＬＯＨ
ｆｏｒｍａｔｉｏｎ
正接
紀
きい
晩
援用
スプリッタ
りん@@
ぱ
シロ
チョウ
リハ@@
掴
釧@@
凝血
分れ
Ｔ）
８，@@
補填
先立ち
グリセロール
係留
リブ@@
姫@@
診査
湧水
カレーション
ｅｌ‐
ｉｓｓ
貯
２０７
溶脱
的@@
甘@@
量比
ガイド@@
堰
角柱
激減
ステリ@@
締固め
ｔｈａｌｉａｎａ
介@@
ムギ
シミュレー@@
ルド@@
プレ
勧@@
イム@@
薩
駆出
冷温水
阪
ＳＴＡＴ
モンモリロナイト
遊走
濁
虻@@
麓
速効
脱水素
剤形
シナ@@
境@@
痕@@
靭
加療
看
ドキシン
遮
捜
アセタ@@
ラミド
フロ
ライゼーション
ｅｎｓｉｔｙ
ＧＵＳ
親油
キャリ@@
オクト@@
クーラント
ハイブリ@@
設
１７３
尿管
騨
Ｓｎ‐
キサン
エント
ｗｔ
耳道
妹
フィリ@@
虞
侵@@
潤
粗粒
微粒
ドプラ
凌@@
船型
奄@@
架@@
ゴケ
８０００
ベクロ@@
ｉ‐@@
蟻@@
錫
アルケン
審@@
グローブ
リピ@@
龍@@
タクロリムス
罫@@
ＦＡＢ
スレッド
カルモジュリン
ｓ‐
けん@@
ャ
艇
スカベン@@
脊髄液
ヘキシル
クロリド
５３０
ール@@
００@@
拡
集学
２４８
フェニルアラニン
泥
頁@@
ぅ
有明
ｅｒｉ
シド
坐
白斑
灘
フュー@@
逸@@
おこ@@
リマ
靴@@
諭
読み
加振
ースト
ヒメ
ソマトスタチン
腎性
ビルド
Ｂｅｔｈ@@
瀬@@
伸び@@
ｉｌｂｅｒｔ
蝦
フト@@
仮設
弓@@
クロマトグラム
倍加
机
象
壮@@
衝
舌下
メキシ@@
レチン
路@@
遡
Ｃｐ
梗@@
淡
びれ
トリフルオロ
這
獲
ゆう@@
イミ@@
：@@
ＯＲＦ
蛍
ルシフェ@@
合剤
白亜
ミズ@@
詞
栄
捜@@
茨@@
ーレン
変速
飴
於
‐Ｎｉ
輩
ＮａＩ
鏡検
盤胞
足指
ＳｎＯ２
免
プログラマ@@
自乗
わせ
緑藻
脱炭
ばり
電顕
Ｇｂｉｔ／ｓ
グルコ@@
ｆｒｅｅ
コス@@
片麻
碁@@
果樹
アドレナリン
Ｐｏｉｓ@@
チャンバー
胞@@
ポロ
将@@
グレン
面外
堀
批@@
准
ヒドラジン
功
雑
γ‐
１０２０
両性
麹
前縁
阻
ハダニ
ジオン
ナフタレン
ＳＡＡ
皿
躍
枯れ
ポア
チアミン
線毛
適期
ダル
幾分
駐@@
き裂
１０１５
ｆ‐
こう門
エナンチオ
菱
甘
屈筋
斜視
チミジン
フラン
眺@@
郎@@
ホロ
欄
尻
廻
寄
中分化
統制
１５４
痴@@
錬@@
ベシクル
ＬＸ
ウント
底生
坂
ＷＲ
ビス
漏水
リシン
ホウ@@
耕起
トリエチル
曾@@
ｓｅｃ
ボラン@@
左上
森@@
杉@@
ジカルボン
Ｉｇ@@
インキュベート
駕
ラクタム
ぞ@@
床面
２０２
ｃｉｓ@@
伐採
ビデ@@
類別
七@@
グリセ@@
カテゴ@@
玖@@
留め
ブロッカー
福
休
疎@@
ＰＭＡ
セプト
って
救済
年令
ンジ
仕上
被検
フロキサシン
ジタル
滋賀
衡
浸@@
伏@@
セレクチン
ＥＨ
嶺@@
訣
領@@
Ｎｏ．
．ｐ@@
着果
フェン@@
厳@@
心膜
パンジー
峠@@
ェ@@
Ｌａｇ@@
隅@@
ｖｅｎ
ＭＥＳ@@
グリコ
ヒドロキシ@@
カルバ@@
翌
圃
ミト@@
しゅよう
ＬＥＥＤ
智
剃@@
停
Ｚｒ@@
害@@
マーケ@@
梯
プシン
デング
近づけ
援
ＶＣＳＥＬ
車上
勤@@
ナイト
セプタ
ｐａ
属@@
アディポネクチン
古紙
エミッタンス
ーミング
トレーサ@@
房@@
陽@@
菜@@
アシ@@
廻@@
フォトクロミック
エンド@@
虫体
ａｌ‐
退
重積
耳@@
セメン@@
なぎ
併
ｐａ@@
チニ@@
ペロ@@
キン@@
港@@
吊
らえ
ボロ@@
授乳
卓越
スクロ@@
歯形
ｔｒａｎｓ@@
危@@
プロゲ@@
効能
挿
メニエール
索状
萩@@
逐@@
スループ
ｅｓｃｅｎｓ
伯@@
ａｋｅ
プロフェン
働きかけ
継
保温
ゼリー
巨核
鍛
支障
オステ@@
奉
ケラ@@
チノ
填
，０
絢
輝線
ＮｂＯ３
窪@@
９５０
患
ＵＦＴ
開環
ｌｏｄ@@
パラ
据付
れき
降着
化@@
附@@
フィラー
重質
ブナ
タス
ジルコ@@
グルーブ
オク@@
捺@@
圏@@
ピリジ@@
マリン
ネシア
Γ
￣@@
２，@@
７７３
スピノ@@
察@@
発根
秀@@
ネラ
ｃｄ
アテローム
鞘腫
内転移
位@@
ユ
インフラ@@
切れ刃
ピリミジン
グルタ@@
体癌
＄
蘇
ランタノイド
ヘキサン
跡地
吻
女@@
禁
グリコシド
王
ｅｐｈａｌ@@
エキソ
サイト@@
土中
Ｐａｓｅ
拒@@
プロスタグラン@@
セイン
Ｃｚ@@
ｒａｌ@@
リガ@@
吠@@
陳旧
アト@@
ＺＰ
スペクト@@
獅@@
ボー@@
パイン
抽@@
エポ@@
フォトリ@@
Ａｓｐ
簡@@
不同
モジュ@@
前葉
査
預@@
戻@@
ーツ
シマ@@
タゾン
敗
ドール
距@@
頚管
馴@@
朴
スル@@
細動脈
菓子
エール
ポリオール
｜
得@@
レプ@@
蛭
安息
香酸
ルトン
甜@@
ｋｉｔ
著増
Ｆｅ‐
ナビ@@
側索
ｏｂａｃｉｌｌｕｓ
問い@@
芥
アルコキシ
なら@@
前房
クラ
カメムシ
新属
共沈
柳@@
雫@@
抵@@
刃先
摺
蝶@@
ルミネ@@
媒
ミキサ
セス
Ｔｒｐ
多環
シャペロン
特記
せん定
ａｒｉｕｍ
マクロ@@
ジベ@@
暴
ホスフィン
親媒
ゲニン
鞍@@
担@@
凌
卿
席@@
ジュー@@
迎@@
耐風
ピエ@@
マイモ
ξ
ｍｔ
慎
ｒｏｐｈ@@
活躍
ホルスタイン
ヒラ@@
映@@
ｅｎｃｙ
ツメガエル
はず
キト@@
２０８
サミン
抹@@
眠@@
跨
ε@@
アフィニティー
キル@@
参
他院
テライト
フルオロ
ハロ@@
ッケル
蹴@@
桐@@
アフィニ@@
プレッサ
ヒドロ@@
シアニ@@
タク@@
叱
アルコキシド
カイニン
ひ腫
縮尺
ｌｉｎｇ
繋
耶@@
彦@@
トレッドミル
トピ@@
腐植
ミリング
撚
ａｐｏｎ@@
梅
芳@@
蝋@@
苗@@
ファイト
ドロップ
プリミ@@
稔@@
束@@
Ｔ．@@
阪@@
霊@@
葛
周回
掩@@
１０１７
稚魚
窮@@
戚
較差
アセト@@
はじ@@
暗所
引抜き
宝
フィル@@
妄想
ふっ素
２，０００
こう@@
ハウ@@
鐘@@
淵
バース
クチ@@
ロータ@@
浅層
じゅう
戯
ダラ
岸@@
ベント
Ｓａｌ@@
菱@@
少年
舟@@
準@@
宛@@
箔@@
ｈｅｉｍｅｒ
晩期
有孔
殻@@
スチル
ＨＲＴＥＭ
ｕｂｂ@@
瑞@@
フェナン@@
トレン
此@@
路盤
タマ@@
歌@@
伎
踊
胞体
くり@@
ルシ@@
ペロブスカイト
卒
ｋｂａｒ
グルオン
欲
ゝ
潅水
モス
錨
油層
ｔａｎ
前置
ビリン
込@@
ｒａｃ
クロン
オテン@@
高収
引抜
ＰＤＧＦ
てん
眼筋
ＣＸ@@
スケット
ボルタン@@
アメリ@@
レシチン
繭
ｍｙｃ
帯磁
君@@
こぶ
硫@@
想起
短か
ケータ
Λ@@
眼内
Ｂｒｄ@@
リウマ@@
とど@@
不動態
ｂａｒ
ベクロニウム
椋@@
梨
ヒューリスティック
エンドウ
縫
ＩＳＰ
Δ@@
辺@@
セプター
フルクトース
海盆
致命
水腎
コム
干
ｇｐ
ムレス
ジエン
デブリ
ｓｉｎ
盗
乏
バリアント
アクチ
墜@@
汐@@
蝕
フライホイール
竪@@
件@@
窒@@
貰
寮
晶質
午
渦度
欝血
ＧＡＢ@@
オキシム
忙@@
メサ
エオ@@
ＬＩ
オオ@@
カロチン
露
霜@@
フォス@@
ｉｃｒｏ@@
景
裕@@
ｃａｔ@@
キセ@@
伴な
卵黄
デキサ@@
樺
杉
髪@@
エト@@
菊@@
脂
ジストロ@@
Ｂ２
たえ
罰@@
アクリロニトリル
樺@@
アミロース
湖@@
Ｌｅｕ
岩体
尿毒
２Ｏ@@
閑
続発
塾
うつ@@
マダイ
耳鼻
灼@@
聾
乾草
ｕｓｈ@@
済@@
否@@
スルホ@@
サーモ
貝類
摂餌
フェノ@@
；@@
動注
勿@@
旬@@
インターベンション
ＰＥＯ
水泳
ゴルジ
運航
旗@@
舗@@
撒@@
紫
フラップ
１０１８
ひび@@
リュ@@
シイ@@
シャー
オートマ@@
養液
２，
シアニン
錐
暇
ラセミ
グルコシダーゼ
たが
受粉
閥
オホーツク
溜
グレーション
拙@@
欝滞
基剤
蓄@@
涙@@
顎下
男@@
爵
曾
揖@@
斐@@
カイト
貝@@
蔵@@
務@@
テッド
枇@@
杷@@
マーゼ
績@@
トー
狂
椀
笹@@
Ｎ．
ぺ
ッセンス
厚板
仔魚
棋
すき@@
ハイドロ@@
採卵
１６７
屈@@
ｅｃｔｉｖｅ
杜@@
ｙａｍ@@
苑
フロック
デカ@@
兼用
奏功
分級
長手
ネント
州@@
ドライト
珊@@
瑚
委
ライナック
Ｇ．@@
杯
ケモカイン
ＭＡＨ
Ｊｏｎ@@
レギュ@@
廉
動力学
カプ@@
サイシン
ビメンチン
中脳
原水
陳
善@@
洛@@
ｍａｓｓ
垣
シンポ@@
捻
無気
σ@@
笛@@
タンポ@@
Ｓ．
クトース
Ｌｕ
配座
（財）
フェノン
ゾリン
レージ
氷河
ｍｍｏｌ
フミン
ＡＢＰ
ヘプ@@
キャパシ@@
壷@@
香
タング@@
栓@@
粥@@
糧
顕@@
慰@@
殿@@
ｘＧａ
ｍｓｅｃ
獄@@
抑@@
ＥＥＥ
拠@@
アユ
牟@@
碓@@
塞
ポーラス
２６０
働@@
マルトース
妥@@
ヒメ@@
Ｍａｘ@@
標品
潜
欝@@
胎仔
溶湯
診@@
プラスチ@@
剥
μＭ
プレド@@
鳳
ウエア
板材
ＮＯ３
節間
槌@@
開削
Ｇａｌ
インフォー@@
ｏｒｙｚａｅ
ａｌｌｏ@@
さなぎ
感音
贈
イタ@@
Χ
シアネート
ジオール
汎@@
エチン
アロマターゼ
セファ@@
スポリン
アント@@
折畳
護@@
翼端
シクラーゼ
費や
ｉｇｈ
希@@
シクロデキストリン
アスファ@@
ｇｓ
けい@@
クマリン
胃壁
存続
ディオ
ｐＫａ
腹筋
√
逓
ジスルフィド
主鎖
ＧＳＴ
μｍ２
出量
カンキツ
請
巣@@
ジベンゾ
モロコシ
アディ@@
ステアリン
タント
鷲
℃@@
ろ液
サイクリング
フリン
隊@@
‐６
ペネム
チタ@@
滋@@
鎮@@
廊@@
ヂ@@
コンピュー@@
柿
カスケ@@
笠
シャー@@
グリシ@@
ンバ
１４@@
ｄｍ
奨
屑@@
羽化
プロセッ@@
ｎＭ
ベラ@@
ソミー
土層
渇@@
朋@@
垂
多分
嵩
ミル@@
Ｒｎ
オルガ@@
ども
オクチル
妄
プライン
フルオロウラシル
窪
ケ月
烈@@
カオリン
景@@
セパ@@
階@@
称@@
１７７
之
薩@@
綜@@
洲@@
ツイスト
ァ
惹
←
心因
臨
ドリング
紗@@
ョウ
ハイドレート
ＩＩｂ
Ｋｉ
旗
亡@@
Ａｃ
サルコ@@
吟@@
醸
須
製錬
倶@@
ｏｌｉ@@
プラスト
扇@@
遂@@
疲@@
弊
酔
エンジニ@@
植
から@@
インテ
グリン
ａｔｕｍ
ルギ
中手
クイ
インドメタシン
∝
コンテン@@
デリバ@@
豪
スクラ@@
ノーザン
覇@@
既約
ａｔｍ
痔@@
宍@@
Ａｓｐｅｒｇ@@
ＢＭＤ
ぼう@@
逢@@
Ｔｘ
変異株
トニン
ａｒｋ
燐@@
θ@@
ドキュ@@
もの@@
竿
穂@@
孫@@
スナ
先導
ウェーハ
Ｊａｃ@@
普
還@@
確信
遍@@
旭
エンハン@@
≦@@
ヘマトクリット
トマ@@
字@@
幕
後発
クラミ@@
亜種
碍@@
ＡＭＩ
ピリジル
詳
逆相
剤@@
プロテア
右房
．ｈ@@
アンドロ@@
ステロン
ルギ@@
十勝
唯
二元
ｖｏｌ
拾
３，０００
ＳＯ２
直鎖
展@@
トロン@@
由
プロポ@@
家兎
梗
バルビ@@
ツル
リム
クリ
メチルアンモニウム
Ｆｏｕｒｉ@@
競@@
踊@@
Ａｂ
禄
赴@@
同型
寸@@
がみ
失活
猿
ズン
ＣＸ
ｕｔｈｅｒ@@
瀬戸
ホタテ
貯槽
提@@
佃@@
水物
皇
礼
カンジ@@
識@@
ストライ@@
呉
エトポシド
唄
艦
紡@@
ビニ@@
爺
Ｔｃ@@
鮭
‐Ｄ@@
岐@@
屯@@
ＨＡｐ
ｎｅ
くず
層序
連星
衣@@
ロイコトリエン
暑
ニコ@@
ソルビ@@
ｓｙ@@
トリメチル
湧@@
昇
這@@
牙
ｉｇｉｔ@@
毛状
チル@@
リチン
箸
葉数
覆@@
オブ@@
タキセル
ソルビトール
寂
ＩＦＯ
せん@@
猪
殖
重項
スタミン
強震
墳
＊@@
価@@
炎@@
撃@@
沈澱
建屋
Ｌｅｗ@@
スメク
たとえ
富@@
城@@
駿@@
恋@@
上端
ナム
ＭＤＲ
湛水
パソ@@
デシル
ＢＡＬ@@
凋
ほう酸
ードバック
滑液
レント
アスペ@@
寿
冒
エステ@@
同所
欧@@
パーライト
ＲＮＰ
キシフェン
辛@@
永
ガイ@@
期外
斡@@
イノシトール
ライナ
幸
パチー
漬
ｉｎａｅ
菅
少子
フェニレン
后
怖
ポリクローナル
だん
中隔
腿@@
デヒ@@
腺房
ｐｃ
族@@
忌@@
懐@@
倣
プリング
静水圧
レオ
忠
拍
ｓｔｅｍ
菓
照
逐
グレリン
γ@@
扇
伯
脊
も膜
ＵＦ
頁
コフ
歓@@
幾@@
哨
ダイレ@@
／ａ
スルホ
昭@@
狛@@
江
Ｂｏｌｔｚ@@
プロスタ@@
Ｂｑ
Ｗｅｉｓｓ
コヒー@@
ピペ@@
リジ@@
紐@@
１９９@@
ＬＤＩ
デオキシ@@
フー@@
改築
ＯＯＨ
７６０
粥
狗
他種
ミエ@@
搬@@
邪@@
魔
アンカリング
有毛
駐
見い出
スルファ@@
勉
ジナル
草丈
損@@
ワイブル
９９@@
異時
ＭＩＰ
忍@@
アラビドプシス
ヅ@@
箇
アサ@@
顧@@
ペネ@@
τ@@
躯
工数
舞い
アポリポ
窮
レイン
とも@@
テレフタレート
トーシス
濡@@
蒼
追究
ヴ@@
ォ@@
勃@@
汲@@
琵琶
緯
分生子
テート
遡@@
リドン
タモ@@
蜜@@
瓦
ユリ
Ｖｏｌ．
Ｋ２
仰臥
ローダミン
鯛
Ｆｃ
トライボ@@
舷
僅@@
頼@@
銭@@
納
擁
泌
バント
幣@@
トリス
膿胸
彰@@
ドロン
葺@@
羊膜
多房
キャピラ@@
Υ
環化
ゾウ@@
服@@
舵@@
Ｇｒａｖ@@
デンドライト
維管
仲
秒@@
漠@@
くに
ａｃｃｈａｒ@@
ｕｘ
メート
児@@
スルフィ@@
エスト@@
キシロ@@
那
艇@@
枯@@
エポキシド
犯@@
叩
片眼
ユビ@@
４７３
椿
互
通し
韓@@
１７２
プレゼ@@
りんご
堵
礼@@
れぞれ
胴@@
猶@@
ベンズアルデヒド
曹@@
軒
ｏｍｂ
萎@@
抑
ルゲン
Ψ
購@@
ミノ
怒
，９００
瓜
Ψ@@
ジェ
羅@@
ＩＡＰ
１８４
フェルラ
偵@@
禦
蒙@@
メタクリル
加重
坊
泣@@
Ｄ．
ケタミン
謀
ＯＤＳ
ジフェニル
４９０
ｅｒ‐
滅@@
亡
復位
同族
ｔｅｒｎ
秦@@
元年
酸類
掴@@
旅@@
病害虫
ｄａｙ
ＭＡＯ
ＦｅＳｉ
かれ
日周
股@@
呂@@
溺@@
兎@@
‘@@
インフ@@
ォ
榊@@
霜
乏@@
１０１３
泰
ステン
メトキシ
ｉｌｌｕｓ
稚@@
冠@@
原基
爾
寸
限@@
傘
１０，０００
敵@@
砲@@
剣@@
連鋳
飽@@
障
ずか
詩
窃@@
充てん
主幹
就
トラクション
心原
生子
銑@@
ｉｆｏｒｍ@@
豊
宗
フローラ
喰
畔
グルコシド
≠
フェロセン
‐Ｚｎ
揮@@
アビ@@
ｙｐｔ@@
ヘマト@@
ＮＬ
´
ジアゾ
基肥
シジン
妨
ｏｓｐｈ@@
たば@@
ｗｔ@@
唐@@
辿@@
Ｐｈｙｓ@@
Ｆｒｅｓ@@
アンタゴニスト
蘭
ｋｉｎｓｏｎ
アダ@@
朗@@
ロッパ
ＣＯ３
子育て
鼓
…
孤
ヒステリ@@
分節
上体
ガングリオシド
テナ
籾
長日
汲
忠@@
吸虫
チル
エバ@@
しろ
キノリン
フィニ@@
Ｎ２
授
―@@
ｅｎｉｕｓ
セフェム
テルペン
庫@@
吻@@
番@@
陣@@
＞@@
ｉｄｉｓ
唐
ビター
轍
同誌
柿@@
額@@
グリセリド
ソレ@@
しくは
ニオ@@
詫@@
起り
裾
骨梁
ザイク
Ｏ‐
惹@@
回遊
無傷
澄@@
投
魁
婚@@
猟@@
妊@@
構法
館@@
冨@@
Ａｒｒｈ@@
っと
イドーシス
同じ@@
フルオレ@@
アセタート
叩@@
篠@@
槻
礁@@
同値
子実
アンカ@@
Ｓｃｈｏｔｔ@@
Ｅ．ｃ@@
エレクト
δ@@
レダ
ペロン
諦
微細粒
鴨@@
バイル
ｅｆｆ
滑剤
善
ＡＸ
一段
アルド@@
クターゼ
フェニレン@@
スルフィド
暫@@
経肝
被削
脇
長径
ザード
響@@
披@@
イロ@@
携
孫
摘果
素地
斐
邦@@
由@@
簿@@
アラキ@@
斧
アントラセン
ナト
バイオアッセイ
ｓｐ．
Ｓｃｈｒｏ@@
濃染
傑@@
だい
紘@@
アミナーゼ
ゲート@@
訓
骨幹
切歯
輩@@
堂@@
相溶
Ｅｕｌ@@
碑
ベント@@
閃
次項
印環
ラミン
述語
ｂｕｔ@@
冶
クトン
爽@@
科@@
ＴＤＳ
転炉
叢@@
３，
Ｓ．@@
鍾@@
Ｃｏ‐
っ血
九@@
ヘキシ@@
ｍｔ@@
埋
侭
ツジ
康@@
鶴@@
芳
はる@@
さら@@
Ｈ２
ＣＤＤ
アベイ@@
鉢
鍋
有糸
１２６
芋
膏
サギ
ラジオ@@
ｃｍ３
オフ@@
彰
該
トロピン
堰@@
蛙@@
墓@@
アレン
コレステリ@@
オライト
ネフロ@@
メシル
薪
ｂｐｙ
ブレン
穎
ＲＨＥ@@
篤
マテ@@
エピタキシ@@
悲
アシクロビル
ケモ@@
Γ@@
滝
萌
ニシン
塁
ゃく
かせ
樹幹
娘@@
徒@@
侮
墨
繭@@
刀@@
カッタ
ψ
巾@@
もっ@@
鎌
トラクタ
病徴
栖
ＡｌｘＧａ
コイド
乃
桧@@
等電点
らぎ
トロピー
砦
フェタミン
フラ
ヲ@@
秘
アジュ@@
＾
紗
蔭
メモ@@
μ‐
らん
殿
プレータ
Ｃａｎｄ@@
哀@@
プライアンス
Ｗｈ
殊@@
賑@@
衛@@
スメント
杜
〜@@
纏@@
狼
エネ
綜
シリル
ＰＡＧＥ
ホア
フス
メル
異数
ホス@@
宜@@
竜@@
フェース
左前
Ｓｐ
巾
刑
漆@@
欄@@
壬@@
ｅｖｉｓｉａｅ
撲
右上葉
Ｊｏｓｅｐｈ@@
肺葉
摂@@
モンテ@@
ラチン
ザー@@
メッセ@@
ンテ@@
チューブリン
浩
右心室
犀@@
縛
慢
弦@@
ネクチン
ピラミ@@
ステロ@@
偉@@
詐@@
欺
／ｉｎ
ｋｇ@@
捷
直達
モロ@@
ＹＭ
ａｎｃｋ
ザイム
員@@
庶@@
侯
マロ@@
♯
浪
波力
隷
紋@@
ショウジョ@@
嚇
蛋@@
ブス@@
ＨＡＣ@@
Ｏｓ
すう
ペプチ@@
ｈｃ@@
潔
すい@@
グラン@@
原体
隻@@
オクタ@@
ゃ@@
桟
呉@@
錦
η@@
淫
シアナート
詩@@
凱@@
肋@@
杯@@
光顕
層群
渓
ＵＨＶ
ｖａｒ@@
シンチ@@
Ｓｔｒｅｐｔ@@
＠
霊
赴
軌
唱
累
匠
喉
Ｈ．ｐ@@
ＣＣｌ
葡@@
萄
＠@@
荘@@
クエン@@
かめ
マレイン
無水物
＃@@
苔@@
本属
桝@@
幻
ウリ
ヒスト@@
尚@@
載@@
飽
矯@@
う蝕
ゼル
ダーゼ
クリスト
鯖@@
宙
殊
鈎
屡@@
担子
姻
Ｌｎ
溶体
妄@@
捲@@
鷺
遣@@
電点
葬
ｃｈａｒ@@
Ｆｅｒｍ@@
醍@@
醐
賭@@
膨
壱@@
ＺｒＯ２
猿@@
ムド
キモトリプシン
稿@@
アリン
ろ紙
グルクロ@@
避@@
是
タバ@@
晴
Ｈｏｄ@@
風上
貴@@
ブジン
ブリオ
クロミ@@
コル
繕
曇
カーボ@@
陣
沙@@
汰
チナーゼ
トース
偽性
淋@@
碁
雀
稚
辻@@
Ｒ．@@
宇
ＣＸＣＲ
芦@@
ｈｎ
アレ
廷
痩
ｓｅｕｄ@@
鐙
茂@@
｜@@
揃@@
改
沌
ディフュー@@
μｌ
バナ@@
潔@@
ズラ
凡@@
筏
棋@@
しゅんせつ
⊆
ｅｎｎｅ
ａｃｉｌｌｕｓ
Ａｄ
イナーゼ
シト@@
勇
砂層
棟@@
素酸
ッフ
∝@@
ＴＣＮ@@
ｍＴｃ
たん@@
奮@@
すべ@@
林内
筑@@
焚@@
蛙
ＷＨＭ
スカベンジャー
Ｔｒｉｔ@@
甚
慰
冶@@
斉
トリクロロ@@
頴@@
娃
膳
吊橋
めて
蚕@@
提
しゅん@@
ｃｉｓ‐
κ@@
ミジン
廠
洪@@
猪@@
敢@@
窺
悟
ホル
タクロ@@
礎
淀
朔
＿@@
デキストリン
菅@@
コントラ@@
雇@@
２Ｏ５
橘@@
宰
掬
凶
荒
馴
Ｔａｙ@@
華@@
僑
畝
曳
１９８@@
粧
獄
サイク@@
ミキ@@
謂
及@@
誕
アワ@@
慶
蚊@@
滴@@
蹟
睡
慨@@
遵@@
Ｒｉｃ@@
夢@@
歌
扶@@
ピリジニウム
唾
怨@@
駒@@
ピュータ
カスパ@@
ｄｍ３
儲@@
曙@@
ドローム
ダード
π@@
濯@@
クレア@@
後極
‐Ｃ
煎@@
峡@@
蓑@@
襲@@
督@@
じめ
Σ@@
燕
歯牙
萌@@
ロシアニン
シリケート
イムノ@@
黄化
冗
駁
ラクタ@@
ャル
メルカプト
彊
瞥
倒伏
マンド
謝@@
蝋
ψ@@
閑@@
糾
嘉@@
ホスファチ@@
咳@@
Ｈｐ
めっ@@
柴
胡@@
Ａｌｚ@@
ビリ
ワーク@@
チュウ
乙@@
鍍@@
パートメント
グリコシル
アルコ@@
戒@@
‖
舎@@
謄@@
ノロール
アセチ@@
チレン
騎@@
抽
圧粉
吟
まん
寡
鎮
オマイシン
繕@@
柴@@
胡
牛糞
冨
杖@@
メラーゼ
ｅｘｐ
ポア@@
尼@@
フェニル@@
藷
б
クリス@@
斎@@
緬
ノイル
ゅ@@
墳@@
墓
ｋｇｆ
トリフェニル
ポニン
ＰｂＴｉＯ３
ゼピン
薫@@
ビジュ@@
ドデシル
ＥＤＴ
諦@@
▽
塑@@
牲
モジュリン
錨@@
ι
ＹＢａ
瑠@@
璃
朱
ＵＯ２
変異@@
チウム
鰯
キシー
蟹@@
Π
アミド@@
スルホキシド
杏@@
托@@
クローム
皇@@
インターベン@@
餓
ブリン
癌@@
窄@@
橿@@
子嚢
朽@@
セラミ@@
滝@@
秩@@
ｋＤ
庖@@
誓
いろ@@
マグニ@@
Ｒｅｙｎ@@
囚@@
フィス
慈
塘
喧@@
嘩
≡@@
敦@@
如
ｂａｕｅｒ
ニジマス
アミロイ@@
ａｔ．
藩
しゅ@@
搬
垣@@
囲気
某@@
硝
渉@@
魂
瞳@@
ＲＳＰ
ホルム@@
漢@@
蘭@@
Ｉｎｔｅｒｎ@@
プラセ@@
柄@@
ｎｉｇ@@
艦@@
曜@@
エンタル@@
ズル
峡
翻
椀@@
ツク
俊
リムス
潟@@
畦
滋
鍋@@
そし@@
冥@@
醇
すめ
ワル@@
謙@@
バク@@
丹
ライフ@@
廓@@
蹴
チェック@@
齢@@
リド@@
ドーシス
釘@@
アポリ@@
ハウ
承
Ｇｌｃ@@
迎
はく@@
吠
讃@@
賜
スレー@@
致@@
ｍｍ３
奏@@
兄@@
蒲@@
ニアン
ほと@@
ペナル@@
恥
鯨@@
惨@@
殖@@
妊
キモ@@
也
ノシド
Ｍｏ‐
蛾@@
盾
β@@
シアナ@@
ホスファ@@
櫛
トム
苓
嘗
慌@@
狙@@
ｕｉｎ
把@@
￥
サンドイ@@
袖
朱@@
達@@
坦@@
ジェネ
剖
薮@@
鴨
Ｓｔｏｋ@@
アデノ@@
桧
啄
将
崖
溌
註@@
耶
肪
弟@@
アーキ@@
到@@
⊥
チー
蟹
章@@
昏@@
疾
陵@@
トリエン
坪@@
↑
綾
働き@@
サイリ@@
遷@@
クリル
きわ@@
推
アデニル
柑
康
ジェネレーション
災@@
薮
楊
郡@@
亘@@
モノリ@@
デム
状@@
乍@@
孟
師@@
柚@@
杢@@
ａｖａ
クロマト@@
汗@@
遭
姉@@
富士@@
灘@@
士@@
ある@@
厩@@
厩
暁
新世
抄
怪
アルベ@@
ＵＮＩ@@
ックル
磐
俵@@
パルミ@@
瓦@@
斯
唇@@
メガロ@@
鵜@@
凡
セフェ@@
）@@
梨@@
尤
駄
輸
僧@@
醜
∇
プシス
邸
ホスファミド
緒@@
叶@@
＋@@
疹@@
褐
需@@
烏
矢
スパッ@@
エクセ@@
紺@@
坪
デキ@@
蝦@@
夷
叙@@
札@@
メンバ@@
焔
慈@@
迫@@
醤
ポリアミン
叫@@
≧@@
ＬＡＫ
先駆@@
ストーク
スカス
エビデ@@
トランザ@@
扱@@
起子
庖
撤
鉾@@
虹
サプリ@@
リデン
桝
ジグ@@
盆
Ｄｏｐｐ@@
妻@@
タウ@@
昂@@
メンテ@@
拘@@
＿
Ｃｚｏｃｈ@@
倫
窺@@
柳
ウマ@@
Ｌａｎｇｍｕ@@
硝@@
侶
雛@@
珍@@
檀
渉
弗
フリン@@
嘱
ガドリ@@
∽
檎
撒
μＣ
祷
ＨｂＡ@@
トリル
屍@@
盆@@
泊@@
ｃａｔｉ
トゲン
コンポー@@
アルゴ@@
費@@
崎@@
ガイモ
漉@@
諾@@
茅@@
ナフチル
緊
ッケ@@
詮@@
在胎
エリスロポ@@
懐
ブスカイト
杷
此
精嚢
跡@@
熔@@
憾
叔
晒
呆@@
ヒスチ@@
鯵@@
ｔｈａｌ@@
峻@@
捌@@
袴@@
モンド
ノウ@@
嫁@@
ッシオーバ
孟@@
ｅｔｖ@@
褒@@
哉
醤@@
盾@@
二指腸
Ξ
煽@@
渥@@
インヒ@@
トイン
乃@@
皿@@
菊
岱@@
什@@
≫
桐
セボ@@
鰭@@
慨
ネフリン
填@@
妹@@
臆@@
ダミン
丘@@
僅
∈
茅
∞@@
雁@@
其@@
寂@@
吾@@
稔
マンニ@@
訂
幡@@
カド@@
熊
辞
ュアル
申
斗
海道
桶@@
磐@@
バータ
ゆみ
惰@@
バイダ
ナチュ@@
姓
Ｄｕｃｈ@@
雰@@
苛
Ｂｒａｇ@@
婆
訓@@
ｉｃａｎｓ
Ｈｖ@@
ドイ@@
塑
鋤@@
獲@@
孝@@
飾@@
株）
只@@
晒@@
墜
ゴニ@@
嘱@@
慣
抄@@
トレハ@@
挽
旨@@
宏@@
ケージング
契@@
舗
Ｅｉｎ@@
鮫@@
咲@@
餅@@
ウイン@@
牟
≡
トレス
唖@@
鈴
ロゼット
砥
尭@@
琴@@
槙@@
↓
蝿
モンゴ@@
沓
ヂ
遼@@
剰
パンタ@@
耽@@
溺
或
プライバ@@
逮@@
逢
懲@@
鵡@@
デア
瑛
襟@@
裳
其
コルチコ@@
候@@
漫
暦@@
洛
シーク@@
梢
邦
曝@@
串@@
塀
鞭
鳩
姶@@
グメント
圃@@
堕@@
征
スコピー
畠
嫁
シリカ@@
裕
憎@@
α@@
ａｐｈｙｌ@@
♀
錦@@
Η
碗
撰
栽
プロピ@@
さま@@
鷲@@
衿@@
ｉｅｒｌ@@
句@@
葬@@
憤@@
捧@@
肖@@
駈@@
髭
ｅｐｔｏｒ
湛@@
豹@@
ロイング
ザグ
侮@@
昏
澱
唾@@
荘
緬@@
庵
迅@@
エゾ
スーン
Ａｒａｂ@@
アナフィラ@@
椿@@
襟
恩
崩
策@@
簡
雇
派@@
鞠@@
ζ@@
冗@@
燭
♂@@
ｅｖｉｎ
択
拳@@
オード
ぷ
矛@@
トヨ@@
埴
僻@@
亙
吋
瀕@@
李
雀@@
⇒
Θ@@
稼
恢@@
けれ@@
灼
蒙
うそう
君
猫@@
穿
昌
忍
ラサ@@
Ｓｃｈｒｏｅｄ@@
埼
訟@@
烹
苅@@
纂
禅
翻@@
弄
畏@@
梱
バーシ@@
ロニトリル
拝@@
釧
υ
峰@@
諭@@
茸@@
托
ボツ@@
筈
葱
篭@@
房水
鞘@@
亀
ブロミド
ホジ@@
チュード
⊂
婁
串
∫@@
猛
篭
挑@@
賦
析@@
圭
喫
ヅ
‖@@
杵@@
讃
艶@@
燕@@
蔓
ヲ
湊@@
はく
拒
∫
パミン
宙@@
郊@@
棉@@
搭
棉
ボル
鱒
煉@@
甥
埴@@
般@@
錠@@
鎚
☆
骸@@
恭@@
鮮
召@@
Ｓｔａｐｈｙｌ@@
かく@@
鼎
第@@
Ｂａｓｅｄ@@
痘@@
臓@@
蓮@@
涌@@
鹸
堆
匹@@
靭@@
漉
牡@@
ｐｔｏｎ
魅
盈
斗@@
披
クトル
紳@@
虎@@
栗
Ω@@
嘆
蓑
槌
駄@@
朗
廷@@
繰
茨
ストリン
笑
Ｂｒｉｌｌｏ@@
厄
冴@@
灸@@
くら
弗@@
斧@@
碇
モット
斥
号@@
采
祐@@
ぽ@@
湛
膚
ちら
憶
¨
酬
鮪@@
メージ
ウン
奈
駆
サスペン@@
樫@@
χ@@
稽@@
牽@@
饗
昔@@
陪@@
壮
阻@@
Г
抹
ラグラン@@
ニジ@@
辰@@
叡
糟
÷
ミスマ@@
鐙@@
伍
フェム@@
碧@@
哲
且
恨
Ｃｚｏｃｈｒａｌ@@
竿@@
ｏｒｙｚ@@
ＥＮＤＬ
見積@@
ＩＤｓ
較
鮫
きっ@@
鮭@@
クタント
ベンゾ@@
ａｐｕｎｏｖ
カテー@@
ベンズ@@
醒@@
宕
葡
瞭
珪
帆@@
≫@@
ぢ@@
汀@@
Ε
緯@@
壕
錘@@
餓@@
″@@
瀧
アモルファ@@
、@@
¬
屍
倹
廓
宰@@
虎
プラット@@
∩@@
鷹@@
プラスミ@@
篇
苓@@
ゴット
フラボ@@
討
嘆@@
晃
ハニ@@
フルオ@@
宣
泰@@
顛@@
繁
ジーランド
廿
俸@@
只
殉@@
帝
礎@@
膏@@
浩@@
蕪
循@@
料@@
亭
アディポ@@
Ξ@@
嵯@@
峨@@
ジゴ@@
漠
プロラ@@
Π@@
⇔
湊
寓@@
芭@@
蕉
〈@@
〉@@
キサシン
蛎
巽
克@@
巳
萩
姫
董@@
箕@@
宴@@
ｌｏｒ
♂
∇@@
タテ
些@@
乙
邑@@
ｌｅｉｇｈ
ぃ@@
カット@@
Ｍｏｅｓｓ@@
モリブ@@
謬
ランタ@@
憩@@
敢
ベツ
マゼピン
糾@@
椋
Ｋｏｎｄ@@
祐
ガングリオ@@
ｏｌｄｓ
纏
閥@@
贋
笹
弛
鋪@@
陀@@
尼
ヒー
楯@@
迄@@
ざま
悉@@
フェロール
朽
撮@@
エリテマ@@
ギリス
Å@@
≒@@
輯
き気
鰹@@
弘
聡
ｕｎｏｖ
憧@@
±@@
マイト@@
盃@@
矯
〕@@
箪
惰
ぉ@@
沙
アルブ@@
なわ@@
舷@@
キシング
愚@@
琴
ラジオール
ギウム
オーストラ@@
寛
則@@
摸
紛
鰍@@
窒
預
オキシソーム
壷
祇@@
慌
ビッカ@@
捌
啓@@
寮@@
瓜@@
閲
おそ@@
糠@@
革@@
√@@
奔
トニアン
おの@@
パム
ムン@@
キャリブ@@
ｓｔｅｍ@@
いろ
昌@@
ルコリン
モヤ@@
宥@@
マロイ
瑞
濠
召
輯@@
アメー@@
煩
プン
°@@
悶
庸@@
圭@@
蔓@@
矩@@
ムスカ@@
襖
堤@@
篤@@
ピエント
廿@@
傭@@
｛@@
トリプト@@
メオ@@
謎@@
ｕｒｉｅ
述@@
懸
ライブラ@@
梓
リロ@@
萱@@
午@@
嘉
奔@@
悉
鵠@@
睡@@
往
逝
淵@@
鰯@@
塾@@
峯
ロラ
アドリ@@
啓
〃
怯@@
貿
ニワ@@
ンチオ
プロプラ@@
殴@@
訂@@
シクル
辻
氾@@
≪@@
錫@@
趣
捲
ハイド@@
惜@@
俣@@
酵@@
睦
リパ@@
葺
覗
ι@@
鋲
楼
漸
牙@@
∂
∂@@
悶@@
トーデス
ふさ@@
アロマ@@
《
》
盃
詣
薙
犠@@
謂@@
紺
アスピ@@
献
嘘
アマイシン
恐
陵
マレー@@
砥@@
熔
υ@@
釦
ξ@@
×@@
僧
徽
匂@@
韻
トニウム
蝕@@
鍬@@
杓
答@@
伎@@
＾@@
穎@@
毘@@
蕎@@
←@@
穫
剖@@
倶
榊
プレドニ@@
蝉
呪@@
繍
漂
挺
ダイム
曙
鵬
央@@
ソード
摸@@
粍
醜@@
叡@@
鯉
テレフタ@@
ストロン@@
楯
謬@@
峨
努@@
凄
戊@@
辰
パク
歎@@
佳@@
≠@@
企
ホワイ@@
姑
オーステ@@
屯
魯
溢
隈@@
ぃ
蛭@@
⊥@@
帆
蒲
援@@
＼
ホック
禿
λ@@
砺@@
櫓
懇
陪
桔@@
ょく
∪
ハム@@
昧@@
⊂@@
歓
閉じ@@
鈎@@
縛@@
卯@@
酢@@
漣
ロゾル
坊@@
酉@@
サーファ@@
嫡@@
枢
厘@@
∪@@
П
しば
コンドリア
瓶@@
秀
杓@@
匙
雅@@
牝@@
碕
スメク@@
フィブロ@@
鮪
鞄@@
肯@@
薪@@
藩@@
ゲルマ@@
翁
竣
駿
壕@@
姿@@
アテロ@@
喚
チャル
たと@@
蓬@@
莱
疏@@
億@@
フルオロエチレン
蓉
姻@@
Ｒｉｅｔｖ@@
蛎@@
ο@@
ο
藁@@
ジアゼピン
｀
貢@@
僚@@
訟
グリコー@@
劾
イミュニ@@
祝
玲
恋
モヤ
牽
壌
捗
ヒック
砧@@
嫉@@
妬
噂
吾
侠
擾@@
禅@@
遁
徒
邸@@
芥@@
鋪
控
サイクリン
アフリ@@
おの
阿
且@@
アンチ@@
遣
衷
詞@@
孝
舘
屠
朋
桶
琢@@
Β
鋤
覧@@
棺
ノイン
ｍｏｎｅｌｌａ
〔@@
虐
アラビド@@
暑@@
循
岱
儒@@
濡
叶
｝@@
憶@@
∧
モルファ@@
梼@@
コンパイ@@
デヒド
エマル@@
ヴ
痴
郊
茜
蒔
升
遥
奴@@
穫@@
濠@@
澱@@
岬@@
肯
ジフ@@
Φ@@
琉@@
稗@@
ｇｅｔｔ
鏑@@
禍
アスコル@@
誉@@
貰@@
坦
エトポ@@
→@@
恕@@
監
アカマ@@
簾
匡@@
鍬
クリット
勲@@
鴻
マエビ
ぇ
箕
頗
勲
鬼
廼
貢
禿@@
陀
メンチン
Ａｒａｂｉｄ@@
スウェー@@
蓮
埜
蒜@@
柾@@
必
恕
アンモニ@@
欺@@
塚@@
乞
傑
晋
壇@@
ロイキン
メサン@@
焔@@
叛
忌
ウバエ
鴬
われ@@
娼@@
庵@@
カマク
バセ@@
濯
〇
椅@@
粕@@
峻
＄@@
巌@@
ぞれ
萱
Ｎｅｒｎ@@
誠
験@@
逗@@
肇
佼@@
汐
恰@@
鰐@@
紬
較@@
咋@@
‡
むね
吃
楼@@
叉@@
Ａｓｐｅｒ@@
萄@@
Τ
翠@@
沓@@
涌
⊃
悦
ドーパ@@
奄
甑
謡@@
樟@@
租
糧@@
蓬
篇@@
粛@@
頴
Н
淋
［@@
嬬@@
悔@@
塙
碧
令@@
С
謀@@
梶@@
↑@@
鮎@@
瞭@@
祁@@
∠
幽@@
韮@@
旦
シーケ@@
匂
遥@@
赦@@
卜
テンサイト
ミドル@@
然@@
ぱく
呑
諺
喧
ろん
挺@@
苅
荻
慾
△@@
♀@@
鵜
鴛@@
Κ
姪
狼@@
狽
塘@@
ボツリ@@
譜@@
嬰@@
釆@@
舶@@
舶
ソリン
カートリ@@
迅
簸
卯
麟
斬
賠
撫@@
菖@@
硯@@
Ι@@
Ι
唆
姦
瓢@@
ロイダル
鍍
ストロ
Ф
○
かじめ
喚@@
鱈
涛@@
雁
トナム
遍
檀@@
娩
撰@@
鴎@@
ゴナ@@
Μ
蒜
赦
矩
菟@@
肱@@
燈@@
鯵
鮒@@
￥@@
菟
鮒
賓
シンガ@@
蜘
インピーダ@@
ゞ
Г@@
械
馳@@
奈川
鉾
臣
勅@@
Χ@@
悼
慎@@
ｄＨｖ@@
弥
いは
按@@
遼
尋
蔚@@
冥
ドレナ@@
掬@@
据
榔
葵@@
パッケ@@
…@@
阜
クレーブ
杏
ます
遁@@
舛
∈@@
燭@@
綬
□@@
樫
ツベル@@
貞
頃@@
誓@@
耗@@
旺
帥
岳@@
袈@@
鼠@@
碇@@
凪
馳
迂
詠
芹@@
疏
呆
榔@@
而
巴@@
倭
О
葵
Ｅｓｃｈｅｒ@@
菩@@
ヘリン
遜
恨@@
釈@@
迦
汽
掠@@
閲@@
荊@@
箸@@
隼
升@@
斤@@
危
咋
克
Ο
筏@@
哀
粟
鞄
鯖
扶
б@@
剃
宥
隙@@
匠@@
疲
畿@@
鍾
鐸
蔽@@
カドミ@@
阜@@
陛@@
琶@@
琵
Υ@@
⇔@@
廟
くそう
棺@@
莱@@
蔦@@
柚
呪
］@@
楚@@
劃
袴
狗@@
轄@@
憤
筑
挨
麗@@
アスペルギ@@
墾@@
戴@@
竣@@
キツ
殴
宵
隷@@
俗@@
罫
酌
栂
爾@@
鎚@@
采@@
雫
ッドミル
該@@
アプロー@@
者@@
羨@@
苑@@
