現在
，
筋
ジストロフィー
患者
の
移動
介助
に
お
い
て
文書
マニュアル
を
使用
し
る
。
最後
将来
展望
つ
記述
次
インバータ
共通
する
重要
な
技術
整理
た
ＤＮＡ
解析
解説
疾患
関連
遺伝
子
医療
へ
活用
説明
その
うち
６
分野
１２
紹介
液晶
特性
評価
装置
で
あ
これ
ら
よ
り
診断
指針
や
治療
方針
確立
貢献
こと
が
期待
さ
れ
ＥＢＭ
ため
精度
高
臨床
疫学
研究
求め
られ
メタン
部分
酸化
反応
例
は
死亡
ヨーロッパ
も
同様
動き
単板
ガラス
と
複合
日射
熱
分析
内部
リレー
使
方
外用
剤
ｓｃ@@
ｌｅｒ@@
ｏｓ@@
ｉｎｇ
ｐ@@
ａｎｎ@@
ｉｃｕｌ@@
ｉｔｉｓ
症例
１
６４
歳
女性
っ
また
事例
通
援助
視点
必要
ポイント
確認
要素
予測
受け入れ
可否
市@@
長
判断
世界
銀行
中国
インド
インドネシア
タイ
フィリピン
電力
述べ
それ
種類
特徴
タイヤ
生産
システム
データベース
編集
パラメータ
不
十分
正確
値
格納
吸収
帯
多
く
存在
まず
代表
的
用途
樹
描
新し
規格
項目
構成
示
今日
手術
成績
Ｅｎ@@
ｇ@@
ｅｌ
分類
３
）
広
用い
定着
実験
この
結果
検証
ＳＬＥ
腎
移植
プレート
固定
群
良好
アンプ
エネルギー
トランス
コンデンサ
依存
支援
Ｐ@@
ＡＴＳ
ＹＳ
機能
ホスピス
・
緩和
ケア
現状
まとめ
近年
ＤＶＤ
急速
普及
ＰＣＴ
歴史
意義
つつ
問題
点
今後
提案
副
作用
かっ
ＶＡＳ
小脳
刺激
名
改善
認め
他
グレーティング
フォトニック
結晶
Ｋ@@
Ａ@@
ＳＩ
Ｋｎ@@
ｏｗ@@
ｌｅ@@
ｄｇｅ
ａｂ@@
ｏｕ@@
ｔ
Ｓｃｈ@@
ｉｚ@@
ｏｐｈ@@
ｒｅｎ@@
ｉａ
Ｉｎｔｅｒ@@
ｖｉｅｗ
ヘリウム
冷凍
仕様
Ｌｅｖ@@
ｏｖ@@
ｉｓｔ
Ｐｕｌ@@
ｓｅ
ｉｎ@@
ｖｅｒｓｉｏｎ
ｈａｒ@@
ｍｏｎ@@
ｉｃ
ｉｍ@@
ａｇｉｎｇ
病変
検出
率
上昇
ＭＲＡ
術後
経過
観察
既に
もの
思
わ
一般
病棟
おけ
コンサルテーション
型
チーム
（
注目
ＵＳ
ポ@@
ーク
栄養
価
示唆
ボストン
地域
ｅｎｔ@@
ｒｅｐ@@
ｅｕ@@
ｒ
ネットワーク
例示
ＭＩＴ
け
促進
メカニズム
班
概要
ＣＲ
ＱＡ
目的
可変
分散
補償
器
開発
下水
道
新
推進
機構
１９９２
年
設立
アジア
繊維
アパレル
産業
事情
ベトナム
および
合併
症
数
ＲＯＭ
ＰＳ
悪化
薬物
療法
傾向
地球
環境
窒素
循環
ポジショナ
主@@
プロセス
工業
以下
報告
マトロイド
エミュレータ
提示
インターネット
不正
プログラム
発生
回路
設計
前半
ＰＭＭＡ
分解
ハプ@@
テン
Ｂ@@
ＳＡ
結合
物
得
基板
アンテナ
パターン
形状
検討
アレルギー
増加
生活
中
化学
物質
影響
指摘
Ｈｏｕｇｈ
変換
直線
あてはめ
マン@@
ハ@@
ッ@@
タン
アメリカ
ニューヨーク
衣料
地区
ｌｅｃｔ@@
ｒａｎ@@
ｔｈ@@
ｏｌ
Ａ
ラジカル
消去
活性
電子
ＦＦＡＧ
主
二
主題
原子
核
黒@@
球
扱
ＣＯ２
から
クリーン
Ｈ
２
ＣＯ
混合
ガス
製造
触媒
最近
Ｉ@@
ＬＡ@@
Ｅ
外科
委員
会
純粋
発作
予後
ＡＰ
過程
股
関節
放射
線
被曝
発癌
リスク
種々
因子
修飾
要求
対
動向
ＪＩＳ
任意
認証
第
三
者
検査
思想
７５
ＭＲＩ
新鮮
骨折
軸受
コンセプト
ＡｌＮ
含
む
ＧａＮ
Ａｌ
成長
試み
ファイバ
レーザ
構造
発振
原理
ＳＭＥＳ
ＨＰＬＣ
アミノ
酸
ナノスケール
配線
外部
電極
接続
難し
概念
小型
制御
ブロック
ＤＱＥ
利点
限界
定義
さらに
効果
判定
エタノール
注入
量
Ｈｏｔ
Ｓｗ@@
ａｐ
モデル
ハードウェア
そして
ソフトウェア
欧米
日本
肥満
程度
タイプ
異な
か
しれ
ＢＪＤ
活動
目標
掲げ
寿命
関係
発見
シグナル
伝達
系
関与
明らか
老化
話題
まで
対照
２０
ペア
有効
回答
手法
実装
船舶
騒音
ＳＥ@@
法
細胞
極性
触れ
基本
ＲＡＭ
カートリッジ
ケーブル
ＮＣ
Ｃｏ@@
ＭＭ
ＰＣ
間
データ
う
骨
密度
機器
プロトコル
概略
部品
せ
関数
Ｍｏ@@
ｖ@@
ａｒｔ@@
ｓ
ソース
Ａｓｓ@@
ｅｍｂ@@
ｌ@@
ｙ@@
Ｅｖ@@
ｅｎｔｓ
ハンド@@
ラ
ｌｏ@@
ｔ@@
Ｐｏ@@
ｉｎｔ@@
ｗ@@
ｏ
サーベイランス
対象
方法
センサ
アクチュエータ
一体
化
融合
浮き
コンテナ
ターミナル
す
スモン
薬剤
考察
答申
案内
要望
アンケート
調査
行
渋@@
谷
区
歩道
収集
写真
状況
翻訳
蛋白
質
ＲＮＡ
分子
擬態
仕組み
解明
ニューラル
強度
抽出
議論
原料
ほとんど
化石
資源
石油
主な
原因
ｌｕ@@
ｇ
供給
ポテンシャル
大き
期間
要
標記
関
品質
改訂
概観
ＣＲＰＳ
早期
実証
炉
パーソナル
コンピュータ
利用
熱源
最適
民間
資本
ＩＰＰ
事業
成果
ＯＨ
バンド
スペクトル
観測
回転
温度
ＯＴＣ
薬
教育
セルフ@@
メディ@@
ケーション
理解
１０７
病院
立場
防御
認識
有機
ＥＬ
フレキシブル
ディスプレイ
ＰＤＰ
など
Ｑ
１５０@@
０１
プライバシー
マーク
制度
Ｍｕｌｔｉ@@
Ｗｏｒｌｄ
プロジェクト
論
じ
照@@
応
処理
方式
機械
情報
応用
ＨＥ
ＤＩＣＯＭ
統合
プロファイル
Ｈ@@
ａｍｉｌ@@
ｔｏｎ
Ｓｃａｌｅ
運動
野
低下
Ｖｉｒａｓｏｒｏ
代数
量子
変形
ＬＡＮ
記事
木炭
ＥＳＲ
プローブ
ネズミ
心臓
酸素
濃度
知見
次元
画像
取得
金属
部門
精@@
業者
少な
自然
共生
叫
ば
ＱＯＬ
徐々
発症
前
同じ
９
残留
歪
モジュール
短
避け
けれ
ＬＮ
組織
像
ＣＯＰＤ
換気
日常
制限
製品
Ｅ@@
ｃｏｎ@@
ｏｍｙ
ａｓ@@
ｙ
ｃ@@
ｏｌｏｇｙ
Ｗｅｂ
サービス
さまざま
開始
土壌
樹種
応答
挙動
調べ
各
セッション
発表
モニタ
測定
論文
スペース
シャトル
ＰＡＣ
エンジン
ＣＶＴ
組合せ
コンダクタンス
半
導体
表面
強
脳
生理
連載
フォロー
アップ
シート
異常
努め
細菌
Ｐｓｅｕｄｏｍｏｎａｓ
属
Ｈｙ@@
ｄｒｏ@@
ｇｅｎ@@
ａｇ@@
ａ
性
シミュレーション
性能
軟骨
ｆｉｂ@@
ｒｉｌｌ@@
ａｔｉｏｎ
相関
範囲
啓発
粉末
回折
いく
未知
決定
当初
１０
年間
接種
当日
入浴
控え
激し
指導
ターゲット
材料
クラスタ
課題
指紋
入力
３９
政府
拡大
望
ま
メリット
こう
ＥＭ@@
Ｆ
比較
アンモニウム
イオン
ゼオライト
吸着
アンモニア
ＩＲ
分光
Ｔ@@
ＰＤ
ホーム
ヘルパー
デイ
中心
認定
介護
度
適正
軽度
圧痛
伴
３４
４１
男性
総合
討論
シンポジウム
夜@@
勤
疲労
眠気
だ@@
占め
割合
週間
一定
保
ダイヤモンド
衝撃
１００
ｍＴｏｒｒ
圧力
低圧
誘導
プラズマ
先ず
スマート
メディア
アプリケーション
市場
自殺
著者
デザイン
変遷
図示
内容
ＨＢＶ
感染
破壊
ＣＴＬ
殺
牛肉
トレーサビリティ
確保
食品
殺菌
アイディア
フランス
考案
最初
めぐ
通信
インフラ
変化
心理
導入
当た
様々
障壁
リモート
センシング
植生
分布
ならび
口@@
臭
皮膚
温
サー@@
モグラフィー
ＧａＰ
加速
起源
ダ@@
想定
大きな
雑音
ＭＨｚ
ビート
波
ソフト
マクロ
組み
８
地方
分け
地図
表示
ほど
安定
領域
減少
フィラメント
位置
経済
負荷
低減
配慮
アントシアニン
ＶＭＡ
呼
優れ
多様
ステアリング
軽快
特に
ＭＭＧ
顕著
習慣
アルコール
飲酒
有意
ステロイド
ＩＯＮ
確定
要因
ＥＰＲ
台頭
著し
家族
寄与
国際
会議
ＮＥＤＯ
あげ
テ@@
レ
マティクス
エアコン
冷蔵
庫
支え
パワー
デバイス
対策
Ｎｅ@@
ｕ@@
ｒｏｎ@@
Ｃ
プログラミング
ＳＮ@@
ＶＴ
Ｌｏｎ@@
ａｌ@@
ｋ
ゲノム
縮小
進化
クロム
必須
素
アデノウイルス
分離
樋
補修
時間
短縮
経営
そこ
共
車
椅子
時
取り組
ん
計画
展開
同
全国
各地
キャンペーン
ドイツ
ダイオキシン
ＴＯＦ
アナ@@
ライザー
Ｄ@@
列挙
記憶
合金
ダイナミック
界面
ステップ
エッジ
起こ
生体
フル
カラー
断層
セグメンテーション
すべて
可能
散乱
振幅
計算
性質
画素
改造
進
ＣＣＤ
はじめ
脊髄
損傷
言語
組み込
み
複数
タスク
並列
動作
様子
シミュレート
シミュレータ
基準
調和
杖
歩行
ｉｎｆ@@
ｌｉ@@
ｘｉｍａｂ
ＲＡ
同時
スロープ
達成
手段
製作
ロボット
でき
．
液体
ロケット
周波
燃焼
振動
抑制
呼吸
困難
ＳＶＭ
ビジネス
サイエンス
牽引
形
ＣＭＯＳ
イメージ
ケース
コントロール
等
選択
首尾
近づ
ホップ
方向
速度
破傷
風
毒素
ＮＯｘ
ＳＯｘ
放電
ＴＳＰ
Ｐｕ
ＭＡ
炉心
径
３３
ミクロン
アルミニウム
ＦＳＳＧ
積み重ね
属性
得点
相違
悪性
リンパ
腫
シールド
ルーム
周囲
排除
エミッション
検波
容易
粒
５
メートル
防止
すれ
ＯＡ
有用
しかし
格差
ＣＩＳ@@
望遠
鏡
焦点
直接
取付
ＣＤ
差
レジスト
痴呆
進行
再発
腹痛
印字
全体
水素
拡散
火炎
整形
ず
ＤＶＴ
興奮
簡単
提唱
各社
分泌
酵素
プリオン
ｒ@@
ｈｅ@@
ｕｍ@@
ａｔ@@
ｏｉｄ
ｖａｓ@@
ｃｕｌ@@
主訴
下肢
紫斑
とう
痛
骨盤
傾斜
予想
ソケット
設置
マグネシウム
需要
スポット
ガン
治具
行政
トライボロジー
メンテナンス
ツール
ＡＤ
病態
病因
溶接
非常
厳し
試験
近@@
郊
育成
機関
ＡＤＡＭ
ファミリー
ＥＣＭ
グラス
破砕
体外
摘出
モノリシック
ＭＬＬＤ
時期
ＦＡＰ
ＳＣ
嵩@@
Ｍ
低
光
ファイバー
伝送
路
考慮
大会
決議
タイマ
タイミング
役割
同社
北米
明る
見え
ＮＰ
プライマリ
実際
統計
ＪＯＡ
スコア
３１
７２
クロマトグラフィー
科学
構築
浮腫
著明
商品
８００
Ｔｏｒｒ
圧
ピーク
カウント
粒径
それぞれ
３０
４５
ｎｍ
だっ
付@@
き@@
合い
改良
発展
投資
コスト
オゾン
効率
一
超
インピーダンス
入院
費用
Ｍｇ@@
Ｚｎ@@
Ｃｄ
Ｓｅ
発光
健康
下位
尺度
生
ｍＲＮＡ
リアル
タイム
ＴＣＰ
最も
頻度
ＴＫＡ
ＰＥ
予防
企業
Ｂｅｓｓｅｌ
次数
一層
均一
Ｂｒ
中毒
再@@
発@@
劣
自動
燃料
精製
炭素
排出
一覧
口蓋
舌
最大
押し@@
つけ
ここ
条件
ＣＲＴ
クリア
安全
安楽
伝え
身長
知能
Ｗａｔ@@
ｓｏｎ
症候
推察
マップ
成形
管理
病
倹@@
約
言及
学習
場面
思考
道具
トラブル
ＢＡＴ
除
脂肪
乾燥
重量
ＯＬＥＴＦ
小さ
ＰＣ@@
イギリス
チップ
アレイ
ＨＣＶ
ついで
屈曲
位
ＡＣ
Ｗｉｎｄｏｗｓ
ＮＴ
上
Ｗｅｂ@@
Ｄｅ@@
Ｆ@@
ａｘ
適用
Ｗ@@
ＩＡＳ
実施
視覚
探究
解決
１０３
株
能力
保持
アルギ@@
ナーゼ
ＮＯＳ
基質
アルギニン
競合
ＮＯ
産生
働
推定
どの
よう
ガイドライン
推奨
べ
き
段階
氷
アルゴリズム
採用
Ｃ@@
ＩＣＲ
陽性
メンバー
単一
稀
積分
高速
力学
理論
連続
ＱＯＳ
保証
転送
ＧＰ@@
ＭＳＰ
ＧＶＰ
コメント
ＮＡＳ
電池
動脈
再建
明確
相
双極
形成
規定
Ｃｏｕｌｏｍｂ
バッファ
共鳴
交叉
速
常
柔軟
料金
かつ
顧客
日々
実態
意識
行動
テスト
所見
今回
柔らか
ワイヤー
ハー@@
ネス
ＤＭＵ
ＦＣＣ
空気
流
ＣＡＤ
整流
室温
アクティブ
ＧＡ
生成
旋律
軽減
ビデオ
作成
戦略
ＭＯＶＰＥ
作製
成功
文章
表現
用語
改正
中性
Ｒｉｅｔｖｅｌｄ
精密
各種
腰椎
比
大腿
Ｂａｓ@@
ｄ@@
ｅｖ@@
ａｎｔ
Ｌｅ@@
ｅ
Ｐａｄｅ
近似
ρ
主張
ＩＰ@@
ＬＣ
ヒータ
アクシデント
マネージメント
策
正常
週
後
基盤
改め
ＳＯＡＰ
Ｘ@@
ＤＳ
ＳＯ@@
ＰＥ@@
ＳＤ@@
Ｌ
ＡＰ@@
ＢＩ@@
ＮＤ
ネ@@
ーム
詳細
代替
ロープ
除外
書き込み
向上
枠組み
危険
受@@
付け
嬢
ＳＡ@@
ＹＡ
表情
層
格子
比熱
指数
ＩＴＥＲ
物理
Ｒ
＆
Ｄ
レビュー
標的
挙げ
中断
Ｃａｌ@@
ｖｉｎ
平均
ｆＭＲＩ
フォトリソグラフィ
ＧａＡｓ@@
Ｂ
ディスク
細か
コントラスト
磁
ＲＶ@@
疑
場合
表
呈示
Ｌｉｎｕｘ
学生
初心
ＧＵＩ
サポート
提供
以前
全
指定
周期
跳躍
実現
ＣＶ
発育
部
転写
レベル
追求
まだ
ＦＰＤ
用
バインダー
ポリビニル
ＭＤＳ
ＲＡ@@
ＥＢ
ｓｕｒｖｉ@@
発現
高率
ＡＥ
弾性
方程
式
満足
ニーズ
把握
立案
３@@
４@@
５９
マウス
エン@@
サイクロ@@
ペ@@
ディア
４
保存
ｆｕｎｃｔｉｏｎａｌ
ｂ@@
ｒａｃ@@
したが
ＣＨＢ
ウイルス
炎症
長期
わた
肝
ＭＳＣ
インパクト
魅力
儀@@
統一
集団
規則
成立
トレース
気体
ＲＢ
セラミック
造
電解
ドレッシング
わか
いろいろ
離乳
仔
豚
ストレス
Ｚｎ
保護
証明
ＮＥＣ
プロセッサ
セダン
剛体
対応
仮定
列
物体
復元
施設
向け
Ｐｒｏ@@
ｕｓ@@
ＰＡ
稼働
実績
バルブ
概説
別個
形態
発達
支配
培養
とも
ファイル
Ｒｏ@@
ｙａｌ
Ｐｈ@@
ｉｌｉ@@
ｐｓ
Ｅｌｅｃｔｒｏｎｉｃｓ
買収
Ｏ@@
ＡＤＭ
大
規模
パス
スイッチ
双
リング
結論
試料
干渉
無視
厚
癌
唯一
切除
だ
不良
雄
ＡＲ
ノックアウト
骨量
呈
多層
素子
磁性
膜
コントローラ
ＵＣ
強制
殆ど
不快
判明
社会
接触
水質
浄化
室内
静電
グリッド
噴射
推力
順調
磁気
ダイポール
磁界
上肢
文化
祭
集会
講演
高校
体育
館
音響
体系
抵抗
２００４
モノクローナル
抗体
ＥＬＩＳＡ
コンテンツ
目指
受信
上げ
チューニング
Ｂｒａｇｇ
反射
位相
状態
以来
国
イタリア
か月
女児
有限
補正
項
円錐
Ｚ@@
Ｗ
適切
ＨＦ@@
ｘ
構想
水
配管
網
定常
流量
リチウム
吸
脱着
薄膜
ＣＴ
要点
限定
区域
降雨
サイズ
調整
看護
業務
変則
勤務
不況
カレンダー
家庭
熊本
結@@
集
共同
気象
一致
確率
大@@
仏
詳し
血圧
欝
不安
障害
素材
綿@@
糸
麻@@
布
植物
染料
Ｍａ@@
Ｇ@@
置
ディレクトリ
便利
Ｐｓｅｕｄ@@
ｏｔ@@
ａｘ@@
ｉ@@
ｐｈ@@
ｙｌ@@
ｕｍ
ｏｈ@@
ａ@@
ｅｃ@@
ａｒｐ@@
Ｒ@@
ｈｙ@@
ｔｉ@@
ｄｉ@@
ａｄ@@
ｅｌ@@
ｕｓ
ｓｕｂ@@
ｐｉｎ@@
ｎ@@
ａｔｕｓ
ネパール
初めて
軌道
参照
独自
定め
しま
余地
肺炎
敗血
変更
ながら
実行
小
惑星
軸
非
対称
体
楕円
複雑
より
ＧＭ
野外
ＭＰ@@
ノード
選
ぶ
ＨＥＬＬＯ
メッセージ
ＦＭ
中和
特色
照射
波長
雰囲気
運用
増え
Ｍｕｌ@@
機
ＳＮＰｓ
脳波
頭痛
相談
後半
ＨＲ@@
ＥＭ
ＺｎＯ
バリスタ
粒界
Ｔｈｅ
Ｎ@@
ａｔｉｏｎａｌ
ＩＴ
Ｓｋ@@
ｉｌｌ@@
Ｃｅｒｔｉ@@
ｆｉｃａｔｉｏｎ
Ｐｒｏｇｒａ@@
ｍｍ@@
２９
適合
溶媒
理由
スメクチック
平行
縞
反転
瞬間
見
ＧＮ
ベネフィット
特集
基礎
Ｃｅ@@
Ｐ
Ｃｅ
Ａｓ
物性
進歩
課
増
合
ＮＯＶＡ
Ｂｏｎ@@
ｆｅｒ@@
ｉ
考え
とき
指標
ＲＴＰ
ＨＯ@@
ＣＡＮＤ@@
ＥＯ
ＰＴ@@
ＲＯ
ＩＣＳ
Ｖ@@
コントロ@@
ーラー
発売
パッチ
広が
ｕｇ@@
ＴＭＲ
電流
ヒストグラム
成層
圏
生態
有害
紫外
バリア
ＩｇＭ
ペプチド
治水
建設
維持
流域
住民
負担
ＣＧＳ
トータル
ネコ
ラット
国内
流通
体制
５５
種
７
新種
スパイク
規制
損失
楽しみ
ボランティア
カテゴリー
実効
線量
算出
Ｇｅｎ@@
ｏ@@
Ｍａｐ@@
ｐｅｒ
同定
ＰＥＦＣ
バナジウム
ニオブ
タンタル
キチン
カニ
殻
基
提言
フィルム
フィルタ
乳酸
マルコフ
追加
境界
遷移
更新
マイクロ
与え
節
転移
ｄｙｎａｍｉｃ
ＥＵＳ
監視
通報
避難
消防
設備
ＲＶ
ドア
ＡＤＡＭＳ
ＬＯ
２０００
エレクトロニクス
ショ@@
ー
ＣＯＭ
Ｊ@@
ＰＡ@@
Ｎ
模型
飽和
再現
マイコン
組@@
入れ
動か
プレス
主流
作
なし
電気
伝導
オペロン
温存
複製
チタン
配置
リハビリテーション
ヒステリシス
克服
微細
食物
アナフィラキシー
主要
抗原
プラント
セメント
初期
ＢＭ
過
回
輪部
解剖
近代
ＧＰＴ
５００
以上
ＣＮＣ
付加
先行
現象
行為
倫理
規範
ＡＣＳ
試薬
削減
更年
期
強調
販売
ＤＲＡＭ
Ｓ
潤滑
選定
ＰＣＡ
極めて
Ｍｉｎ@@
ａｓ
ｐａｐ@@
ｏｍ@@
ａｔｏｓｉｓ
アミロイド
甲状
腺
サンプル
ＣＦ
動態
ワクチン
建築
シリコン
ウエハ
汚染
米国
ＥＵ
ロード
壁
補助
陽極
組合わせ
セル
選抜
マーカー
取り除
Ｒｓ
配列
アラインメント
青色
染ま
相対
時計
パラ@@
ドックス
再
媒質
固体
ＴＦＴ
ビジョン
パケット
アーキテクチャ
、
ＡＣＴＨ
コルチゾール
ｐａｒ@@
ｏｘ@@
ｉｃａｌ
ｃｈ@@
ｏｓｐ@@
ｍ
２９３
子@@
猫
飼
カメラ
ズ@@
ー@@
ミング
コンパクト
血液
Ｅｎｔｅｒ@@
ｏｂａｃｔｅｒ
ａｅｒ@@
ｏｇｅｎｅｓ
膿
Ｓｔｒｅｐｔｏｃｏｃｃｕｓ
ａｃ@@
ａｅ
Ｓｔａｐｈｙｌｏｃｏｃｃｕｓ
ｈａ@@
ｅｍ@@
ｏｌ@@
ｔｉｃ@@
緯度
ＧＰＳ
ＳＰＳ
誤差
ＯＥＭ
長年
継続
良
ホウレン
ソウ
硝酸
塩
新規
修正
細部
役立
睡眠
ウニ
生息
場所
海藻
群落
組成
背景
エア
バッグ
装備
報道
本@@
講
波形
ミトコンドリア
ブレオ@@
マイシン
プロ
切断
高め
リン
カー
核酸
収縮
拡張
一@@
心拍
血流
及び
諸
コーディング
Ｍａｃ@@
Ｗｉｌ@@
ａｍｓ
アイ@@
デン@@
ティ@@
ティ
蒸気
含め
源
円筒
座標
模擬
パッケージ
スタック
ＳｉＰ
ＳＯＩ
拡充
ランダム
アプローチ
染色
輸送
脈動
磁化
井戸
先
パルス
伝播
生@@
鮮
果実
輸出入
推移
並行
給@@
付
福祉
具
固ま
機会
白血
減
農業
ブル@@
ガリア
３６
モリブデン
管
イメージング
ＥＬＩＤ
研削
鋳鉄
トライ@@
ロジー
ｉｎｉ
テクノロジー
オブジェクト
ＦＡＸ
送信
取り上げ
快適
交通
メーカ
進出
既存
連携
文献
リスト
添付
ＯＰＬＬ
バルク
新た
許可
ＬＣＤ
パネル
リサイクル
蛍光
ＴＰ
マッチング
解
減衰
ノッチ
６０
フェージング
ｆ@@
パイロット
信号
変動
パー
コレーション
Ｈｅｌｉｃｏｂａｃｔｅｒ
ｐｙｌｏｒｉ
胃
ヒト
塩基
終了
探索
もともと
貧@@
ユ@@
ヤ
移@@
民
手
作業
ＰＷＭ
カオス
１５０
Ｖ
ＲＦ
バイアス
スケーリング
ソフトウエア
ゼラチン
現れ
ドップラー
経@@
歴
中古
高度
立地
旨
代
安価
Ｆｒａ@@
ｕｎ@@
ｈ@@
ｏｆ@@
ｅｒ
基づ
一貫
陽子
特許
ＩＣＥ
ＭＥ@@
ＳＨ
名付け
ＣＦＤ
ヘルニア
月
ＡＳ
施行
ＨＣＣ
３２
５１
結節
触覚
電磁
Ｔｌ
添加
ＫＬ@@
ＭＣ
全て
欠陥
サイト
雄性
ＸＲＤ
ＲＲ
海外
目立
代わ
世代
人口
見地
性別
年齢
Ｅｐ@@
ｉｄ@@
ｅｒｍ@@
ｏｐｈｙ@@
ｆｌ@@
ｏｃ@@
ＬＩＦ
単
運転
病気
発熱
分岐
ｉｃｋ@@
ｆｏｒ@@
ｃｌａｓ@@
ｓｉｃ@@
ＰＰＲ
ハイ
マーカ
ＭＳＭ
ＨＩＶ
サンフランシスコ
在住
１人
人
Ｓ@@
ＭＳ
介入
面接
緑茶
多飲
肝癌
気泡
取り@@
扱え
テーマ
設定
際
ＦＴＩＲ
ＮＩＲ
本
枝
圧縮
事項
歪み
膜厚
母音
挿入
胃癌
２００２
ＮＶ
流行
例年
早
観点
間隔
空@@
スケール
ＳＴ@@
ＡＩ
まし
ところ
鉄
コンクリート
ベントナイト
変質
ｌａｎ@@
ｕｒ@@
Ｍａｃｒｏ@@
ａｍ@@
ｉｕｍ
ｔｏ@@
ｍ@@
ｅｎｉ@@
ｏｉｄｅｓ
コ@@
ケ
他方
火災
旋@@
台風
しばしば
ホログラフィー
アート
成人
急性
ＨＰ
ＨＴ@@
ギャップ
充填
全例
光子
場
電場
受け
変え
検索
ＳＳ
ジョ@@
ブ
クラス
用意
オペレータ
ミッション
知
ドメイン
農@@
学
あて
動物
完成
させ
陽
ミクロ
空間
高温
Ｓｍ@@
ｌｅｒ
ＳＭＶ
ｓｉｇｎ
遅れ
毒性
製法
輸入
価格
トラヒック
エミュ@@
レーション
時代
到来
橋@@
かけ
Θ
導波
スイッチング
デ
マルチ
プレ@@
クサ
人工
膝
ｃＤＮＡ
マッピング
モーメント
ＳＰＭ
近視
放出
国産
交流
アーク
広告
史
ｅｘ@@
ｕｓｉｏｎ
／
デバッグ
Ｒｅｎ@@
ｉｒ
Ｍｏｄ@@
Ｓｉ@@
起動
バー
又
案
欧州
ガソリン
軽油
標準
指令
法制
長鎖
代謝
誘発
ＬＢ
ＭＯＸ
否定
護岸
バイオマス
成分
セルラーゼ
ゆっくり
増大
Ｍ@@
ｉｌ@@
ｇｒａ@@
ＭＢＥ
ＧａＡｓ／
ＧａＡｓ
低温
意味
血管
様
外観
講座
シリーズ
ＨＡ
高圧
加熱
加え
ＤＩ
電荷
合成
記録
シリンダ
駆動
自己
修復
携帯
事故
乳癌
取り巻
変異
ＮＩ@@
２５６
ロイ@@
シン
グルタミン
ＰＴＣ
サーミスタ
作動
分配
摩擦
撹
はん
タンク
血球
回復
強力
支持
処方
ＣＨＳ
ＨＣ@@
石英
アルミナ
加工
事
アセスメント
手順
エントロピー
系列
独立
分割
溶液
最小
Ｂｏｗｅｎ
カナダ
北@@
森林
類似
ＭＥＭＳ
赤外
センサー
創出
活発
練習
繰り返
技能
医学
制約
α
生じ
想像
波動
スプレー
コーティング
ニッケル
宿主
加齢
増殖
感受
皮下
ドレーン
留置
創傷
治癒
パスウェイ
興味
深
モータ
ハードディスク
ＦＡＴ
重視
ＪＡＶ@@
インジェクタ
洩@@
修理
ＭＬＣ
溝
プロフィル
粗
ハザード
簡易
６８
供覧
網膜
神経
分化
未だ
地面
浮
フラット
スラブ
建物
地形
切り@@
離
ＣＶＤ
工具
進展
次いで
リパーゼ
エラスターゼ
炎
可視
今
二輪
ＦＩ
固有
従
オプ@@
トエレクトロニクス
光学
銃
ビーム
月経
独特
ゲーム
出力
見いだ
根拠
経験
事象
ＰＬＣ
ＥＵＶ
マスク
気
入
レストラン
予約
Ｎｉ@@
ｏｎ
貴重
ＡＴＲ
シ@@
ビア
反映
サ@@
ク@@
セス
クライ@@
テリア
全@@
土
覆
タバコ
栽培
鋳物
還元
鋳造
生存
ｉｇ@@
ｒａｔｉｏｎ
下流
ＦＥＭ
鳥@@
肌
状
胃炎
Ｏ
ｅｎｃｅ
ａｒｙ
ｃｅｌｌ
ｉｎｅ@@
ａｇｅ
獲得
免疫
担
ＴＩ@@
ＦＡ
ＣＩ@@
ＡＮ@@
Ｋ
セルフ
クリーニング
ＯＬＥ@@
Ｇ
銀河
突然
学会
地理
ｐｉｎｇ
マントル
沈@@
込み
進め
北
太平
洋
海域
クロロフィル
ＧＸ
アパタイト
たんぱく
ＭＥＧ
ポリエステル
重合
遠心
掲載
１９@@
５８
ホンダ
スーパー
カ@@
５０
ｃｃ
バイク
ブーム
起き
シグマ
中間
同等
耐久
係わり
工程
７４
カソード
近傍
等高
次@@
東京
大阪
経年
ＰＣＢ
ＣＡ@@
ＳＥ
ＴＨＡ
腰痛
症状
ＤＤＳ
幅広
内外
性@@
引用
乳@@
がん
病型
１１
ＴＷＳ
アナログ
ディジタル
ドット
能
彼
ベッド
過ご
デザイナ
遊び
伝統
両立
実習
あるいは
ｔＲＮＡ
共存
異型
上皮
スライダ
ガイド
フロー
集合
振舞
Ｇｂｐｓ
スループット
憂@@
感
喪失
体験
人生
グラフィックス
一因
Ｃｏｒ@@
ｎｅ@@
ｆｏｒｍ
ａｃｔｅｒ@@
ｄ
Ｐａ@@
ｖｅ
Ｊ
厳密
ＷＫＢ
油
粒子
アルミ
脱脂
発揮
ボトルネック
手@@
車線
チャート
Ｕ@@
ＣＳＳ
２３
公開
閲覧
隆起
ドライ
アイス
角膜
当て
ＥＷＳ
古
工場
大学
消失
ＯＲ
エクソン
ＳＮＰ
公共
防災
更に
磁場
一方
１４
媒体
方位
Ｌｉｃｈ@@
ｅｎ
ａｕｒｅｕｓ
２６
応え
ＡＤＳＬ
アクセス
エンド
ツー
大気
見直し
ステッパ
主に
スキャナー
ラピッド
プロトタイピング
ヘモグロビン
始め
遅滞
ＦＦＭ
カンチ
レバー
ねじれ
変位
モード
自閉
札幌
鹿児島
遮蔽
断熱
ＰＡＬ
ＤＴＰ
有
端末
ポケット
Ｂｌｕｅｔｏｏｔｈ
ＳＤ
カード
ＬＣＡＰ
樹状
ＥＴＲ
Ｎｏ@@
ＧＩ
ＶＬＰ
唾液
ＣＲＨ
ＩＢＳ
１９８０
前後
境
変
キャビテーション
トラッキング
幅
成型
ＬＤ
アイソザイム
血清
尿中
ＢＪＰ
ｐｐｍ
応力
無線
ＩｒＤＡ
Ｈｏｍ@@
ｅ@@
有利
ＳＣＳ
ゼ@@
ミ
配@@
ｗｅｂ
メール
スライ@@
バ
ベルト
ホイール
ローラ
類
副腎
総括
５７
は@@
６５
スピン
ｔｃ
醗@@
酵
アミラーゼ
負
正
識別
ベース
窒化
転位
水分
変調
ゲート
電圧
ＭＯＳ
キャパシタ
リニューアル
年々
心電
図
サルコイドーシス
ＢＳＥ
スパッタリング
エッチング
陰極
全く
Ｍｙ@@
ｏｆｉｂ@@
ｒｏｂ@@
ｌａｓｔ
ア@@
グリカン
コラーゲン
鎖
事実
最高
フェノール
伸展
左
半球
容積
衝突
シース
走行
介
体重
カルシウム
摂取
１９９９
表皮
体温
調節
保守
泡
噴@@
煙
噴出
火@@
口
半径
追跡
鑑定
チャネル
心室
ＮＳＴ
ノル@@
アドレナリン
グル@@
ゴン
ＬＥ@@
ＴＯ
過去
シーズン
渡
塩化
ナトリウム
季節
見出
ＧＭＰＬＳ
保健
分担
Ａｍ@@
ｅｒｉｃ@@
ａｎ
Ｅｕｒｏ@@
ｐｅａｎ
Ｃｏｎ@@
ｓ@@
ｅｎｓ@@
ｆｅｒｅｎｃｅ
ＥＰ
打ち@@
出
浸透
適応
辞書
漸近
導出
ダイオード
励起
レーザー
地震
日頃
備え
ＮＯＡＡ
衛星
テム
ひと
ストライプ
確かめ
不要
削除
リボソーム
再生
ＨＧＦ
イヌ
埋め込
ＧＧ
ＣＮＳ
ＢＡｌ
革命
ＳｏＣ
プロトタイプ
ポンプ
ＴＭＰ
ｅｒ@@
成膜
汚れ
税
器具
錯@@
視
ずる
アルファ
ＴＭＳ
薄
幹
虫垂
未来
探査
多く
計測
運搬
入@@
数学
ＲＱＬＱ
質問
票
人体
浸出
ＤＸＮｓ
オフィス
家具
岡@@
村
所
前者
ＰＨＳ
動
球@@
内
対流
ＰＦＩ
ＥＳＣＯ
係わ
Ｔｒａｎｓｌ@@
ｉｎ
ｍｉｃｒｏ@@
ｔｕｂ@@
ｕｌｅ
感度
自体
セキュリティ
Ｓｙｓｔｅｍ@@
ＴＬＭ
取り入れ
故障
特異
劣化
登@@
山
眼科
にて
Ｂａｒｔ@@
ｏｎ@@
ｅｌｌａ
不明
もと
宇宙
膨張
減速
羽@@
角
３００
〜
１０００
透明
当社
３８
予備
Ｔｌ@@
ＩｎＧａＡｓ／
機@@
器@@
Ｊａｃｋ@@
緩衝
打@@
切り
グラム
陰性
インフルエンザ
ｅｄ
ＳＴ
ＰＲ
延長
左@@
偏位
ＣＷ
ＳＴＭ
注意
払
クロス@@
オーバー
残存
履歴
絶縁
ＳＪ
バン@@
ＥＰＡ
１９８９
犯罪
及ぼ
吐血
救命
処置
フローチャート
ＥＣＵ
メモリー
常時
バッテリー
ディバイス
実用
経路
サンゴ
礁
木材
年輪
断@@
裁
２５
７０
信頼
可@@
集め
Ｃｏｍｐ@@
ａｃｔ@@
ＰＣＩ
オープン
医用
ＭＥＥ
サブ
指先
ＮＨ
劇場
照明
Ｔｈｏｍ@@
兆候
麻疹
耐食
錆
粉砕
‐
蒸留
ダム
現場
スラッジ
かかわ
雌@@
親
大半
雄@@
幼虫
給餌
終わ
子孫
留ま
閉経
ＣＤＣ
Ｓｔ@@
ｅｎｓ
ＴＳ@@
ＬＳ
ＴＳＳ
鮮度
つなが
ｋｍ
ｈ
ＰＥＴ
フレー@@
ク
一軸
欠点
補
重
奏
音
競争
通訳
サイクル
変容
ＩＧＢＴ
既報
ＰＲ@@
ＩＬ
排便
ＤＭＡＲＤｓ
側
反対
参加
論議
ＩｇＥ
過@@
激
不@@
着色
報酬
ＮＭＲ
格段
鉄塔
越え
語
流@@
暢
外側
前方
内側
後方
眼
収差
投影
演算
多@@
々
ＷＷＷ
大量
蓄積
最新
入手
絶対
地下
重力
勾配
ＮＫＴ
肝炎
ｕｎｇ
ＬＧ
両@@
社
ブース
展示
通常
比べ
大幅
設問
やや
生物
兵器
小児
後期
ＰＰ
反
転
港湾
バランス
鼻
ＡＤＬ
ホログラフィ
圧倒
コバルト
水銀
ぐ
仮想
列車
地上
サーバ
年次
クーロン
昭和
乳
前提
充分
カロリー
汗
涙
賃@@
金
輝@@
かし
ファッション
沖縄
島
北部
採集
ＡＰＩ
ＳＳ@@
ＤＢ
ＰＡＴ@@
ＨＷ@@
ＡＹ
ユーザ
ＩＣ
ＲＦＩＤ
捕@@
え
連鎖
符号
整合
輪郭
出現
片
コア
マシン
市販
東北
２００１
白色
ニューロン
強化
交@@
替
朝
夕
人員
ゴ@@
キ@@
ブリ
昆虫
鼻炎
アレルゲン
台湾
ダニ
エンタルピー
エントロ@@
ピ
当
銀
ＳＳＣＰ
前癌
チェーン
モデリング
ＯＮ
電源
サージ
テク@@
タ
取りつけ
ＦＴ@@
取り出
ｍａ@@
ｘｉｍ@@
ｉｎｔｅｎ@@
ｓｉｔｙ
ｐｒｏ@@
ｊ@@
ｅｃｔｉｏｎ
マス
織物
メリ@@
ヤ@@
ス
レート
別
北東
横断
鉄道
後者
各々
見通し
ＦＥＴ
ヘム
ＩＧ@@
ＥＳ
凝固
気@@
楽
コミュニケーション
本稿
一部
リンク
自由
アーム
ペーパー
白
内障
ＧＨｚ
ノイズ
モンゴル
パプアニューギニア
ブラジル
ボリ@@
チリ
エク@@
アド@@
ル
コロ@@
ンビア
グアイ
ペルー
神奈川
県
横須賀
市
ＴＴＶ
エピソード
ＲＭ
キャリア
同士
高知
庁
以内
ＩＳＯ
ＡＴ@@
プラットフォーム
ＮＨＴ
鼻腔
通気
出血
６５０
ｍｌ
ワイヤレス
ＡＴＭ
ＩＰ
擬似
試行
錯誤
続
ＣＡＭ
広@@
汎
弛@@
油圧
サーボ
弁
似
長所
短所
９００
線虫
Ｂｅ@@
ＳｅＴｅ
ＩｎＰ
硬質
皮膜
被覆
ＰＶＤ
透析
悪
件
添え
セキュリティー
母親
ＲＡＳＴ
市民
意見
交換
キー
ＮＴＴ
グループ
気管
切開
装着
意思
パソコン
風速
合わせ
拠点
１０@@
９@@
５６
フォノン
確か
ＬＳＩ
正し
コンセンサス
秩序
自発
無力
のみ
ＰＩ@@
ＡＦＳ
Ｔｒｉｃｈ@@
ｏｒｏ@@
ｎ
ｈｉ@@
ｕｃ@@
ＦＤ
北九州
インスリン
中央
雑誌
両面
特殊
浮かび上が
強@@
グローバル
連合
情勢
下@@
諏@@
訪
公@@
支出
差@@
止め
裁判
始ま
ＡＬ@@
ＩＳ
継承
プログレッシブ
不純
希
３２０
町
１８@@
Ｓａｌ@@
ｅｎｎ@@
ｅｓｓ@@
四@@
季
風土
生み出
野菜
味
料@@
理
喫煙
ＡＳＯ
溶融
メキシコ
粉@@
数値
コール
センター
Ｔｅｌ@@
ｐｅｒ@@
聴覚
広ま
励起源
ＴＲＭＭ
降水
蒸発
フラックス
釣@@
り合
軟部
肉腫
４７
力
取引
慣@@
習
税制
政策
人材
ＩＣＡＲＳ
点数
供
ライブラリー
血便
品種
６６
ＩＴ@@
６@@
８２
ロータリー
メカニカル
シール
協会
１９９４
制定
契約
１９９６
９８
パッケージング
ＡＲＤＳ
従来
自律
ただし
歩留り
ＵＳＡＤ
タグ@@
チ
メソ@@
ッド
イノベーション
フィードバック
係数
スリ@@
ラン@@
カ
ン@@
ボ
バンコ@@
耐え
章
フェムト
秒
ウサギ
ＶＭ
クライアント
適
埼玉
立
教室
棟
屋内
巡
β
遮断
提出
直径
ＳＯＤ
総量
ループ
ＰＧ
卒中
リハビリ
可動
質量
持
シェル
成
難点
ＰＮＡ
ＤＦ
ＳＥＭ@@
ＥＣＨ
会社
営業
昼間
１１０
ＭＷ
夜間
１０５
Ｐｅｒｓ@@
Ｌｉ@@
ｓｔｒｉ@@
ｇａｒ@@
新薬
薬理
ＣＡＳ
男女
静脈
エコー
１９９０
年代
ネット
バブル
崩壊
特発
肺
線維
痛み
ほぼ
帯域
ＰＢ@@
協力
Ｅｕ
置換
両方
消光
ｄＢ
果物
体内
ＴＶ
ＤＬ
インタラクティブ
腹部
食道
バッチ
災害
復旧
傷害
死
ＰＢＣ
経緯
集積
ＡＩＨ
接合
トンネル
知覚
根
圧迫
ＣＰＴ
トランジスタ
ｅｌｌ@@
Ｓｈ@@
ｏｃｋ@@
ｌｅｙ
Ｂａｒ@@
ｄｅ@@
Ｂｒａ@@
ｔｔ@@
ａｉｎ
たち
曲げ
上記
つて
じょくそう
材
知識
２８
灰分
炭化
代わり
裏付け
直観
融@@
変貌
便@@
排せつ
ＡＡＶ
ベクター
ＡＶＰ
Ｘ
水稲
うえ
ＦＤ@@
操作
円滑
系統
試作
ドライブ
無声
コロナ
多彩
急激
ＭＲ
流体
４０
尾状
葉
ＢＤＮＦ
成体
下降
軸索
後肢
エイズ
風向
金型
不満
見@@
頭部
辺縁
ヒューマン
エラー
目覚し
ＡＦＭ
オピオイド
りん酸
コデイン
原
単位
いずれ
ＥＮ
極度
実践
花粉
並び
翌年
Ｕ
Ｔｈ
ＩＶＲ
ｅｒｓ
ａｎ@@
ＲＤＣ
更@@
ノート
「
微量
」
迅速
簡便
ａｒ
ｐａｔｔｅｒｎ
ＩＰＤ
分
浪@@
費
ＥＭＩ
ＥＭＳ
違い
ＣＨ
ＩＣ@@
ＩＳＳ
最低
コピー
コンドーム
南極
基地
計
アイデア
くる
三角
スウェーデン
１９９５
アジェンダ
２１
ルーティング
名前
ＨＹ@@
ＣＯ@@
ＲＥ
石炭
ディーゼル
汽笛
動力
圧@@
搾
ＨＡＣＣＰ
Ｌ@@
ｎａ
トリー
ＬＤ@@
水温
ｔｉｃ
ｉｍｍｕｎ@@
ｉｚａｔｉｏｎ
テクニック
Ｂａｓｅｄｏｗ
で@@
ん@@
ぷ@@
変性
セラミックス
耐熱
湿度
ＢＭＰ
竹
スプリン@@
ター
ディスペンサ
ＩＳ@@
ＭＯ
ライン
７３
冬期
停止
ある
揮発
風洞
空力
さん
シーン
文字
３５
ＨＰＮ
ＤＣ
シフト
スタート
漏話
創@@
刊
誌
防火
ＤＭ
ＦＨ
脳症
除痛
スラグ
泡@@
立ち
間違い
やす
エリ@@
プソ@@
メトリー
主観
あいまい
セン@@
タリング
脂質
ＣＴ@@
筆者
微
衣服
下記
続け
過酷
ｐ
徴候
ヤング
疲れ
限度
７５０
℃
ほう
ＷＤＭ
Ａｄ@@
ｄ／@@
Ｄｒｏｐ
フィルター
ＧＦＰ
夏季
小@@
笠@@
清浄
ＳＥＭ
フォトン
トポグラフィー
千葉
ＡＣ@@
Ｉ
音波
日立
食
実情
待ち
行列
キュー
ゆらぎ
小波
ＰＲＴＲ
含有
整備
登録
メー@@
赤痢
腸
鑑別
教師
生検
必ず
しも
持続
１６
ｆａ@@
ｆｆ@@
ｉａｎ
ラ@@
チェット
やり@@
とり
箇@@
ｓｙｎ@@
ｅｒｇｙ
ｃｏ@@
ｉｌ
ＡＳ@@
生殖
こそ
本来
Ｉｂ
弛緩
一環
着手
部材
庇
亀裂
偏向
ＭＭＮ
潜伏
糖
鋼
起因
脱臼
１３
ＡＭＤ
候補
サテライト
プライマー
高進
もたら
来
ＭＭＰ
セ@@
プロテアーゼ
メンタル
バリアー
カーボン
ＳｉＣ
ＰＳＰ
ケロイド
痕
腺癌
肺癌
原爆
爆発
各国
１@@
６００
７００
マクロファージ
きわめて
バイオテクノロジー
消費
相互
標本
扱い
現況
Ｐｅｒｔｈｅｓ
ＰＥＧ
個
Ｃｒ
京都
ＣＤＭ
手続き
７７
優位
スタンド
アロン
オプション
降伏
貯蔵
多数
深ま
糖尿
専門
クリニック
本文
病巣
ｉｋ@@
ｕｃｈｉ
ｔｅｒ@@
しか
ルール
ろ
航路
追従
クォーク
ＰＶ
ＩＣＯＮ
Ｗｅｓｔ
ＳＭＦ
ＤＳＣ@@
組み合わせ
ハイブリッド
スタッフ
胸痛
フェ@@
ル@@
サイクロトロン
コード
荷重
海@@
嶺
分か
デジタル
生か
チャ@@
モニ@@
ウム
ＱＣＤ
真空
訴え
精子
結石
ＥＳＴ
ＥＰＢＤ
ＥＢＶ
ＨＵ
除去
実例
地
同化
性格
両群
高齢
訓練
口腔
ＥＲＧ
電位
規約
かなり
寸法
４００
駅
トイレ
ルータ
４９
証@@
券
金融
ｃ
面
しきい
ｔｈ
Ｎｐｗ
ＷＷ
プラスチック
遠隔
ｏｐ@@
ＮＩＰＰＶ
酪農
ウエイト
食肉
Ｓｉ
斜面
平衡
個々
逆
ひずみ
望まし
仕方
スキャナ
トリガー
実@@
演
Ｃａ
４８
さい
降圧
タービン
サイド
ＬＮＧ
病期
バリエーション
富
ａｒ@@
差異
捉え
電話
杭
地中
橋
内@@
肩
発明
間接
侵害
先@@
直腸
集中
ＥＰＤＭ
マネジメント
日
コジェネレーション
集大成
生命
牛乳
バター
品
鍛造
不可欠
付着
色相
明度
序@@
Ｃｒｙｐ@@
ｏｓｐｏｒ@@
ｉｄｉｕｍ
覚醒
リズム
橋梁
ＥＰＳ
塩酸
アマンタジン
中枢
マスター
破損
授業
フィールド
１９９８
公表
常@@
ＵＲ
キレート
ＲＳ
黒
骨格
ホルモン
同期
無
力率
国立
天文
台
順序
溶解
アルカリ
漏れ
ＩＭ@@
狙
本種
生育
ち
ニュージーランド
ＶＡ
１５
ボード
局所
ＳＭ@@
ＩＤ
ごと
端
２２
多重量
音楽
りん
ｅｔｅｒ@@
ｏｂ@@
ｏｔｈｒｉ@@
寄生
春
夏
冬
Ｐｈｏｔ@@
Ｄｙｎａｍ@@
ｉｃ@@
Ｉｎ@@
各部
流れ
様相
乱流
ε
ＳＰＰ
一種
イン
キュ@@
ム@@
レータ
下げ
Ｇａ@@
ＩｎＮ
ＭＱＷ
コロイド
インターナショナル
ＰＢＸ
１０２
耳
鼓膜
穿孔
チン@@
ＭＰＵ
メーカー
上位
優勢
言
がた
ＤＲＧ
ゲル
ワ@@
ニス
視力
線形
カット
アウト
転倒
直交
ずつ
ビ@@
Ｉｎｆ@@
ｅｔ
和@@
声
バス
ノール
アル@@
ト
ソプラ@@
ノ
樹液
零
近く
窓
侵入
Ｆｌｏｗ
Ｗｉｎｄ@@
ｏｗ
上層
メラノサイト
散在
サブルー@@
チン
５@@
５２
閉@@
オーダ
ピ@@
ッキング
ピース
創
顎
面積
ＰＨ
全面
腐食
２８@@
ＦＮＣ
意図
ＩＡ
キャ@@
ット
フード
穀@@
住宅
図形
眼底
対比
Ｒｂ@@
Ｃｓ@@
ＮａＣｌ
重症
７８
オキシダント
ＫＣ
酵母
働き
伝搬
ｆｉ@@
ｘ@@
ベクトル
１９７３
種@@
頭
Ｃｌ@@
ａｖ@@
ｉｃｌｅ
ｈｏ@@
ｏｋ
ｐｌａｔｅ
補強
Ｄｉｒｉｃｈｌｅｔ
ｕｍａｎｎ
粗面
円柱
インコヒーレント
郵送
どちら
繰り返し
ＳＡＷ
ＢＴ
ＴＩＡ
ＭＩ@@
ＣＲ@@
ＡＭ
Ｈｅｌ@@
図解
運営
９０
メッシュ
特定
前回
アセンブリ
パン@@
チャー
イベント
パート
カリキュラム
ＥＭＧ
雌
決め
ＩｇＡ
腎症
病理
ＳＮＯ@@
タンパク
組込
大腸
菌
ＡＩＤＳ
人類
疾病
運輸
省
ぼ@@
や@@
あたり
Ｔ
パッシブ
顔
誤り
テルル
記
業界
ＧＨ
ＲＰ
フリー
ハンド
階層
いかに
秋田
下
水@@
揚@@
げ
ヒラ@@
メ
えら
色調
漁獲
ボソン
総数
，０@@
ＨＳ
年@@
拍@@
かか
ＤＥ
高級
メータ
ォ@@
ニウム
わん
なぜ
脊柱
関心
ＡＦ
柱
組立
宮崎
浮上
ドーピング
深部
血栓
ＭＲＣＰ
成因
無数
Ｃｙ@@
ｂｅｒ
ｏｃｈ
ｅｇ@@
！
ライ@@
カバー
ミーティング
施工
西@@
武
ドーム
テレビジョン
撮影
映像
色
電@@
空
マイ
シンガポール
ノルム
箱@@
ＬＡ
視線
すぎ
後壁
閉塞
ＰＦ@@
黄色
ｕｋ@@
ｅｙ
Ｋｒａ@@
ｍｅｒ
無@@
難
ｌ
ＳＳｃ
戻
交雑
育種
ＬＥＤ
最短
角度
基材
バインダ
無機
止ま
テラス
消滅
模倣
何
どんな
希望
そう
ＳＷ
グレード
ＩＩ
以降
半年
天然
痘
紀@@
元
死@@
恐れ
テフロン
出口
波@@
途上
豊富
転換
液化
メタノール
定数
支部
ＴＣ
ＢＧＡ
ＴＡＢ
テープ
ワイヤ
ボンディング
内科
ｐＨ
鶏肉
ＰＤ@@
脈波
エキス
ブルーベリー
１８
Ｆｅ
Ｂｉ
クリ@@
エイ@@
映画
興@@
隆
消毒
ＣＦ@@
服用
ソ@@
ニン
工夫
横@@
井
戸
ライ
軌跡
ＭＴ@@
ＢＥ
禁止
デンマーク
だけ
Ｄｉｒａｃ
法的
脳死
ほか
子供
体調
同調
和歌山
難病
早急
順@@
番
ベスト
スケジューリング
オリフィス
減ら
努力
一連
最良
チトクローム
避妊
破断
区分
光源
目次
２４
Ｓｅｃ@@
ｏｎｄ@@
ｒｅｓ@@
ｃｉｔ@@
中止
Ａｂ@@
ｄｏｍ@@
ｉｎａｌ
ｃｏｍｐ@@
ｍｅｎｔ
ｓｙｎｄｒｏｍｅ
軟化
潤@@
滑膜
ＣＧＩ
やり取り
ＸＭＬ
フォーマット
算@@
液
硫酸
水溶
即時
卵
小麦
停滞
ｓｓ@@
ｕｅ
ｅｎ@@
ｇｉｎｅｅｒｉｎｇ
一端
アシスト
スーツ
制作
ソー
破@@
完全
ＮＫ@@
Ｆｕｓａｒｉｕｍ
ＩＣＴ
マレーシア
変革
ＦＷＤ
Ｆｒｅｅ
ｅｌｉｎｇ
Ｄｉ@@
ｏｄｅ
アンビル
ＧＰａ
Ｂｒｉｌｌｏｕｉｎ
通産
委託
放置
ドリフト
φ
仮説
検定
既往
国@@
舗装
海水
流速
バタ@@
フライ
路面
模索
ＲＩＳ
搭載
ＲＥ@@
ＧＩ@@
ポータブル
防錆
パタン
コンサルタント
部@@
隊
戦後
確実
灯油
多孔
バーナ
法律
ス@@
ロー
スリップ
資料
排気
トレード
オフ
心
現地
抗
上流
Ｅｓ
ＣＡＥ
こ
立体
よく
併せ
規準
訪問
モニタリング
医師
共有
応@@
Ｖａｃ@@
撹乱
本菌
眼病
蒸気圧
吟味
脈拍
プリンタ
均質
ａｓｔ@@
ｅｒｎ@@
ａｋ
コレステロール
内皮
二乗
カウンセリング
ＨＢｅ
インターフェロン
投与
Ｔｅ
業
守
束
ｖｉ@@
ｅｗ@@
ｄｅｔ@@
ｅｃｔｏｒ
女子
亀@@
岡
宮津
稜@@
ステージ
予定
板
レポーター
咳
Ｇｅ
モル
分率
１９９７
通貨
危機
鈍
女
ドナー
右
誘電
ＢＡ@@
ｎｓ
表題
ＣＰＬ
ニュー
産
ふ化
世@@
話
び
ＷＣ
ボクセル
狭窄
温@@
棲@@
息
飼料
認可
品目
冬季
南
パラフィン
ｅｒｃ@@
ｅｐ@@
Ｔｅｓｔ
ＦＩＳＨ
対処
ＣＰ
情動
秒@@
瞳孔
ＴＡＣ
疑い
減量
Ｃｒｅ
不変
振り子
ステッピング
同一
スギ
多種
カテーテル
ＭＲＳＡ
バンコマイシン
先進
市内
学校
ＳＰ
ＨＶＡ
バースト
間欠
界
リーダ
創造
プラン
もら
コミ@@
ニュ@@
作り出
あた
作り
サスペンション
ジェット
違法
軽
静的
一様
１９
屋上
ｈａｍ
捕集
頬
粘膜
腫脹
異物
爪
楊@@
送@@
り込
下方
針葉
林
論@@
証
Ｒｅ@@
’
ａｎｄ@@
ｏｏ@@
サファイア
ＹＡＧ
共晶
顕微
オート
ファジー
数多く
水中
溶存
相当
壊死
域
ペー@@
パ
論評
集束
不全
剛性
ＳＧＢ
内服
Ａｒ
モアレ
Ｍａｔｈ@@
ａｔｉ@@
ｃａ
海
アラーム
慣れ
電波
学科
Ｖａｎ
ｃｋ
Ｈｅ@@
ｂ
希土
胸部
軟
個人
体格
原価
Ｍａｔｈｉｅｕ
異
マ@@
ジック
ナン@@
パス@@
カル
ｉｃｈ@@
ｏｐｏ@@
ｏｒ@@
ｉｄａｅ
Ｓｙ@@
ｓｉｄ@@
Ｔａ@@
ｃｈｉｎ@@
ＵＳＢ
道路
検知
スクリーニング
術前
７６
ＴＡＥ
私@@
英語
純水
堆積
割れ
衰@@
弱
招
尿
在庫
２００
様式
合同
右足
刺
スライス
微小
さ@@
大切
ＰＳＣ
％
従事
遺産
食@@
卓
農場
イノシシ
シカ
ブタ
以外
ＨＥＶ
ルーチン
ＤＬＳＴ
ヒート
景気
雇用
取組
ＧＩＳＴ
雲@@
解像
子宮
体@@
改質
原則
不妊
Ｄｅｖ@@
ｅＮｅｔ
Ｎｙ@@
ｑｕ@@
プロット
肉
ＶＲＥ
フォトリソグラフィー
海洋
例えば
ダイ@@
クロ@@
イ@@
ック
ナビゲーション
チオ@@
消化
味噌
醤油
醸造
オン
席
太陽
取巻
肢
エピタキシャル
高等
配送
倉庫
乾酪
溶剤
ＭＦ
理想
見な
ベンゼン
化合
革新
懸念
立@@
地点
振興
パブリック
アクセプタンス
干ばつ
州
当局
送付
ｅｓｓ
Ｒｏｂ@@
ＥＣ@@
ＮＥＴ
コンソーシアム
調理
水圧
鉄@@
はか
水平
２００３
ｏｒ
発汗
ＰＣＭ
ＭＣＭ
ｒｏｔ@@
ａｔｉｎｇ
ｉｎｇ@@
ｔｙｐｅ
ｋｎｅ@@
ＩｎＧａＮ
４６
２７
ＧＩＳ
ＯＳ
ＢＬ@@
ＢＳ
ＣＣ
ローカル
ＰＮ
優先
腹水
仕事
孤立
放送
足部
捻@@
挫
クリープ
果た
床材
ＴＲＯＮ
ＲＩＳＣ
塩素
ヨウ素
母
スキーム
主因
ニンジン
過剰
施肥
明瞭
Ｆｅｒｍｉ
外出
意欲
重水
帯電
ＣＹＰ
限
凍結
ダイ
コーン
１９７８
改定
告示
ＤＣＳ
取扱
音声
Ｋｅ@@
ｎｅｔ
ポストゲノム
共役
印刷
生き残
硫化
調製
ラグ@@
協調
行な
人格
劣@@
孤@@
独
嫌@@
動機
２@@
４３０
ｋｅＶ
ＥＨＥＣ
１５７
１７
ＴＵ@@
ＮＥＬ
横
隔膜
ＭＡＰ
Ｕｎｉ@@
Ｌｏ@@
ａｄ
ｉｃｅ
航空
ＬＨＤ
バイオ
団体
訴訟
係@@
争
人間
能動
ウェ@@
ール@@
ズ
ＮＰＯ
水道
発足
インタ
フェイス
周辺
スト@@
ッパー
ハード
ナノ
ＢＮ
Ｈｅｒ@@
ｂｅｒｔ
スクリュー
ページ
リウマチ
出芽
ｓｉＲＮＡ
家屋
ＴＣＡＤ
すべり
鍵
７１
カリウム
ストップ
トレンチ
コレクタ
エミッタ
ターン
短絡
容量
セックス
相手
生涯
質膜
筋@@
ＳＰＥＣＴ
画質
ＦＢＰ
ＯＳＥＭ
法規
耕地
温室
推計
開放
工法
クレーン
頂部
包帯
結核
Ｍｏｄｅｌ
Ｐｏｌ@@
狭心
虚血
今年
有毒
物@@
資
コンタクト
レンズ
外傷
不利
ＫＥＧ
スコアリング
保険
嚢腫
いわゆる
断頭
ＡＰＣ
工学
線幅
深刻
ガウス
ウェーブレット
垂直
ＳＡＲ
実物
樹木
４３
フレーム
野生
跳@@
単独
前頭
縫合
７９
死体
プリント
クラッド
サー
カディ@@
アン@@
遅延
ＰＳＬ
ＵＤＣＡ
ＩＴＯ
広がり
見せ
胆嚢
イットリウム
東海
固化
地層
処分
東
関東
ＳＳＩ
心筋
ハウジング
Ｐｒｉ@@
ｖａｔｅ
Ｆｉｎ@@
ａｎｃｅ
Ｉｎｉｔｉａｔｉｖｅ
コミュニティ
電界
ｉｎｔｅｒ@@
ｒｏｇ@@
ＨＬＡ
ＣＥＣ
ＶＥＧＦ
フィブリノーゲン
付記
指
ＭＬ@@
ＴＳ
３７
新築
新@@
居
引っ@@
越
シック
ハウス
ＳＣＤ
ｒＴＭＳ
慎重
ＨＭ@@
セット
キ
シティ
人種
サファイアレーザ
収束
ＡＢＣ
額
キャンパス
ＧａＩｎＰ
ドーパント
Ｍｇ
余分
精油
足@@
浴
北京
上海
各@@
し@@
る@@
科目
実務
閉鎖
脆弱
ＴＳＡ
ＨＲ
不足
がち
エンター@@
テイ@@
メント
個別
心身
抜粋
天
ぽうそう
ヘッド
無効
肥厚
メカトロニクス
スカラー
アポトーシス
チルト
繋@@
ぎ@@
ベキ
乗
比例
曲線
プログラマブル
ＡＮＤ
ビット
乗用
排
施策
重複
スキャン
オ@@
ッシ@@
ロスコープ
特別
ハロー
公費
集落
ＣＲＦ
メチル
プレド@@
ニ
ロン
硫黄
底部
粘性
沈殿
内面
研@@
摩
都市
暮@@
支店
依頼
受付
小腸
収容
インジウム
ガリウム
精錬
バケット
送り
ワーク
Ｎｉ
尿素
高@@
崎
ＥＣＲ
最
計量
復@@
職
至
勃起
希薄
畜@@
牛
ミネラル
Ｃｕ
回帰
抑うつ
ＰＲＬ
電離
都
当てはめ
リニア
外乱
概括
兆@@
誕生
支
ぜん息
療養
引き@@
こ@@
ＵＤＰ
モンテカルロ
ＭＴ
漏洩
安@@
城
廃棄
ＭＤ@@
ＥＸ
活@@
況
ぶり
ｅｎｔｉ@@
ｍａｌｉｇ@@
少し
デッド
ロック
オーバ@@
Ｂａｒｔｈｅｌ
Ｉｎ
ｄｅｘ
８８
ダイナミックス
家
液@@
替え
Ｒａｍａｎ
Ｐｔ
Ｏｘ
個体
ＲＮＡｉ
主体
慣性
リボン
鎖骨
易
ＰＧ@@
微分
差分
ネック
解消
コンサルティング
河川
エピネフリン
昇圧
比率
ジフテリア
百
ＡＲＤ
Ｎａｆｉｏｎ
ポリ
ピロール
もう
旋回
ａｔｕｒｅ
ルテニウム
錯体
教訓
保全
砕@@
屑
岩
トラップ
マオウ
コース
ドライバ
親和
胎盤
関門
通過
Ｌｕｃ@@
科
甲@@
虫
ボル@@
オ
熱帯
創外
押
少
カンジダ
認知
上顎
補@@
綴
魚類
ジグザグ
フロント
トップ
ＯＰＣ
プ@@
次回
両
左下
腿
熱感
浸潤
硬化
局面
四肢
ニワトリ
蛇
Ｎｅｅｒ
ＴＢ@@
筋力
にく
毛髪
ＭＡ@@
性交
スフィン@@
ミエリン
芸術
埋め
夢
妥当
コヒーレント
重な
エコロジー
ＤＶＴＳ
ＤＶ
ＦＤＴＤ
宣言
監査
ＬＣＡ
づくり
産物
エタン
プロパン
エチレン
ＮＥ@@
屈
曲
Ｒｅｙｎｏｌｄｓ
ヒューズ
張力
単純
Ｍａｙｏ
我々
Ａｔ@@
キナーゼ
頂点
とおり
インテリジェント
ＸＡ
骨塩
気孔
開閉
ね
小さな
開口
ＳＩＭ
読取
テニス
コート
床
残響
磁石
キャスティング
ＤＬＰ
ｄｏｎ@@
ａｌｄ
向@@
モルヒネ
引き起こ
オーディオ
磁束
ケミ@@
コン
増や
レスポンス
廃油
チェック
粉体
球形
静電場
短期
変わ
製
ピン
ＨＦ
Ｌａ@@
ｉｅｒ
６２
ボルト
セッター
ＡＢＳ
ＵＮＩＸ
クローン
等価
ＰＭ@@
ＩＴＰ
トーチ
コイル
６０@@
分極
アッシュ
ヘリコプタ
飛行
備
ｇｌｉ@@
ｏｍａ
備蓄
マンガン
タングステン
鉱
異形成
曝気
会@@
インタビュー
取組み
聞
ＳＣＭ
ＬＥ
オート@@
バイ
光線
アラニン
Ｌｉ
沿
Ｍｉｅ
正@@
整列
つれ
レオロジー
ラインアップ
マーケット
襲@@
決@@
壊
重み
理念
ゆ@@
テント
写像
門
突出
５４
ＦＣ
スライド
５３
腹膜
ＤＰＣ
パッシ@@
ベーション
逆転
ＴＴＲ
脈絡
叢
造血
立ち上がり
ぐ@@
ら@@
樹脂
到達
つまり
前@@
幹線
型式
車両
リ@@
ファレンス
ワイド
レーン
ＦＢ
過渡
糸球体
内圧
腎臓
ｃｈ
ＰＦＧＥ
ＬＶＲＳ
降下
なら
Ｒａｙｌｅｉｇｈ
Ｆｅ@@
軽水
成熟
目
Ｂａ@@
ｅｃｋｌ@@
ｕｎｄ
行え
Ｔｒａｎｓ@@
ｖｅｒ@@
ｓｌ@@
レール
モーター
新生
児
胸腺
ともな
洗剤
箱
記載
掛かり
塊
土砂
カ月
回線
ＴＥ@@
ＳＪＳ
見解
菌糸
ＰＡＳ
Ｇｒｏ@@
ｏｔｔ
キラー
順次
走査
ピクセル
輝度
ｅｎｄ@@
ｒｅｌ@@
骨頭
緩み
９１
塩ビ
ポリプロピレン
ウ@@
ナ@@
ギ
風疹
ＩｇＧ
ＰＣＲ
ヨーク
ピックアップ
Ｉｎｖｅｎｔｏｒ
呼@@
福岡
パッ@@
チ@@
研
決して
破
究極
近接
液滴
ＨＭＩ
ＳＣＡＤＡ
スタチン
ＧＦＲ
水準
ファン
むら
単体
ダイヤフラム
マトリックス
ｒｅｄ
ｒｅ@@
ａｃｔｉｖｅ
ｃｏｌ@@
ｌａｇ@@
ｏｓｉｓ
光法
跡
元素
透水
病的
地熱
発電
衛生
ｒａ@@
ＡＧ
Ｓｅｍｉｃｏｎｄｕｃｔｏｒ
Ｉｎｔｅｒｎａｔｉｏｎａｌ
エンジニアリング
緊急
ＡＧＡ
ＥＨ@@
ＥＤ@@
Ｊｏｈｎ@@
Ｃｈ@@
ｒｉ@@
ｓｔ@@
ロッキング
ＰＬＬ
外径
ｍｍ
パイプ
Ｂａｃｔｅｒ@@
ｆｒａ@@
ｉｌｉｓ
ｃｏｒ@@
ｒｏ@@
純度
骨髄
付け@@
注射
銅
粒度
ＢＡ
盗難
施
ＨＤ
則
両側
Ｎａ
Ｃｌ
ＰＰＰ
血中
ＨＢｓ
分枝
ステム
培
電動
自転
動的
マルチメディア
赤色
脳@@
麻ひ
適性
水系
ペースト
ヘテロ
エピタキシー
倍
変電
ゴム
突起
先端
平面
Ｇａｌ@@
ｋｉｎ
曝露
照合
ＣＧ
Ｄｕｃｈｅｎｎｅ
吸気
ＭＩＣ
活量
肝臓
ｕｐ@@
過度
導
破綻
次第
吐@@
ＤＦＢ
語@@
た@@
同年
右側
紅斑
知@@
テレビ
視聴
グラフ
イル@@
ａｉｌ
析出
臨界
ＥＬ@@
ＭＯＣＶＤ
近
感覚
プール
ソーティング
追@@
究
すなわち
硬変
ＴＳＡｂ
ｉｇｈｔ
ポーラロン
もとづ
地盤
池
屋根
ＥＭＣ
転がり
ＤＬ@@
ａｓｈ@@
ｂｕｒ@@
ＣＬ
白@@
人物
欠け
タイピング
無駄
球面
脳幹
生き
ＳＱＵＩＤ
屈折
Ｍａｘｗｅｌｌ
Ｓｎ@@
ｅｌｌ
法則
あらゆる
煩雑
末梢
低速
ｌａｔ@@
炭
香港
沸
ショック
ＴＫ
鋼板
麻酔
喉頭
ＭＳＴ
保安
ＣＧＨ
右@@
中指
りゅう
術
ＣＡＬＳ
ＥＣ
アクション
ＣＳＰ
ピッチ
狭
さらなる
出し
エレクトロ
ルミネセンス
ｂａ
フィブロ@@
ネクチン
咽頭
ｉｓｓ@@
ｕｒｅ
弁別
Ａｓｐｅｒｇ@@
ｉｌｌｕｓ
設け
ソリッド
解釈
気腫
σ
タウリン
描出
ＳＩＭＳ
シリコーン
パウダー
ＭｙＤ
食事
承認
救
欠@@
伸び
ｓｍ
知的
流動
塔@@
嫌気
推算
ｅｂ@@
ｆｆ
ａｎｃ@@
ｌｉ
電線
ｍｅｓｈ
ｐｌｕｇ
引き続
グアニン
ヒント
Ｓｅｍｉｃ@@
ｏｎｄｕｃｔ@@
ＤＥ@@
汎用
Ｅｘ@@
ｐｌ@@
微視
Ｌａｎｇｅｖｉｎ
冷媒
ペース
引@@
どこ
ＡＳＴ
画面
切替え
半分
外食
８７
ＨＭ
帯状
雲
リソース
ロジック
メモリ
ＰＴ
ソリトン
英国
花@@
壇
苗
宿@@
草
ランタニド
ピストン
ホーン
エア@@
サイ@@
レン
四
環状
ＩＳＨ
Ｃ．
ｔｒａ@@
ｏｍａｔｉ@@
Ｓｒ@@
ＴｉＯ２
ＴｉＯ３
前立
肥大
エ@@
ッセイ
超過
証拠
十二
指腸
町@@
田
大きさ
胆管
ＭＮ
ＭＣＮ
半数
完熟
カカオ
芳香
豆
ント
バルビ@@
タール
破裂
８@@
６３
節点
，@@
スポーツ
？
腹
トレ@@
ハロース
χ
コドン
Ｍａｒａｎｇｏｎｉ
みな
技法
共振
耐震
飯
ログ
木
ｏｌｔ@@
ｚ
ＰＴＥ
対症
ｓｕｒ@@
ｓｉｔｅ
新宿
三@@
ビル
駐車
特
地表
籾@@
開花
遅
時空
わが
９０００
改革
スパイラル
吐き気
ＭＥＳ
スケジューラ
ＡＵＣ
後遺
尿道
募
趣味
覚@@
チャージ
ストリング
等し
馴@@
染@@
ｔｕｍｏｒ
ｖ
フィンガー
フラグメント
ＡＩＣ
Ｌａｎｄａｕ
地@@
Ｓｉｇｎ@@
ａｌ
Ｉｎｔｅｇ@@
ｔｙ
虫歯
書込
備@@
ＤＡ
コンバータ
従業
員
本質
スチーム
資金
文@@
房
見込
ＡＲＡＳ
１０９
ＡＣＥＩ
原核
緑@@
藻類
緑色
色素
クラ@@
メン
軟鋼
ノウハウ
リーダ@@
シップ
ＭＤＣＴ
ＤＳＣ
画@@
素数
セルロース
ＤＭＤ
下腹
繰返
ＳＰ@@
取り付け
カップ
ライト
足
顔面
死因
Ｒａ@@
ａｃｈ
Ｆｉｌ@@
ｔｅｒ
読出し
ＭＬ
萎縮
ＩＢ
開腹
九州
クロロホルム
アセトン
多重
効用
缶
ＤＤ@@
強み
乳房
キャラクタ
日和見
プロトコール
昨年
利得
くな
最終
鉛
亜鉛
塗装
１１５
始まり
翼
寒天
便秘
細線
露出
終端
ＡＬ
巨大
乳頭
結膜
ムチン
ボール
ＳＴＳ
階段
パートナー
機密
焼鈍
スピネル
ｌｏｘ@@
ｉｎｄ@@
ｏｍｅｔ@@
コリン
スクリーン
ップ
ＣＴＩ
短@@
ｄｓ
画期
左足
下が
ドラッグ
血
ｖｉｖｏ
接点
ＯＦ@@
溶質
自身
ルート
決め手
Ｓｕｐｅｒ
ｓｉｎｇ@@
ｕｌａｒ
ｅｎｔｉａｌ
公式
司
フグ
浮@@
き出
予算
ＦＰＧＡ
ＡＳＩＣ
ベンダー
接線
法線
信@@
ロール
ブレーキ
日中
人数
Ｋｏｎｄｏ
Ｓｎ
インターフェース
ＴＰＭ
ＣＡ
密着
良く
移
エット
ｕｂ@@
すら
価値
パラダイム
得意
民生
ホッピング
ミドルウェア
パラレル
ポート
日@@
石
三菱
単に
特化
政治
外@@
交
Ｅｗｉｎｇ
世紀
年度
塗料
ＳＣＣ
脳炎
制@@
止
ＦＯ@@
ＵＰ
回避
如何
盛@@
高価
ＡＡ
討議
福井
ＮＡＳＡ
Ｔｅｒ@@
ｒａ
ブロッキング
灰
堆肥
発酵
混成
車体
脱落
本法
ＷＨＯ
焼却
ＡＳＣＡ
熱的
ＢＲ@@
抗菌
ＮＳ
単剤
感性
美@@
慢性
幼
ＢＭＩ
学@@
経口
摂食
深め
パトロール
モバイル
カエル
鶏卵
イモリ
トポロジー
曲面
距離
イントラネット
プロ@@
キシ
ＤＮＳ
マネー@@
ジャ
描画
準備
メカニ@@
クス
隔離
粘@@
ｏｓｔ@@
ｏｉｄ@@
８４
燃
冷却
凝縮
飛@@
づけ
現
ＮＯ@@
ＩＳＥ
実
塗膜
引き金
副生物
穴
輸出
ベルギー
韓国
交渉
コンポーネント
抜去
大豆
乗り@@
家畜
糞@@
由来
ＧＤ
ドライバー
磁気圏
キー@@
パーツ
対物
病原体
ＨＨ
ＬＨ
ｉｓｅｎｂｅｒｇ
‐@@
ｏｉ
会合
たて
ＬＣＣ
出@@
っ@@
張り
ＤＭ@@
ＳＯ
平方
ミグ
グ
答え
風況
風力
パー@@
テスタ
ボトル
封入
ｒｏｍ@@
ｅｓ@@
ｙｍ@@
点@@
労力
薬@@
具体
ート
油田
逸
啓蒙
薬学
遊星
歯車
種間
防
せい
医@@
局
り患@@
整脈
無事
保有
鱗屑
退院
胸@@
焼け
収録
ハロゲン
ハドロン
ＯＰ
表@@
ＷＡＮ
レクリ@@
エーション
脊椎
ＰＣＰ
ＭＴＸ
増量
速やか
増幅
糖類
どう
ＭＡＬＴ
混入
Ｍｉ@@
ｕｒａ
離散
飢@@
Ｖｏｌ@@
Ｄｙ
移行
インター@@
バル
シナリオ
上@@
級
達
一助
後@@
傾
ＳＮ
ＦＧＦ
真皮
フェーズ
溶@@
断
犬@@
いわ@@
人々
魅@@
了
土地
ＣＰＫ
復帰
鎮痛
Ｖｉｓ@@
インストール
ＣＥ
頭皮
厚み
要約
現行
順
中耳
ｍｓ
ＥＶ
ＣＨＤ@@
Ｙ
多岐
技
沿岸
茶
潮@@
ロンドン
オブザーバ
取り組み
栃木
ハイ@@
ポリカーボネート
チューブ
ＤＬＣ
あり
スペックル
製@@
版
ＡＬＳ
介在
ｓｔａｇｅ
合理
決
ランプ
引張り
ＭＡＸ
Ｊａｖａ
ライブラリ
職業
アブレーション
交互
岡山
千@@
屋
ホッパ
ＴＦＥ
ショット
主催
ゲイ
ＳＴＤ
ＵＣＮ
開催
気候
名古屋
策定
軌@@
範
希釈
造影
ギヤ
発音
音素
乱れ
狙い
ずれ
ｉｄ
Ｗｈ@@
ｉｔｔ@@
ａｋ@@
固形
抱
ブラック
ホール
ダスト
ナイフ
切削
ＶＲ
Ｃｏｕｌ@@
ｏｍ
断片
解離
メラトニン
鋳@@
身体
ＯＦ
黒潮
Ｌｉｐ@@
いまだ
拭
切れ
静
ｆ
ポリープ
腺腫
スペクトラム
形式
主導
官民
ーダ@@
ン
ザイ@@
ール
ガ@@
ボン
ウガンダ
コン@@
ゴ
ＳＴＩ
側壁
滑らか
書込み
生徒
届@@
Ｃｒｏｈｎ
皮内
群発頭痛
ＤＳＰ
シリアル
Ｒａｐ@@
２００６
出荷
ＳＩＦ
ＦＦ
ＴＤ@@
ＳＡＳ
ＣＤ@@
筒
左股
朝@@
間@@
就寝
外力
グランド
アンカー
自在
親子
閉じ込め
測量
ロシア
新潟
柏崎
プルトニウム
フォーラム
クロマトグラフ
きょう
悩@@
み@@
苦し
岩塩
スクラッチ
米飯
節約
ＶＯ@@
空隙
電着
有望
λ
ｃｍ
オーダー
理化学
センタ
ケミカル
賦活
ＰＨＴ
直後
幻覚
ＡＲＰ
撮像
Ｐｒｅｓ@@
ｃｒｉｐ@@
ｔｉｏｎ
Ｂａｃｋｇｒｏｕｎｄ
ｅｃｋ
ｂｌｅｍ
ｐｌａｎａｔｉｏｎ
Ｍａｎａｇｅｍｅｎｔ
ｆｅｒｅｎｃｅｓ
ｑｕｉｒｙ
ｓｕｌｔａｔｉｏｎ
ＪＩＣＡ
ケニア
要請
種子
重点
大脳
基底
皮質
特質
鮮明
波束
コリ@@
Ｃａｒ@@
重大
積
ＡＮＮ
トレーニング
イト
ＬＰ
ノー@@
２００５
ＣＳ
ＡＳＰ
サーバー
ブロ@@
ード
本格
誤診
意外
ＬＥＳ
ＰＩＶ
発信
背部
網状
サス
急峻
誤
ロット
後部
矯正
ＤＸ
５４０
ＭＰａ
ｋＷ
乗@@
馬
ジン
地すべり
斜
ガ
モ
原油
産@@
渋滞
駒
コミュニ@@
ティー
対@@
‘
け@@
ま@@
く@@
ガン@@
シクロ@@
死滅
ｇａｇ
座
攻撃
陽圧
ＩＰＣＣ
ｕｔ@@
ｐｕ@@
寄せ
まれ
オイル
パン
毎@@
２７０
枚
ＥＭＲ
母指
爪甲
基部
右下腿
ＴＤＭ
チャンネル
カン
膨大
バレー
インキュ@@
ベータ
ベン@@
キャピタル
イチゴ
煎
飲用
ＣＲＰ
ユース
ＭＬＤ
ｅｓｃ@@
ｒｉｐ@@
ｅｎｇ@@
合弁
モ@@
リック
１９８１
ＮＫ
１２７
中期
探
パスワード
出席
硬
ＰＭ
ＧＴ
ホット
４４
発端
判例
排水
スポンジ
高調波
ＡＢ
ＦＭＤ
大域
斜め
入射
アルゴン
エージェント
教科
書
参考
なお
子ども
断面
しん
出液
嚢胞
パフォーマンス
代償
西部
ＮＤ@@
推測
ホウ素
ジルコニウム
総
Ｆａｒａｄａｙ
接近
単調
パニック
繰返し
ＰＶＡ
増強
たい@@
して
絹
ｓｔｉ@@
多型
残@@
売り上げ
フラーレン
ＳＩＬ
シンチグラム
ＵＰＳ
鉄鋼
板厚
スキー
ジャンプ
ＨＤＤ
積極
空孔
ｂｃｃ
走@@
Ａｌ@@
静止
レトロ
ＣＮＴ
Ｔｉ@@
ＭｇＯ
Ｚ
ＭＥＴ
泌尿
両者
併用
Ｉｎｔｅｌ
国民
クラスター
平ら
重なり
磨
滑り
起
ポピュ@@
ラー
メロ@@
ディ
シェア
提携
．@@
ｓｏｍ@@
ｎｕｓ
ＭＯ@@
ＭＰ
許容
Ｖｅｒ@@
ｏｇ
ＨＤＬ
ライフ
男子
ＦＥ
現実
１９３８
Ｇｒａ@@
Ｗｏｌ@@
酒@@
エルゴ@@
タミン
説
唱@@
紡糸
極@@
硬度
ミリ
ＩＶＣ
収益
保磁力
利尿
クレアチニン
測
方面
角化
毎
キンク
Ｏｈｍ
立上り
ＡＺ
０
：
１９８３
真菌
見積
い@@
ｏｔｔ@@
族
交差
ＭＡＧ
新規格
床@@
腹@@
ＢＴ@@
ＮＮ
光度
暗@@
闇
餌@@
訪れ
舟
ぎ
摂動
ット@@
人為
レ@@
ｓｔｒｏ@@
ｔｈｒｉ@@
ｓｉｎ
ｅｎｓｉｓ
ｕｌ@@
ａｎｃｈ@@
ｅｔ@@
ｓｔｅ@@
ａｎｉ
水晶
煙突
鉛直
ＲＣ
ＶＣ
親水
アクリル
切片
５５０
ｂｐ
影@@
極
改めて
ＴＢ
トヨタ
日産
Ｊａｐａｎ
Ａｕｔｏｍ@@
ｔｉｖｅ
ｔｗ@@
ａｒｅ
Ｐｌ@@
ａｎｄ
Ａｒｃｈｉｔｅｃｔｕｒｅ
多発
印加
γ
Ｊｏｓｅｐｈｓｏｎ
随意
切り花
乾式
ハッシュ
緩
総体
Ｙ@@
ＪＡＥＲＩ
ＡＶ@@
等@@
ＬＤＨ
診療
Ｓｕ@@
ｒｏ
Ｆｒａｎ@@
当時
ＰＥＳ
図説
Ｅｕ@@
ｋａ
３０００
補体
下垂
師
ＢＲ
シリカ
姿
ＭＡＳＨ
事務
納入
ＵＶＬ
マグネトロン
Ｈｇ
ＬＯ@@
ＮＡＳ@@
念
他国
標高
火山
解@@
答
正当
ｓｕｌ@@
ｃｕｓ
ｐｏ@@
ｅｒｉ@@
ｔｅｓｔ
液状
褐色
斑
チェ@@
ッカー
ＳＢ@@
無限
板@@
逓@@
Ｓｃｈｒｏｅｄｉｎｇｅｒ
梗塞
癖
欠損
ＶＩ
検体
ａｗａ
腰
ユニット
筋肉
十二指腸
潰
ａｌｌ@@
中学
田@@
辺
木@@
津
ＰＬＬＡ
ペンタゾシン
Ｃｌｏ@@
ｄｉｕｍ
ａｐ@@
ｔｒｉ@@
ｆｉｃ@@
余命
ＱＴ
白金
グリーン
購入
部位
下腿
置き換え
潜在
ビタミン
欠乏
とらえ
失語
Ｓｅｅｂｅｃｋ
論理
Ｐｒｏｐｉｏｎｉｂａｃｔｅｒｉｕｍ
培地
糞便
ｓｐ@@
マーキング
失敗
囲
若年
プロジェクタ
ＶＬ@@
ＦＳ
ａｒｇｅ
Ｆｌｏ@@
ｕｃｔｕｒｅ
ＣＭＶ
η
消@@
え@@
去
報
ＣＩＡ
スピン@@
フリップ
本邦
退行
ＤＷＤＭ
ＰＴＰ
チャレンジ
ＨＩ
棒
効@@
ボイド
審査
密
ＰＣＳ
マトリクス
ジャイ@@
アント
マイクロ@@
乳牛
緊張
味@@
感情
個性
副@@
腕@@
振り
拘束
ＴＱＣ
ホルダ
シャン@@
質的
ヨード
気圧
旅行
回数
ＡＬＰ
高値
若者
土木
浮遊
教材
ＭＤ
１０１
題記
閉
表わ
本書
インシュリン
ＨＰＶ
遠
ストリーマ
曲率
形質
Ｍｏｎｔ@@
Ｅｔｈｅｒｎｅｔ
ロジスティ@@
広義
ＨＬ
純
古典
膨@@
伸張
ドリル
アダプティブ
縁@@
房室
パック
ＩＥ@@
ＭＣＴ
ＲＦＡ
右手
点火
Ｇａｕｓｓｉａｎ
可解
ＩＩ@@
＝
集光
頻繁
配電
ネオン
初回
頑@@
固
生後
乳児
貝@@
チョーク
ＦｅＰｔ
ａｋｉ
単@@
模様
的確
百@@
貨
店
胆汁
ｐｅｒｆ@@
ｒｉｎｇ@@
新星
捕獲
遊離
熱電
Ｂｉ@@
パル@@
サ
トリガ
スパーク
Ｆａｎｃｏｎｉ
貧血
ＩＩＩ
８０@@
硝化
ビーズ
室
痔
ＵＲＬ
シュー@@
マ
水和
匂い
内壁
ｇｉ@@
ｒｉｓ
身近
ｏｄ@@
ヌル
振@@
多核
肉眼
ダイナミクス
満た
耐
グルコース
末
ＷＴＯ
加盟
ＧＳ
ぶどう
球菌
トレーサ
１６０
Ｇｂ
ＯＰＮ
ｖａｎ
ｄｅｒ
Ｗａａｌｓ
香料
鎮静
地質
胞子
ＥＴＣ
ｉｓ@@
ｏｎｉ@@
ａｚ@@
ａｍｐ@@
ｏｍｙｃ@@
ｐｙ@@
ｚ@@
ｉｄｅ
つぎ
多項
大いに
いえ
時々
ホルムアルデヒド
ＤＯ@@
置換え
逆行
トレーサー
赤@@
標識
脱毛
Ａｃ@@
ｔｉｖ@@
ＣＯＲＢＡ
ＤＣＯＭ
合意
輸血
緑
Ｍｉｃｒｏｓｏｆｔ
防@@
局部
立証
盛り込
懸@@
個所
局地
アメダ@@
レーダ
定
忠実
搬送
ヘモ@@
ジ
デ@@
黒色
調
ａｇｎ@@
ｐｒｏｃ@@
ｅｄ@@
ｃｏｍ@@
ｂｉｎ@@
ベンチ
踏まえ
ＲＢＭ
苔
せん
優良
Ｄｅｓｉｇｎ
ｆｏｒ
ｍａ
自治
才
塞栓
肌@@
レイ@@
ティング
フランジ
ウラン
手動
トランシーバ
コンプレッサ
易@@
精神
分裂
多剤
耐性
０００
文
仕組
ｏｃｈ@@
原動
求心
ＢＣ
味覚
丘
ＬＡＮ@@
基幹
整数
農産
送
サリドマイド
散布
プランクトン
サイリスタ
準
レーダー
ＥＫ
鋭敏
多角
迷路
オッ@@
定理
Ｃｕ@@
ａｔｉｏｎ@@
ｓｈｉ@@
プレゼンテーション
ＯＨＰ
１９９１
付与
予言
ニア
ミス
件数
職務
利益
髄液
Ａｒｒｈｅｎｉｕｓ
ｏｒｅ
ｕ
脆化
隔壁
ＷＢＣ
度合い
わけ
モニター
イン@@
テル
ｉｎｅ
Ｐｅｎｔｉ@@
ひっか@@
ハン@@
ディ@@
キャップ
ＤＴ
Ｄｉｓ@@
ｒｅｔ@@
ｆｅｒ
収穫
見つけ
８５
６９
６１
推論
飲@@
み込み
に@@
特有
ｄｙｓ@@
エントリー
ＳＩＳ
ギャ@@
ラリー
融点
ＮＭ
矛盾
ＰＬ
ボート
休@@
憩
組み入れ
共用
貫通
アース
ａｓｅ
ｓｔ
シーケンス
光波
コヒーレンス
脱水
予報
警報
ＦＤＧ
汎発
映@@
所望
テクスチャ
カタログ
ＭＦＭ
静@@
ＭＢＰ
ｏｇｅｎ@@
ｉｔｙ
κ
土@@
情
スイス
財@@
団
渚
美化
清掃
不能
ベンチャー
着実
育
充実
欠かせ
インチ
Ｆｒｅｓｎｅｌ
ゾーン
ＦＺ@@
鉄骨
しかも
１２０
ａｙ@@
ｓｉａ
創面
流入
脱硝
廃
除染
ばい
焼
定量
セグメント
工事
ＣＹ@@
企画
アラキドン
誘起
農家
ＲＤ@@
取扱い
箇所
Ｚｅｒ@@
ｎｉ@@
ｋｅ
級数
遂げ
Ｖｉ@@
ｋ@@
スムーズ
ｃｌｅ@@
ｏｏｄ
ご
ｍＭ
宮
熱間
エンコーダ
伝わ
量産
ダメージ
色@@
ＵＶ
ｓｔｒ@@
ロバスト
初め
ミニ
拒絶
束縛
Ｌａｒ@@
ｓｅｎ
ＩＶ
ビフェニル
延性
ｉｔａ
現代
ａｔｅｄ
ｔｉａｌ
ｏｐｌａｓ@@
ｔｉｎ
ｍｅ
ＶＩＩＩ
インヒビター
ｒｕ@@
Ｓａｆ@@
Ｓｅ@@
ワークショップ
ＭＡＳ@@
ＯＭ
広報
アウ@@
トリ@@
ＥＰ@@
番組
売上
盲腸
外
腹壁
Ｍｙｃ@@
ｐｕｌ@@
ｉｓ
ねじ@@
ダイン
Ｃ．@@
ｐｎｅｕｍｏｎｉａｅ
ＳＡＲＳ
滞在
ビジ@@
スマン
過敏
しびれ
Ｃｏｎｔｒｏｌ
コードレス
ＬＥＴ
線型
揃
絞
抑え
筋性
ｒｉｃ@@
ｖｅｒ
ｋｏｖ
可逆
ＶＥＲ@@
連想
反@@
響
Ａｎ@@
羽根
ｂｅｒｇ
チャープ
残
たり
妊娠
胎児
シンクロトロン
マージン
ＤＩＲ
投入
ＡＴＰ
命名
主病
Ｏｘ@@
ｆｏｒｄ
医
酸@@
素性
重度
健@@
忘
及
透過
福島
須@@
賀@@
川
ＩＴＢ
シア
極大
経
ＲＭＳ
ｕｄ@@
ｇｉｎｇ
ボディ
ＰＧＩ
ナノメートル
正弦
ｓｃｈ@@
違和
発疹
ｓｕ@@
ｉｅｎｃｙ
ｆｒａｃｔ@@
メカニ
カルストレス
早@@
老
ＨＳＰＩＣＥ
ファ@@
ンド@@
リ
いん石
定式
出版
霜@@
降
Ｗｉｌｓｏｎ
音場
アブ@@
ソリ@@
ュート
翌@@
日間
北海道
所要
上限
南方
下顎
特長
レンジ
光電
モー@@
海馬
ワン
２５@@
アラスカ
ライダ
エーロゾル
予期
ぬ
公的
根気
Ｔａｙｌｏｒ
隣接
勢
当面
Ｍａｔ@@
Ｂｌ@@
８０
グリース
フラクタル
ｔｉｓ
ＡＳＥＡＮ
ファイ@@
ナンス
Ｍｏｒ@@
Ｓｉｎｇ@@
ＣＭＰ
Ｃｈｅｍｉｃａｌ
Ｍｅｃｈａｎ@@
ｈｉｎｇ
アドレス
暗
プライ@@
かつて
差別
集約
ＤＨ
メタル
飲料
左膝
ＳＬＭ
失調
同軸
手書き
ジェ@@
スチャー
指示
ＲＭＦ
ブロードバンド
トラフィック
合@@
衆
ＨＣ
チュ@@
バー@@
ベ@@
ナ
少数
菌株
ｄｉｆｆｕｓｅ
ｏｕｔ@@
ｂｒｅ@@
被験
説@@
読
紙
Ｑ@@
ｗ
クール
実測
涼@@
暖か
外気
決ま
限り
低率
赤
血小
ＳＯＰ
冷房
スケジュール
エキスパ@@
ンダ
倍率
フォトレジスト
アスペクト
粗度
ブ@@
フォー@@
メーション
管状
瞬時
ＡＴ
ＳＫ
アルブミン
異方
獣医療
ｅｃｈ
ブランド
カニクイザル
ＴＮＦ
ＯＬＥＤ
中空
纏め
Ａｕ
Ｐｄ
プラ@@
トー
ＷＬＰ
はんだ
ポスト
端子
コンテスト
Ａｌｐｈ@@
乱用
血糖
ＮＩＤＤＭ
ストリップ
諸元
作為
ヌ@@
ソ
イド
濃厚
姉
同種
在宅
尿酸
ＯＬＥ
＋
阻害
フォード
継手
風車
ランニング
ふくそう
閉込め
核@@
ザー
Ｔｒ@@
ステレオ
ＴＲ@@
交感
離れ
ｋＯｅ
相模原
貨物
測度
背面
ＲＩＡ
エ
スターゼ
鋳込
焼成
微少
浸水
ｖｉｌｌｅ
ウエスト
ナイル
環
源@@
出産
クッション
姿勢
ブラインド
通風
油@@
セレン
アリ@@
補給
毛
つ@@
活力
膿汁
車輪
ＲＴ
レース
空中
作曲
自分
偏
ｒｉｎ@@
結腸
左右
ＥＰＬ
キーポイント
ＨＤ@@
ＧＦ
抑圧
該当
ＰＯ
ＨＲＴ
陳
落
氷雪
吹き@@
雪
廃水
引き起
希少
致死
変数
マイクロプロセッサ
亘
雨
トリチウム
正孔
霞@@
ケ浦
波浪
店舗
良性
士
高速度
ゴミ
命
酒
カフェイン
主軸
ＤＬＳ
ｐｏｌ
凝@@
クリティカル
ｓｏｆｔ
ＣＬ@@
ＷｉｎｄｏｗｓＮＴ
コネクション
ポーリング
異@@
Ｆｏｕｒｉｅｒ
失
不確か
Ｔｉ
替わり
Ｃｏ
アリル
保湿
クリーム
ロ@@
ーション
しわ
冗長
有力
収率
ＰＰＳ
包括
ＦＢＧ
炭@@
過大
線条
視床
はっ@@
ワックス
ノ@@
ＫＯ@@
緑地
解熱
９００１
上が
拡が
ＴＨＦ
洗浄
シラ@@
駆除
殺虫
北西
幾
典型
インタフェース
ＩＤ@@
ＳＣ@@
恒久
るつぼ
飲
用量
臼蓋
縁
ＵＬＳＩ
通り
趣旨
肘
スタル
稼動
ＣＦＳ
カーネル
Ｐａｒ@@
ｉｔ
Ｏｎｅ
関わ
ｔｏｔａｌ
ｍｅｓ@@
ｅｃｔ@@
ｅｘｃ@@
ｉｓｉｏｎ
ＴＭＥ
ｉｒ@@
ｍａｒ@@
増悪
料
算定
向か
穿通
フレームワーク
摩耗
沖@@
中@@
握力
チームワーク
組
抱え
深度
Ｒｕ@@
ＰＦ
とどま
ＡＨＰ
全長
皮
沈着
腫大
アクチニド
メトロ
全球
Ｆｕ@@
ｉｏ
Ｉｍ@@
ａｔｏ
Ａｓ@@
意志
物流
造船
Ｂｏｗ@@
Ｐａｐ@@
本人
手軽
今@@
ＮＱ@@
パラメトリック
ＱＲ
良質
プレドニゾロン
末端
皮疹
；
インク
上腕
ソー@@
シャル
ワー@@
ＳＶ@@
ローディング
ＬＡＮＤＳＡＴ
直面
現存
機体
僅か
エタ@@
フリンジ
ＤＦＷＭ
ＦＩ@@
エマルジョン
こう合
ぬれ
ドラ@@
談
ポリペプチド
青
換え
シーケ@@
可
ＣＦＴ
感じ
後腹膜
解放
島状
西洋
出願
漁期
漁業
冷
活か
プロジェクション
ハード@@
ウエ@@
アー
アミド
Ｉｒ@@
つき
ＣＢ
Ｃａｌｏｇｅｒｏ
カレント
クロス
セクション
ｓｉｔ@@
ａｎｏ
欠
トリミング
厚膜
講師
ゲートウェイ
メル@@
デス
クー@@
ペ
受光
ＦＡ@@
ＵＬ@@
Ａｕ@@
Ｃｓ
背後
ＧＭＲ
増進
ｉｎｔ
吃@@
Ｍｏ
Ｇａ
熱流
ＮＴ@@
しょう
軽量
ふた
アニ@@
キス
若
離床
疎通
ＭＹＤ
ＨＳＳ
ＳＷ@@
占有
１１１
分圧
工作
除雪
再び
担い手
食料
パッド
ＬＯＮＷＯＲ@@
ＳＲ
コークス
湖
沼
アオコ
淡水
皮@@
脂
夏@@
受容
ネガティブ
３１０
売@@
話し合
措置
登場
あわせ
もし
博物
見学
飛び
派生
テロ@@
線@@
溶
ウロキナーゼ
ヘパリン
わずか
Ｇｒｅｅｎ
相乗
劇的
音@@
ＳＣＴ
ｒｅｖｉ@@
後ろ
向き
初診
気付
Ｍｏｅｓｓｂａｕｅｒ
機種
五@@
並べ
Ｋｌｅｂｓｉｅｌｌａ
ニホン
発
具@@
勧め
付き
レギュレータ
渦@@
頂上
周り
グラ@@
のち
ホログラム
エー@@
デン
オーストラリア
ＫＥＧＧ
貿易
概況
内包
しっかり
頭蓋
ＣＤＭＡ
署名
ピコ
川崎
プロトン
結像
有名
細孔
くえ
野球
進路
連動
完了
リース
字
ｖｉｔｒｏ
ゼロ
そ@@
畑
豚@@
押込
数字
記号
ＭＥＤ
ＩＣＤ
フック
かか@@
ＳＰＩＣＥ
モノ
文明
ミエ@@
ログラフィー
９２
ｐｌａｙ
Ｗｏｒｋｓ
試@@
作品
Ｍａｄ@@
水溶液
フォトルミネ@@
ッセンス
ｂｒａ@@
ｙｃ@@
ｏｕｓ
ハエ
ファウ@@
ＣＣＰ
モチーフ
レシピエント
鈴@@
鹿
条例
Ｕｌ@@
Ｓｃ@@
さえ
直立
頃
零点
微妙
ペン
水性
インキ
ひ素
カドミウム
ｍａｎ
ｖｅｌ@@
号
ＢＯ@@
広角
網@@
嚢
脱出
ト@@
グル
溶け
呼気
ごろ
ＲＴＧ
ＢＡＳＥ
スクリ@@
プト
アナターゼ
ド
リフト
スクロ@@
応じ
注視
グ@@
ひ
の@@
どり
ＭＳＤＳ
規
Ｖｉｒｔｕａｌ
Ｂｏ@@
ａｒｄ
中継
メイン
映
ンス
看@@
妊婦
スタント
昆@@
割当て
ウェブ
“
ａｒｇ@@
”
リピート
５０００
伸ば
集熱
融雪
外泊
ｍｇ
ＣＭＣ
為
ＰＩ
トルエン
吸入
ｌｉｍ@@
ｐｐ@@
Ｆｏ@@
ユーザー
液性
マシニング
台数
河
初
ＮＩＲＳ
ＰＴＳＤ
有無
奥行き
ＮＯＭＳＴ
集@@
結
座位
劣性
術式
Ｌｉｎ@@
９５
米
試算
ＱＡＭ
モデム
ＯＦＤＭ
ＳＦ@@
デモ
正極
ロッ@@
スプリング
ＡＴＣ
とりまとめ
創成
ホテル
商業
ＳＧＰ
コンテクスト
なか
ファクター
修@@
まま
塑性
１９９３
輪
プラット
著作
権
経皮
レポート
急
ｔ／
香り
ひら@@
が@@
ＤＣＴ
トピック
講義
景観
転@@
１３８
駆使
懇@@
点検
網目
ＨＩＭＡＣ
ＳＡＩ
乏し
胸膜
きた
イタイイタイ
臓器
ＤＰＤ
題材
Ｐｄ@@
救急
見逃
尿糖
レリーフ
体積
腹腔
血性
大網
血腫
拘
府@@
責任
１４０
ｍＡ
膝蓋
斑@@
難渋
和
欠失
分業
精査
更なる
ＥＵ@@
発行
Ｍａｒｋ@@
ｔｉｎｇ
ａｂｌｅ
ｅｓ
Ｔｒａ@@
ａｔｅ
拘縮
ＯＣＨ
暴露
引っ張
ＵＭ
ＢＤ
ｅｈ@@
ｉｎｇｅｒ
ｉｍ
ａｔｈ@@
ＣＳ@@
ＤＩＰ
Ｇｅ@@
Ｎｅｔ
ｌｙ
ＰＡＤ
引張
ＴＴ
スタディ
警告
トラ@@
ム
路線
容器
部屋
仕@@
加圧
ＴＮＭ
出光
排他
Ｖｐｒ
逃@@
走
石灰
石膏
判
損害
賠@@
償
Ｈｙｐ@@
ｔｈｅ@@
ｓｉ@@
Ｃｒｅ@@
ａｔｏｒ
指向
高炉
観光
ＣＫ
逸脱
首@@
２０２０
バ@@
ケ@@
ツ
超え
トルコ
終点
ＩＬＤ
円
ＣＳＡ
ＰＡＡ
Ｐｅｒ@@
リク@@
スト
ＨＢｃ
ＭＡＭＭＯＳ
エレメント
スタンダード
アイランド
ビキ@@
析
回顧
歩み
能率
ＦＴＴＨ
因@@
ジェル
流路
バック
グラウンド
Ｅｎｇｉｎｅｅｒｉｎｇ
ＰＤＡ
プラス
コンピューティング
ＬＣＳ
ｉｂ
ヤマ@@
ネ
森
消火
下り
陶@@
芸
ｓｃｒｅｗ
ｕｔｔ@@
ｒｅｓｓ
ＳＦ
患児
愛@@
床下
若干
毎日
ＥＤＦＡ
×
μｍ
閉じ
湾
起@@
船
暖房
学童
２０@@
根@@
茎
ふ
生長
カバ
Ｎｏｔ@@
新聞
安心
鉄筋
リフレッシュ
不動
核内
カスケード
ツリー
荏原
航跡
ベクタ
縦
ミー
ｋＤａ
内膜
外膜
乳腺
ＬＭＡ
医薬
タグ
累積
常識
例外
ＡＣＣ
痛覚
カン@@
衰退
線図
厳重
届け出
シャワー
ｌｉｐ@@
近縁
敏感
組み立て
ＳＧ
内腔
リッチ
脆
ＩＣＲＦ
揺らぎ
ＰＳＡ
リソグラフィー
薄@@
め
Ｈｂ
Ｎｏｖ@@
Ｓｙｓｔｅｍｓ
４７０
７@@
人@@
ｃＢＮ
ルチル
チタ@@
ニル
酸性
偶数
融液
ＵＳ@@
クラミジア
補充
首
ｙｓｈｅｖ
沢@@
ＤＥＰ
即ち
変態
ＴｉＮｉ
ｖａｒｉ@@
ｍｅｔｈｏｄ
資材
ＵＤＬ
起業
無色
無臭
尋@@
ざ
農作
残さ
農地
ゲージ
チック
眼@@
精
Ｈ．@@
ＣＩＳＰＲ
原点
図表
終@@
唇
かな
ＩＰＭ
インダクタンス
きか
ａｕ
ＥＡ
採択
テロ
ＨＯＸ
プリン@@
救助
風味
身
湿潤
袋
ミキシング
建材
化粧
移流
放散
需給
大麦
粗@@
羊毛
誘因
受診
バリヤ
半@@
ユニーク
点灯
ｉｂ@@
ＣｄＳ
憩室
街
深夜
スリット
パ@@
ビリティ
ＥＲ
巣
漁場
キノコ
多量
高架
剥離
ＭＣ@@
手技
研磨
ヒット
ＡＢ@@
ＥＥ
ショナル
ＣＰＤ
雪@@
渦
苦痛
マイク
ＧＣ
振る@@
舞
温水
ボイラー
ダー
透視
ライン@@
ＨＭＤ
セッティング
マルテンサイト
ＳＭＡＰ
デヒドロゲナーゼ
およ@@
ぴ
オキシダーゼ
ＡＣＨ
再開
穿刺
略@@
気流
性状
塵
Ｒａｙｎａｕｄ
ＥＴＳ
損な
診
肝@@
性病変
静注
擦@@
傷
ＭＷ@@
給水
１３５
１９５０
ＧＥ
敷地
郊外
移転
インサート
ＰＶＰ
Ｂｏｌｔｚｍａｎｎ
スプライン
ラック
往復
ｒｉｎｅ
ａｎｇ@@
フラグ
メンテーション
ＭＧ
Ｇａｕｓｓ
ＫＦＲＰ
Ｍｏｔｉｏｎ
視@@
背側
ふれ
砥石
トポグラフィ
内訳
現金
始
窓口
取り込み
ＰＴＧ@@
アク@@
ティビ@@
ＩＥＣ
生き@@
がい
否
前向き
自@@
リンゴ
メロン
桃
ウイ
地殻
たび
吸引
ｒｅｖｉｓｉｏｎ
柵@@
即@@
ｅｒｉａ
ｇｏｎ@@
ＮＧ@@
終わり
ゴール
硬膜
内分泌
双@@
消長
ＲＯＩ
ｏｒｙ
露光
ミラー
原病
泉@@
別府
虐待
プライマリー
通@@
告
溶血
軽微
凌
驚
狭義
ＬＡＲ
ｍｏｄ@@
線路
のべ
グア@@
テマ@@
亜
高地
原@@
産地
作出
Ｆｏｘ
連結
ｆｃｃ
付録
アルギン
球状
枝分かれ
内燃
ＢＦ@@
８３
回収
燃費
割当
レコード
被害
片面
勢@@
総称
ＦＥＤ
手袋
塗布
里
頭頂
野@@
良@@
本体
ｇｇ
出来
ＣｐＧ
極限
平
Ｈｕｂ@@
ｂｌｅ
継@@
ロー@@
ジョン
全身
エリテマトーデス
血行
伺
結びつ
ｒｅｄ@@
ＩＣＰ
コメディカル
ＩＣＡ@@
フォト
ょ
骨@@
混晶
ＩｎＧａＡｓ
ＩｎＧａＡｓ@@
ＡｌＧａＡｓ
上野
ナット
榎@@
工
寛容
はっきり
配信
割り当て
罰
防護
錠
デリバリー
センチネル
温泉
レジオネラ
ａｄｉ@@
ｐｏｎ@@
梅毒
潤滑剤
メチオニン
ＩＳＩ
ＣＥ@@
永久
ＥＰＯ
毒
ＢＮＰ
豊か
Ａｎｄ@@
ｓｉｍ@@
ｉｔｈ
ＥＭＴＰ
ＭＯＤ@@
ＥＬＳ
義歯
タ@@
ッピング
薬疹
読み@@
込
ドン@@
グリ
翌日
混濁
小売
ＦＳＷ
クリック
コンパートメント
酢酸
Ｃｏｍｐｕｔｅｒ
ｅｐｈ@@
Ｉｎｔｅｇｒａｔｉｏｎ
ＰＬ@@
ＤＤ
ガリー
東欧
ＯＴ
末@@
尾
年表
府
ひ@@
乾@@
奇妙
偏光
ＨＡ@@
チャック
シンク
偏差
ＦＤＭ
残り
鋼管
ＮＳＰ
キルン
メインテ@@
ＣＰＵ
段
パイプライン
命令
フ@@
谷@@
絶@@
好
チャンス
Ｂｅｒｎ@@
偽@@
Ｎａ@@
腔
ａｃｔ
トルク
ＥＡＩ
Ｍｙｃｏｂａｃｔｅｒｉｕｍ
回@@
旋
カニューレ
植林
しめ
既@@
整復
ポピュレーション
ターボ
灰色
義務
バーン
ＴＢＴ
ｓｅｎ@@
ｔｉｖｉｔｙ
ｅｎｃ@@
ＮＳＥ
目視
審議
権限
連邦
Ｍｃ@@
ｅｎｚ@@
ｉｅ
ホ@@
雷
ａｒｎ@@
ｓｉｏｎ
ｉｎｔｅｓｔ@@
ニコン
知事
白書
ショベル
操縦
コンパイラ
結線
貧困
ｓａ
漂白
ライザ
キラ@@
ドー@@
脅威
湿@@
仙腸
甘味
苦味
適当
排熱
トランスジェニック
糖化
ドリ@@
行事
普@@
トン@@
羽
ホイスカ
そしゃく
演@@
ＳＬ@@
取り
日記
Ｂａｎｋ@@
ａｒｔ
吻合
一意
口内
Ｃｚｏｃｈｒａｌｓｋｉ
リターン
ｅｐｉｄ@@
舌@@
咽
Ｎａｓ@@
職員
モーション
ブリッジ
トランスファ
有益
下痢
クラッチ
昨今
オラン@@
ータ@@
大型
類@@
猿
ラジオ
口径
ＩＳＣ
フィンランド
取り扱
カスタム
長崎
松
海底
山脈
ＩＮＦ
ＲＩ@@
握
燐
リガンド
ＯＲ@@
ＯＣ
ＩＶ@@
キシ@@
バリ@@
広域
組込み
２００@@
攻
協議
歩留まり
取り込
ＲＨＥＥＤ
母子
集計
積層
ＦＴ
ＦＣＭ
ＳＯＦＣ
摺動
骨粗
椎体
南部
鰻
養殖
スム@@
ース
なく
／２００１
熱意
ひき@@
Ｓｐ@@
スキャ@@
ニング
ｍａｘ
低@@
現症
ＣｄＴｅ
Ａｇ
ＨＤＲ
是@@
晴@@
現像
ｌｉｃ
ａｃｔｉｏｎ
バク@@
テリ@@
ファージ
Ｇｎ@@
ｌｏｔ
ウインドウ
村@@
黄体
復号
フィー@@
ダ
ばね
貼@@
トル
ＡＧ@@
オル@@
ニチン
９４
凹凸
公害
ＲＨ
欠如
ＦＤＡ
軟らか
触知
エレクト@@
乗り越え
差動
モノ@@
ック@@
ｄｉｆｆ@@
探知
１５６
きょく
１９３
Ｎｄ
ジギタリス
ステーション
ＮＡ@@
ＦＴＡ
諸国
ｌｙｍｐｈ@@
ｏｐａｔｈ@@
韻
＆@@
再編成
樹@@
Ｇｉｔ@@
ｅｌｍａｎ
家系
ＳＶ
洗
仔@@
ＡＮＡ
Ｉｎｔｅｒｎｅｔ
ｓｉｇ@@
ｉｔｉ@@
気相
脱臭
併合
セル@@
８６
１１８
鎖@@
積み@@
スピンドル
受
商@@
公園
自ら
同@@
Ｒｅｃ@@
胴体
シェ@@
Ｚｒ
熱@@
ｉｔｅ
ａｂｉｌｉｔｙ
ｌａｓｔ@@
トリグリセリド
肥料
ｒｈ@@
ｆａ
薬品
利便
追及
作物
ＨＡＭ
他社
ノズル
ＳＡＸＳ
１９８７
抄録
世論
航法
昼@@
アンバランス
姉@@
妹
祖
むけ
ウン
エーテル
ＢＲＡＦ
Ｓｅｒｖｅｒ
切
ＣＡＴＶ
採@@
ドロッ@@
左手
ストック
右眼
充電
黒鉛
負極
右下肢
尊
ジ@@
レン@@
ＢＢ
ＥＳＤ
時点
１０６
コネクタ
開拓
挿管
ＰＯ@@
ＶＩＭＡ
ＴＩＶＡ
バージョン
Ａｕｔ@@
度@@
／２０００
Ｐｏｉｓｓｏｎ
ＥＢ@@
スタッ@@
キング
ＩＢＭ
ＣＩ
フォーカス
ドレイン
改修
包装
ＢＧ
虚@@
構
実体
ＩＴＵ
ＨＥＭＴ
植@@
群集
帝@@
ＴＥＭ
ロッド
ＤＥＭ
同部
レントゲン
ワード
ジャガイモ
サツマイモ
ｈｉｂ@@
ウル@@
焼@@
粘度
キャパシタンス
ＴｉＮ
ＢＣＳ
ＩＥＬ
フェニ@@
ックス
演習
次ぎ
粘着
支社
区別
セパレータ
禁@@
帰着
着@@
反復
ＥＤ
ジャー
ミス@@
訂正
載
補足
有界
区間
正規
サンプリング
イカ
Ｏｖｅｒ@@
ｌａｐ
末期
ＳＭ
胃@@
ＡＲＴ
掘削
ミ@@
交付
ニ@@
ジア
もっと
ＵＭＬ
ＳＧ@@
減@@
欧
硝子
弱@@
Ｔｃ
骨化
ｍｅｌ@@
ｏｃｙｔ@@
シンプル
匹敵
Ｄｉｇｉｔａｌ
２５００
Ｈａｒｔ@@
ｓｈ@@
ｃｔ@@
ａｎｇｌｅ
ｉｒｅ
ないし
椎弓
本報
ｋＨｚ
重み@@
合計
体表
ｒｆ
上回
細分
ＳＡＨ
ＰＯＣＴ
コーディネ@@
ータ
技師
伴流
ＧＥＭ@@
アニール
フロ@@
ティア
ワー
財産
クト@@
リア
ブルー
手間
らい
４２
Ｒｏ
ＳＳＡ
鋭
ルー@@
ナイロン
振舞い
ＭＨＣ
原発
廃止
スロー@@
シュ@@
政権
樹立
ＣＣ@@
ナッ@@
ジング
波数
９６
褐@@
フルオロカーボン
丁@@
類推
繁殖
鱗茎
葉菜
作@@
パラジウム
主役
おこな
必然
インフレーション
Ｐｅｔ@@
ｒｉｅ
オー@@
帝王
脱髄
ＧＢＳ
不応
スラリー
東@@
淀@@
専用
湿地
名@@
成否
ＴＧ@@
生まれ
高ま
盛ん
ヒスタミン
気胸
光@@
はるか
ＩＦＮ
ｏｕｎｄ
ＥＮ@@
頚
総会
シング
傾@@
注
ＶＯＣ
マル@@
アス
順位
くりこみ
雷害
パートナーシップ
カリフォルニア
湾@@
航行
ポリエチレン
軟質
ＰＶＣ
ＡＲ@@
ボツリヌス
門脈
［
ｏｇｒａｐｈ@@
Ｓｕｂ@@
ｓｅｇ@@
ｍｅｎｔ@@
］
漏出
鞘
Ｊｃ
使い分け
脳内
Ｋｏｈｏｎｅｎ
トランスアミナーゼ
遅らせ
空調
吸蔵
愛媛
条
加味
図面
規程
うつ病
扉
寒冷
積雪
ユニバーサル
山梨
ど@@
おり
ソウル
マイ@@
アミ
南アフリカ
局在
飛躍
遵守
ｋＶ
２３０
雪崩
差圧
陰茎
小結節
１３３
ｐｒｉｍａｒｙ
対抗
スプレッド
リーダーシップ
ごく
出来事
昇温
手続
通商
ごみ
故
Ａｐｐｌｉｅｄ
Ｍａｔｅｒｉａｌｓ
ＰＴＨ
山@@
陰
幅@@
拡@@
Ｖｉｓｕａｌ
Ｂａｓｉｃ
ＶＢ
原稿
ムライト
ジルコニア
噴霧
ＷＡＳＰ
ＦＡＮ@@
一斉
Ｄｅｐ@@
ｅｎｔ
古@@
ジメチル
温暖
単核
営団
ＬＵ@@
苫小牧
頭@@
Ｄｉｒｅｃｔ
ｏｕｎ@@
１９７@@
批判
防食
低値
スパッタ
エキ@@
ゾ@@
曲がり
直流
アロ@@
精確
校正
Ｆｉｂ@@
ｒａｔ@@
ヒーター
棚@@
デュー@@
イ
スティック
顔料
ポリイミド
ポリ@@
スルホン
地温
側面
ジッタ
抗生
ＷＳ
排液
ｉｔ@@
ａｃｔｅｒ
ｆｒｅ@@
ＩＤＤＱ
ロ
ｂｅｒ@@
／@@
ｐｌｅ
ｂｏｎｅ
ｓａｇ@@
Ｔｈｅ@@
ウェスタン
ブロット
ブラウザ
ＧＴＬ
Ｏｐｅｎ
フェール
セーフ
ペクチン
旋盤
鳥類
飼育
素@@
ジゴキシン
犬
Ｄｓ@@
摩@@
損
顕在
広げ
ＡＤ@@
反面
グロー
仏@@
教
伝@@
進捗
対向
ＦＳＨ
水和物
融体
Ｋｉｅｎｂｏｅｃｋ
ｍｉｎ@@
ＡＳＡ
配向
極力
ラテックス
ＭＩ
ペリ@@
クル
既知
ラン
藻
ＦＰＣ
朴
ＬｏＶＥ
残基
ＦＧＬ
外国
ＤＭＥ
器官
Ｄｙ@@
ｈｏｌ@@
ｒａｌ
ｎｅｔ@@
ｗｏｒ@@
ＯＥＣＤ
ＤＯＴ
終え
無人
ＲＶＤ
洗@@
磨@@
丁寧
ｃ／@@
ｃｔ
裏面
Ｃｒ@@
Ｓｙｎ@@
ｄｒｏｍ@@
ＳＩ@@
ＡＤＨ
多面
Ｈｕｂｂａｒｄ
板金
準拠
旅客
エレクトロ@@
クロミ@@
ヘッダ
ストール
配位
開胸
熟練
圧電
内装
細
黄銅
計数
経費
センチ@@
ｄｏｒ@@
ｓａｌ
ｃａｌ@@
割@@
矩形
Ｋｅｌ@@
呼称
トン
ストローク
メス
フォールディング
描像
ますます
激化
露@@
かん@@
合体
エッチ
安
畜産
中東
Ｈａｌｌ
影
多段
キャンセラ
誘致
バリデーション
老@@
健
ンド
ＩＴＳ
コラ@@
ゲナーゼ
ｓｔｅｍ
追
り患
年数
ＴＭ
インメント
ＤＩＣ
ぎり
歯
歯状
改変
ＫＯＨ
ライダー
赤道
ねじ
うま
相@@
加
単極
炭酸
大まか
トーム
ｔｚ
しゅう
分別
材質
ｚｚ@@
素因
禁忌
日数
グレー@@
チング
シャ@@
ッター
空洞
屋外
稲
グルタチオン
ＧＳＨ
１９８８
廃液
取り扱い
減耗
プラーク
平板
トラス
ＰＰＩ
クエンチ
Ｃａ@@
ＣｕＯ
１１３
抑欝
フィ
ブリ@@
多糖
ＳＴＥＭ
フォイル
メガ@@
バルーン
落下
派遣
六角
メク@@
鞭毛
静岡
耕作
放棄
不眠
ＧａＩｎ
Ａｓ／
マイクロマシン
取入れ
薬用
園
斜方
晶
取
同位
定性
ＰＣＣ
ギガ@@
粘液
菌種
およそ
ＣＡＡ
フィブリ@@
ノイド
Ｍａｇ@@
把持
椎骨
血しょう
ＴｉＣＮ
パンチ
昨
ワイン
深層
香気
連
冬@@
鳥
種数
か所
ｔｕ@@
ｔｉｏｎａｌ
気密
優し
び@@
願
真@@
仲介
震動
違
伝導体
三重
照度
混
Ｈｉ
ＤＡ@@
Ｒｏｓ@@
方策
ａｃｅ
食餌
ビール
陰嚢
不明瞭
まり
読み取り
暗点
ＲＩ
新形
針
検診
テキスト
会話
リバビリン
効力
Ｃｕｓｈｉｎｇ
ＶＳ
海綿
洞
頚部
ポリオ
修繕
平易
言葉
まさ@@
フィン
ハブ
コー@@
キャビティ
茶@@
受動
娯楽
平成
復活
めざまし
長@@
かん
トマト
タマネギ
藤@@
昭
教授
くえん
Ｎｂ
グリコール
フラ@@
スコ
常圧
沸点
とくに
スタン
砂漠
ブレイク
Ｃａｎ@@
ａｔ
ＤＰ
アーゼ
ヌクレオチド
下向き
上向き
オーロラ
リフロー
担当
ＨＩ@@
一時
ＳＡＭ
コージェネレーション
ステント
購買
負@@
プルサーマル
ゲット
冊@@
体位
体力
消耗
アーキテ@@
クチャー
ｂｉ@@
ｓｙｓｔｅｍ
ＢＥＴ
促
エストロゲン
周@@
到
ｒａｄ
ＭｅＶ
難治
組合
監@@
督
官庁
徐@@
徐
留学
性的
セント
ラミブ@@
ＣＡＧ
プリズム
多少
スコ@@
ッチ
アルゼンチン
ＴＬＲ
名づけ
ＫＦＭ
層状
メガ
才@@
発散
りま
１９６３
洪水
塩害
陸
広範
Ｃｙｂｅｒ@@
モデ@@
フォル@@
シベ@@
カラ@@
マツ
落葉
Ｌｅｇ@@
ｒａｍ@@
Ｇｌｏｂ@@
Ｅｌｅｃｔｒｏｎｉｃ
Ｃｏｍｍ@@
ｏｒｔ
所有
巨視
オタ@@
ジャ@@
シ
ボ@@
括@@
弧
ｅｘ
支払
ヒヤ@@
オフセット
ＩＭＴ
食塩
ＴＳＢＡｂ
商
レイヤ
Ｓｉｍ@@
ｅｃｔ
Ａｃｃｅｓｓ
Ｐｒｏｔ@@
矢@@
３６０
測長
そ
ブレ@@
ストー@@
催@@
眠
上下
噴流
水流
Ｃａｎｄｉｄａ
ａｌｂｉｃａｎｓ
Ｍｎ
内耳
奇形
難聴
ＡＢＲ
誰
基@@
借@@
款
合流
括約
発火
ＭＲ@@
変分
極端
プトン
Ｈｉｇｇｓ
定@@
取れ
当@@
プロリン
リセット
管@@
ＧａＩｎＮＡｓ
ＱＷ
ポリウレタン
ＮＲ
兼ね備え
骨膜
チアノーゼ
ＡＭＰ
ＳＬＡ
卵巣
ＪＮＫ
恒常
眼球
米粒
ＧＯＬＤ
シル@@
分かれ
法@@
接@@
峰
尾@@
オリ@@
テーション
道@@
のり
下行
椎間
明
クローズ
大差
ピーニング
ヘルツ
ＬＩＧ@@
ＨＴ
雷@@
落雷
流出
プリプレグ
銅@@
張
ＰＷＢ
ｕａｌ
ＷＫ@@
かく@@
ＢＰ
ＢＪ@@
接着
色度
ＡＧＶ
エリア
ストマー
Ｍｏｎ@@
Ｂａｙｅｓ
生ごみ
桁
力@@
陰影
園芸
番号
つい
双極子
便
服薬
印@@
鑑
装@@
飛散
ＰＲＯ@@
ａｉｎ@@
ｒｅｃｕｒ@@
ｓｔｕｄｙ
ＳＨＲ
ろ胞
バセドウ
トリプトファン
含量
ＢＦ
排煙
Ｗｉｅｎｅｒ
孔
Ｆｌ@@
せん断
Ｉａ
ち密
ＥＧ
Ｐａｓｅ
遂行
いれ
バンチ
ＢＣＯ
ＮＳＡ@@
ＡＰＥ
探求
カム
当科
ＣＣＲ
内径
ｃｍ@@
Ｖｏｉｃｅ
自立
寝
きり
２２@@
長野
信
−
ｐｐ
Λ
埋設
敷設
縮退
波面
も@@
ドキュメント
ＡＥＤ
体積分
偏移
中核
ＦＣＶ
次々
振り返
刻@@
ｓｔｅｉｎ
入出力
垂@@
°
取@@
構@@
ＨＥ@@
螺旋
ＣＭ
互い
ショッピング
楽し
フォトクロミズム
磁力
案@@
自覚
ヘル@@
シン@@
象@@
徴
初@@
およぼ
Ｄｏｐｐｌｅｒ
Ｂａｌ@@
ヌクレオ@@
シド
ダブル
巧
作り上げ
裏@@
ｉｂｂ@@
在院
財
遠方
鑑@@
賞
Ｆｏｒ@@
ＭＡＰＫ
エバネセント
ｖｏ@@
ストレーション
アレル
クリップ
剰@@
余
たくさん
リリース
層間
考古
ポルフィリン
か@@
客観
フタロシアニン
ノース
アミン
サークル
センス
アダプ@@
国籍
開業
労働
破骨
濃
塩@@
ｑｕｉｎ@@
ＲＧ
発病
海事
保障
ブレット
感知
ＨＰＳ
ＴＲ
帰納
Ｓｐｏｒｏ@@
ｒｉｃｈ@@
オレフィン
ケトン
不斉
校@@
庭
組み@@
水力
フォーム
ファクタ
ファジィ
ｔｉｃｓ
Ｐａ
ａｂ
ｉｎｉｔｉｏ
挑戦
ＡＷＧ
つな
河@@
童
Ｓｅｒ@@
ｔｅ@@
かぜ
点滴
感光
内蔵
Ｉｓ@@
溶出
市中
戦
と@@
簡素
利@@
留意
密封
線源
関わり
ＤＬＴＳ
ＭＭＳＥ
Ｈｚ
ＳｅＶ
エネルギ
ＳＣＡ@@
リッ@@
ヒ
フリッカー
視野
ｅｍｅｎｔ
ＭＡＣ
諮@@
問
結成
疑@@
ｅｒａｌ
毎年
ＴＲＩ@@
Ｈｃ
未
盤
レギュ@@
Ｈ．ｐｙｌｏｒｉ
病原
ＣａｇＡ
アーチ
剛
入所
塩水
レジスタ
投@@
めっき
過冷却
はん@@
糖鎖
ガングリオン
実地
腕
優秀
受賞
カーブ
秘め
ＳＲＭ
ヒドロキシ
若@@
齢
老齢
キメラ
フレ@@
ＮＲ@@
ピシリン
ドパミン
北陸
政@@
管内
農村
整
四国
前記
爆@@
Ｒｂ
治
ループス
腎炎
徹底
外来
抜き
伸縮
念頭
かゆみ
日光
命題
等温
港
芯
折
調剤
赤潮
ＳＱＬ
テーブル
ＤＢＣ
生残
モン
ＭＡＴ
ＡＬＴ
ｋＡ
プロピレン
骨シンチ
腸@@
全量
メタボリック
ｍｉｎ
切り屑
凌@@
駕
複素
我が
Ｕｓ@@
投稿
チェックポイント
録音
ギング
注@@
収着
堅@@
オゾ@@
ナイ@@
ザ
前兆
粉
ＭＲＡＭ
ＭＴＪ
ｎｅｔｉｃ
Ｔｕｎ@@
ｕｎｃｔｉｏｎ
バル@@
ｕｌａ
メトリ@@
ゼーション
開設
ファリン
海軍
共@@
催
フライト
ショウ
送電
母@@
変圧
トレランス
ＶＬＳＩ
Ｍｉｃｈ@@
ｅｌｓｏｎ
恒星
取付け
シャープ
横切
タリウム
秋
見本
乗降
時@@
潜水
射出
Ｍａｘ
胃酸
めざ
旧
ソ連
２０１０
植栽
ＲＤＦ
ボイラ
脱硫
重金属
ユニ@@
１７８
ＡＭ@@
役立て
正負
泥炭
着火
チオフェン
一緒
ＣＯＤ
好まし
防音
ｓｉｔｕ
ｈｙｂｒｉ@@
ｚａｔｉｏｎ
かり
目@@
撃
ウルソデオキシコール
ｍｕｌａｔｉｏｎ
ｓｕｒｇｅｒｙ
ヘルス
ＦＲ
浄水
ゴースト
さし
スター@@
グレープフルーツ
ジュース
球体
疎
間隙
縞@@
見積も
整え
右下
再燃
８１
調達
ヘマ@@
トポ@@
フィリン
着目
幼児
乳幼児
Ｉｓｉｎｇ
Ｈｅｉｓｅｎｂｅｒｇ
ピット
フォール
除圧
薄板
ＥＤＬＣ
インター
幾何
ＮＳＡＩＤ
ＴＣＲ
省@@
察
増分
ｔｈｒｏ@@
ｐａｔｉ@@
疑問
ツイン
ＥＮＳ@@
ＴＦ
ゼブラフィッシュ
筆@@
致@@
頒@@
ア
カウン@@
パーソ@@
リティー
胎@@
胎
称
パーク
クレ@@
ゾール
レッド
柱@@
思春
ボイ@@
ルド
コーヒー
衝@@
Ｓｏ@@
ｃｅ
Ｍｅｔ@@
デラミネーション
テラ
保管
給油
給
Å
ニンニク
熱傷
２３９
配分
Ｅｘ
Ｔｒｉ@@
Ｔｅｃｈｎｏｌｏｇｉｅｓ
ＸＰ
Ｓｙｓｔｅｍ
手がかり
ｅｖｉｄｅｎｃｅ
類型
アリ
国家
史@@
気温
すでに
スペイン
商用
模
聴@@
ＰＦＣ
テオフィリン
ューション
カプセル
他@@
読み取
気分
投薬
遭遇
躯@@
紅
丘疹
メトリクス
エンジニア
徹@@
夜
ドル
ｙｓ@@
ダイレクト
打ち上げ
ＦＬＡ@@
スペーサ
癒合
ＲＡＦ
広大
ｃｈｌｏｒｉｄｅ
ｉｏｎ
ｎｅｌ
感作
アモルファス
小球
凹
在
顕
ポリマー
ＧＥＲＤ
逆流
トロ@@
ーリング
フィルタリング
ＣＺ
二色
要領
ａｄｅ
Ｎｅｔ@@
Ｌｉｂ@@
載@@
ミド@@
ウエア
ＢＭＬ
テンプレート
ＷＫＹ
視界
ＣＴＡ
ＥＤＲ
パフ
メラニン
バナナ
オレンジ
レモン
ウ
フルーツ
鏡面
ウィンドウ
点字
疑似
規@@
家電
震源
ＰＭＣＴ
ｉｏｌ@@
縦@@
買い@@
置き
金額
ＤＦ@@
仕上げ
グリ@@
友@@
ＡＩ@@
離@@
ＩＳＤＮ
コンセント
施@@
概論
狭@@
ワイ@@
水膜
シラカバ
いき
防水
肺@@
ＥＲＰ
流れ@@
ビスマス
均等
フリー@@
Ｄｉｒｅｃ@@
ｇｅｎ
ＲＳＶ
小径
濡れ
浸
融解
冷@@
蓄え
脈管
歩
リード
花
術者
Ｖｅｒｄｅｔ
老人
明か
帯@@
簡潔
接地
Ｈｏｄｇｋｉｎ
Ｈｕ@@
起電力
数式
ＲＢＳ
ｐｒｅｓ@@
ｔｉｏｎ@@
ａｃｋｇｒｏｕｎｄ
ｃｈｅｃｋ
ｅｘｐｌａｎａｔｉｏｎ
ｍａｎａｇｅｍｅｎｔ
ｅｓｓｅｎｔｉａｌ
ｉｎｑｕｉｒｙ
ｃｏｎｓｕｌｔａｔｉｏｎ
重心
了@@
ＴＣＤ@@
胆
ポリメラーゼ
コシヒカリ
未熟
ピンチ
ＰＯＳ
ｒｉｃ
配布
２５０
乳化
脂肪乳剤
Ｍｉｃｒｏ@@
ｏｃｃｕｓ
富士
ハニカム
栓
アダプター
／ｍｉｎ
完治
アセチルコリン
出会
逆@@
潮
ミル
ＣＡＴ
ＦＲＡ
レー@@
ふっ
迄
中立
連@@
仙台
松下
ＭＣＣ
シンチ@@
Ｌｏｒ@@
レーティング
クローニング
蛇@@
カラム
二@@
凋@@
確証
トラック
Ｐａｇｅｔ
南米
スカ@@
ナス
ふげん
水産
院内
過ぎ
ＥＦ
そく
ＥＳ@@
ＰＡＲ
Ｗａｌ@@
スピード
単相
ａｒｃ@@
ＡＣＦ
ｎｅｒ
ＥＥ@@
父親
引
掻
粘土
ヌクレオ
ソーム
プロフィール
工@@
数量
クル@@
シー@@
クエンス
エキソン
ミスセンス
妨げ
ＰＺ@@
叉
マラリア
原虫
ＩＰＦ
ち@@
やく
習得
ＳＮＲ
ｏｄｙ
Ｍａｐ
完遂
盟
過熱
回腸
根治
加水
柱状
毛@@
編
普遍
ｕｐ
Ｄｅｌ@@
ｗｉｔｈ
Ｔｉｍｅ
フロート
悪@@
各層
間力
掛
歩@@
ＳＥＰ
ＶＥ@@
愛知
胃腸炎
現われ
寒
重油
フリッカ
ッカ
硬@@
コル@@
着用
聞き取
募@@
参入
ポリアミド
迷走
脱
芽
錠剤
ＳＨ@@
オリジナル
ハ
スズ@@
養分
側@@
可塑
サルタン
ＲＴ@@
最@@
岩石
鉄鉱
ＪＤ
ぞ
没
ヒステリシスループ
最少
ｏｌｕ@@
ｔｒａｃ@@
ベット
暗黒
Ｌａｎｄ@@
ｓａｔ
ＥＯＳ
ラップ
プロテクター
銘柄
８９
ｙｐ@@
ＬＶ
転帰
投票
捉@@
デンド
マー
Ｏｐ@@
Ｄｏ@@
コツ
ＫＤＤ
鉄心
流産
産子
早朝
飢餓
グリコーゲン
Ｇｙ
フィブロイン
ＤＲ@@
ラベル
収量
待
パキスタン
宗@@
ＲＧＢ
ａｌｉ@@
１９７９
ダン@@
高層
餌
住@@
コンポジット
見積@@
悪臭
ＣＴＰ
枠
制
逆数
概ね
たど
ｈｉｇｈ
ひ臓
ぼうこう
賢@@
澱粉
播種
ジェネ@@
ヒドロペル
オキシド
空港
ｏｒａ
ｌａｓ@@
ｃｏｐ@@
ｉｃａ
昇降
正味
どん
意
正方形
レイアウト
且つ
つく
メチレン
けい素
タイ@@
ｒｉｄ
１３０
代え
偏析
診察
紅@@
事態
高まり
手指
糸膜
いで
ターニング
宅地
公
微粉
比@@
ボックス
伝熱
並
リハ
ＶＤ
ター@@
ミネ@@
余@@
ｌｅ
鴻@@
ＭＯＤＩＳ
４１０
ボリューム
お@@
ステ@@
ッキ
糸@@
渦流
クロック
ダウン
ＰＬＳ
ＡＶ
実在
ディフューザ
失速
斜@@
ＣＰＣ
細心
Ｐｒａｎｄｔｌ
プロペラ
ヒアリング
１８０
パルサー
星
カー@@
ペット
ＮＡＤＨ
キソ
タル
教@@
π
＊
柵
ウス
回り
デスクトップ
ｏｎｄ
Ｔｅｃｈｎｏｌｏｇｙ
ｐｏｒ@@
Ｇａｔｅ
粒状
ｌｏｂ@@
用@@
塩類
サプリメント
ＸＹＺ
読@@
ＸＹ
Ｗｏｒｋ@@
へ@@
Ｌａｎｇｍｕｉｒ
探針
ズーム
リッジ
固結
ＧＩＩ
１４０@@
雲母
長石
必@@
ガーゼ
すぐ
凍
運
リノール
密接
資格
ＭＯＤＹ
依然
造形
ポーター
ｔｉｃａｌ
ｇｕ@@
ｓｏｌ@@
初頭
真
メディカル
一員
ｃｙｃ@@
ｐｏｎｓｅ
上面
ソーラー
ダイマー
有@@
ｇｉａ
デルタ
ｆｓ
ＤＳＤ
ＰＨ@@
ＬＩＮＫ
別々
外装
ラジ@@
アル
インダクタ
テー@@
ピング
始動
Ｔｆ@@
パート@@
ａｎｔ@@
ｇｅ@@
ｂｏｒ@@
ストーマ
膝伸展
選手
ストリーム
ＧＢ
ｍＷ
虫卵
ダイアフラム
ＶＲＳＡ
５０@@
容@@
認
葛@@
藤
あ@@
心@@
菌体
マスト
収支
リポソーム
１２５
エリスロ@@
勉強
変量
関西
専
採取
９７
広島
ｂｉｔ@@
Ｌａｃｔ@@
ａｅａ
ｉｘ@@
Ｙｏｕｎ@@
バックボーン
禁煙
Ａｌｚｈｅｉｍｅｒ
平坦
定期
レット
七
プチン
ｓｔｅｄ
ただ
ＩＩｃ
ＩＦ@@
問診
ハンドル
ＦＦ@@
総@@
ＶＩＩ
ＭＨＤ
鉄分
舶@@
ビジュアル
文法
肉芽腫
ＭＡＴ@@
ＬＡＢ
開@@
再帰
折り@@
急冷
かく
たん
鈍@@
アトピー
セイル
９３
南北
発進
トレイ
軟膏
ロータ
１５００
ペル
ＲＣＴ
Ｋｏｌ@@
ｏｇｏｒｏｖ
イーサネット
根絶
６７
１９７７
濁度
経時
直@@
光軸
ＡＬＤ
総論
ＧＥＯ@@
木質
ｇｒｏ@@
ＴＯ@@
ｇｒｅｇ@@
ｏｐｅｒ@@
Ｈｆ
縫@@
粗さ
ＭＢ
ｒｅａｍ
ショート
メバチ
印
擾乱
ＺＴ
ｂｙ@@
当該
Ｍａｒ@@
サル
陸域
ダクト
フィッティング
ｆｔ
な@@
ＳＴＯ
積算
請負
スペクトロ@@
練
ｍａｌ@@
ｋｇ
ージ
イチ@@
ｕｒｏ@@
ｓｏｒ@@
ｓｃｏｒｅ
コウモリ
トリプタン
八@@
幡
換算
カルマン
ＴＢＭ
ＨＢ
ＰＰＨ
器械
スター
ＳＤＤ
ＴＥＬ
ＭＢ@@
芽球
重水素
列島
ＳＨＰ
新型
諮
弟
ふさわし
測位
受け@@
長岡
竣工
アセチレン
ＴＡＡ
ペン@@
たら
ハードウエア
メニュー
数十
ＢＡＣ@@
芋@@
ＧＡＢＡ
オーバヘッド
ファジ@@
ィ@@
ｐｈｉｃｓ
レッジ
ｃｐ@@
増@@
滑走
内視
競技
気道
惹起
ａｕｌｔ
勝
駅@@
務
ＡＳＤ
ＣＶ@@
水腫
ＤＭＡ@@
ＲＤ
ＧＭＰ
ＧＤＰ
台@@
オーバ
放牧
雑草
液胞
ＮＡＤ
チロシン
単なる
ＣＬＡ
ｄｅｒｍ@@
幸@@
弾@@
ｉｉ
ＢＥＲ
オペ@@
レーター
付属
ｂｉｔ
予熱
径路
曲@@
り@@
平@@
ソフト@@
ラム
重@@
向
Ｇｄ
Ｋａｌｍａｎ
ホスホ@@
ＬＩＭ
図@@
サルモネラ
すい臓
髄質
南東
西
下部
塗抹
ガイダンス
助成
言え
銅箔
ユー@@
カリ
毛細管
電熱
砲
議定
どれ
箔
サンドイッチ
昇華
白質
ＰＩＰ
ＡＮＣＡ
倉@@
敷
凸
Ｖｅｒｏ
不活
潮流
ＴＥ
ング
突@@
ｏｍｏｎａｓ
上部
プ
ＶＩ@@
ＲＯ@@
シカ@@
ＦＩＡ
マイクロホン
選好
表明
車載
特@@
需
見込み
つぼ
草@@
わい
ＮＡＤ@@
美し
ＰｒＰ
仮
或いは
タッチ
膜@@
アイソ@@
好気
放
陰@@
左側
術中
ＩＰＣ
グラフィー
ヒドロコルチゾン
Ｋｕ
Ｋａ
穂
噴
化@@
エアロゾル
創薬
Ｋｒ
エキシマ
ｍＪ
ネスティング
割り付け
舞@@
鶴
海上
試
Ｄｕ@@
ＩＣＩ
Ａｋ@@
ｅｍｉｃ@@
ａｌｓ
Ｈｏ@@
ｅｃｈ@@
Ｂａｙ@@
再編
Ｌａｎｇ@@
梁
スイング
ナショナル
長引
社員
ヒアル@@
ニダーゼ
斥力
遍@@
地帯
ゆる@@
やか
伏
大地
油脂
ＤＭＦＣ
妨害
ＱＣ
論じ
ｉｐ@@
ぼけ
トカマク
大分
新設
三条
近辺
豪雨
聴
軸@@
大径
判決
インデ@@
レチ@@
プロジェ@@
クター
有痛
落ち@@
脆@@
ポー@@
Ｐｔ@@
丘陵
山羊
風景
駅舎
上空
プチ@@
分@@
譲
マンション
ティーチング
ウシ
ろ過
倒立
ＬＱ
新興
緩@@
前庭
受け取
ネマチック
小滴
テンソル
コンカレント
ｏｇ@@
ｓｋｉ
エンベロープ
ｎｏ@@
スロット
到着
直ちに
落と
ヒ素
ＧＳＭ
ＩＦ
サッカー
観@@
産科
ＳＬ
ウエハ@@
予め
ＤＡＳ
磁@@
抜け
待機
ガンマ
柄
むしろ
穴あ@@
捕らえ
ｋｃａｌ
ｅｋ
ラグランジュ
薄層
プラグ
粟@@
Ｎｅｆ
Ｒｈ
世帯
役目
マイコプラズマ
冷た
アンチモン
ドープ
ＳＤＲ
虫@@
ａｎｔｈ@@
Ｇｂｉｔ／ｓ
Ｂｒｏ@@
ｃａｓｔ
Ｍａｒｋｕｐ
Ｌａｎｇｕａｇｅ
フォーマ@@
ツ@@
タンニン
配合
脚@@
ＰＬＡ
ｉｄｅｎｃｅ
Ｂｕｌ@@
ｏｍｙｃｅｓ
ｃｙｓ@@
ｏｒｉｅｎｔａｌｉｓ
Ｂａｒｒｅｔｔ
適否
石@@
アニメーション
ＶＵＶ
モノクロ
ＤＮ@@
Ｃｉ@@
マテリアル
小学
しか@@
話し@@
ｐｎ
食欲
ど
反発
荷電
つか
ＦＦＣ
ＮＢ
ＮＥ
市況
ＳＴＡ
使命
葉酸
ＴＩＧ
ブラ@@
ワイヤ@@
マングローブ
判別
居住
商標
意匠
男児
ＧＶＨＤ
吸湿
出生
パシ@@
消
ｄｃ
相似
発情
授精
切@@
迫
ＦＰ
バイパス
む@@
玉
余剰
レトルト
マイニング
変異体
Ｃｏｍ@@
ａｒｋ
化物
移送
除菌
車軸
単回
ｏｓｅ
ＰＰ@@
写
秘密
刷り込み
平滑
勢い
開示
法令
覧
首都
フィ@@
ＳＦＲ
象牙
脱@@
脚
対数
結局
ブレークスルー
フェライト
感@@
腸内
量的
観
核種
初発
インターフェ@@
ストラップ
侵襲
右葉
グラフト
下地
ダマシン
立脚
出発
ダミー
無し
ローリング
アスピリン
絹@@
頻@@
慮
根本
コーナ
スカート
（株）
去@@
子牛
震災
サイバネティックス
胸郭
縮減
円弧
磁歪
サルベージ
同意
目覚まし
山岳
Ｃｒｉ@@
まったく
引き出
管轄
健全
ＰＷ@@
降雪
Ｓｔｉｌ@@
ビルト
助け
Ｈａｌ@@
ａｎｅ
分数
ｅｓｔ
ｉｎｄｅｘ
種別
かが
カットオフ
アナライザ
減圧
導管
併給
円管
在来
ＮＴＰ
ＥＤＩ
プライズ
Ｐ／
キラル
ＰＴＦＥ
Ｒｉ@@
結びつけ
カルシ@@
ニュー@@
ＲＢ@@
ＦＮ
インパルス
Ｌａｐｌａｃｅ
消え
ブー@@
スタ
吸@@
い込
搾@@
粕
糞
Ｎｅｗｔｏｎ
Ｒａｐｈｓｏｎ
ねらい
ＴＣ@@
リア@@
クトル
事件
ＳＯＭ
Ａｇ@@
ＴＥＡ
尿量
Ｎｅｒｎｓｔ
ＦＩＳ
ＭＵ@@
載荷
ひび割れ
ＩＭＬ
ｍｙ@@
オランダ
軒@@
帰還
ＡＳＥ
Ｅｘｃｅｌ
数@@
消毒薬
Ｅｌｅｃｔｒｏ
Ｓｔａｔｉｃ
ｃｈａｒｇｅ
津@@
海峡
１９６０
鋳型
じみ
湯
ＦＧ
ＴＨｚ
起点
マッ@@
電導
重篤
ルト
エステル
薬局
麻薬
戻@@
周
夕食
ＥＩ
布団
ｄｓ@@
ａｌｅ
六
図式
ＧＨＤ
キット
Ｍｉｃｒｏ
せん妄
台帳
書@@
汚泥
置@@
入口
Ａｓｓｏｃｉａｔｉｏｎ
両端
述
カルボキシル
トキシン
マグロ
解凍
表記
橋脚
Ｂａ
阻止
ｄｓＲＮＡ
トラン@@
ジェント
理学
歩留
ｆａｃｅ
自主
一括
ＩＲＩ
ＣＰＲ
並進
セーフティ
４５０
ｄｅｌ@@
ｃｕｔ@@
ａｎｅ@@
ｍｅｔ@@
ｓｉｓ
ｓｉｃ
ｕｋｅ
コルチゾン
珪@@
ＬＡＰ
ＳＯＡ
Ｓｅｒｖｉｃｅ
Ｏｒｉ@@
Ｂｒ@@
ｔｈｅｌ
塩分
ＢＤ@@
皆
背
臥位
ｊａｐｏｎｉｃａ
Ｒｅｓ@@
ｅａｒｃｈ
よる
胸椎
肋骨
内臓
諸@@
層@@
権@@
威
１６@@
Ｓｏｃｉｅｔｙ
ｌｏｗ
誉
Ｍｕｌｔｉｍｅｄｉａ
Ｍｏｂ@@
ｉｌｅ
Ｃｏｍｍｕｎｉｃａｔｉｏｎ
釜@@
鉱山
熱線
キャリ@@
ヤー
学年
ＨＴＯ
米糠
ヒル
雑種
ＭＰＡ
ＳＩＶ
イラ@@
間質
ＣＰＡＰ
混雑
法人
ＳＳＴ
浄
浸漬
プロパ@@
万@@
ブランケット
ただ@@
ちに
ウエット
Ｄｅｎ@@
ポジ
伝染
疫
良否
ＮＡ
切り替え
災
ピー@@
ゥ@@
厳格
肝要
ＥＥＬＳ
強皮
つなぎかえ
ジオ
ＬＲ
グロ@@
ープ
計装
智
ｕｔｅ
モルタル
ＧＡＩ@@
あまり
端部
役者
舞台
観客
ネフローゼ
増感
隣@@
ぶ@@
根源
求ま
東部
肝内
ＥＰＭＡ
ステンレス
坐骨
マグネ@@
イット
節@@
補完
急務
吉@@
余儀
マネ@@
キン
模@@
宮城
山形
住友
貴
育@@
青森
尻@@
屋@@
受傷
吹雪
ｔｉｄｅ
Ｉｎｆｏｒｍａｔｉｏｎ
曝
ｓｉｎ@@
ｑ
害
圃場
バクテリア
ＰＢ
眼鏡
枕
張@@
ＳＬＡ@@
ｗｒｉ@@
ＶＴＲ
鉱物
神戸
ふ@@
れ@@
あい
ラピ@@
口唇
毛包
描写
億
万
ビニル
アセ@@
湿式
日誌
外套
香@@
辛
外陰
マウント
ＡＷ@@
Ｓａ@@
ｔｒａ
暗号
１３９４
車内
重な@@
ＢＭＳ
ｒｅ
ｖｅｎ@@
ｙｓ
印象
炭水
糖@@
プン
至適
蛇行
海岸
津波
ＬＤＬ
見直
とれ
双方
暫定
核子
Ｐａｕｌｉ
１９８４
三叉
食糧
不法
占@@
バックライト
我@@
ＬＬＣ
寄@@
稿
ｏｔ
ｏｐｓ@@
着陸
漢方
互換
Ｆｕｓ@@
ｏｂａｃｔｅｒｉｕｍ
単語
トロ
筋炎
ＭＯＦ
θ
オリゴ@@
ドロ
ＳＰＲ
交代
一律
回生
深海
洋上
フラッシュ
ｄＨｖＡ
Ｇｌ@@
ｉｅｓ
考@@
卒@@
屠@@
畜
ジー
マーケティング
ｒｏｎ
Ｅｌ@@
ＳＩＴ
スピ@@
フェア
リミタ
ドー
Ｄａｒ@@
ｗｉｎ
けん
送出
橋本
郎
ウン@@
槽
流用
脱窒
浸食
没@@
媒介
微弱
パルプ
憎悪
実機
じん
略
ＲＶＳＩ
プルーム
薄型
カスタマイズ
ｖｏｎ
ｔｅｎ@@
単離
ＯＬ
包@@
軟性
持ち
本当
色彩
プス
漸減
本症例
ＰＣａ
ＶＰ
聞き@@
ＰＭＳ
納期
Ｌｏｇ@@
小葉
管腔
２２４
励起子
スルー
職種
かかわり
ｅｎｔｅｒ
義@@
佐賀
奈良
岐阜
開
ッシュ
Ｓｐｏｒｏｔｈｒｉｘ
ｅｎｃｋｉｉ
ＷＰ
シナプス
スペ@@
ーシング
下落
ジア@@
リール
髪
ストリ@@
ｄＢ@@
散@@
胸
漏
好み
ＡｈＲ
ＤＯ
Ｃｕｒｉｅ
外因
内因
チェン@@
操舵
充
ガスケット
大別
未@@
アマ@@
愛
裂@@
オール
滑車
マスキング
１９７０
チタニア
冠
ーゼ@@
ＵＤ@@
棚
グラフィック
頓@@
マトリ@@
プタン
ＬＥＲ
会員
好@@
幌@@
延
苦労
申し@@
付近
ＴＣＡ
ヒ@@
充血
中層
成り立
フッ素
ＳＭＡ
副題
清潔
ばかり
正面
勝@@
算
起電
ルギー
苗@@
ウォーム
ＭＪ
円形
ＦＭＳ
ＳＷＮＴ
ＣＦＡ
蓄
あと
園@@
祭@@
入り@@
カレー
食べ
別@@
振戦
劇症
潅@@
発芽
溶着
マニ
サッ@@
ライド
アポ@@
クレーム
延べ
Ｐｏｌｙ@@
ｓｍａｌｌ
Ａｒ@@
ｌｅｔ
ｒａｄｉ@@
厚生
ａｇｅ@@
ＨＶ
キニ@@
好調
ＣＳＭ
ペニシリン
ｌｉｓ
冶金
サン@@
校
中年
実質
対話
ＯＦＤ
ＨＬ@@
凝集
エキスパート
徐脈
近位
デュ@@
ポテン@@
ショ
年頃
贈@@
さけ
ソニー
のぼ
ケーキ
リペア
Ｅｕｌｅｒ
いく@@
Ｍｅ@@
ＣＯＳ
有珠
降@@
三宅
火
陥@@
ドレナージ
すず
シア@@
リル
Ｌｅｗ@@
本州
水相
血症
キャンセル
セサ@@
リー
チオ
エステラーゼ
トラル
潜血
セロトニン
ガストリン
ｅｎｂｅｒｇ
陸@@
表層
ド@@
レス
臭素
主義
ＭＭＣ
Ｂｕｒｋ@@
ｉｔｔ
右肺
Ｔｕｒ@@
Ｗｅ@@
ＣＭＬ
自家
ＢＭＴ
前部
異種
春季
カタル
ホスファターゼ
フォス@@
ファターゼ
Ｋｉｒ@@
鋼@@
１０８
解法
卒業
ネーション
萎@@
凋
ロバ@@
声@@
音源
切換
ロス
沸騰
ホルマリン
数々
風@@
巻
ピック
ＥＴ
タン@@
Ｋｌｅ@@
修
ＣＯＮ
ＨＥＳ
ＴＬ
ＰＣＤ
ｏｃｏｃｃｕｓ
ａｎｔｈｕｓ
Ｂａｃｉｌｌｕｓ
ｔｉｌｉｓ
判@@
スペクトロスコピー
底
筋群
失禁
動@@
弊害
Ｒｅｍ@@
Ｍｅｔｈｏｄ
Ｉｎｖ@@
モール
シトル@@
ｌｉｎ@@
午後
トナー
締め@@
レプリカ
ＡＮ
好酸
充@@
氏
座談
バンク
計器
本号
０@@
スチン
中高年
休養
１８００
まわり
生着
Ｌａｘ
胃腸
空腸
インターフェイス
Ｂｏｈ@@
好中
表れ
用紙
記入
簿
機序
ファイン
醸@@
転化
人気
塔
抽象
大口径
アド
投射
ＫＩ
ラベ@@
スリーブ
群@@
余震
究明
無電解
皮切
傍
ＭＥ
ｙｎ@@
ＶＧ
Ｅｌｅｃｔ@@
ｇｌ@@
ガム
Ｌａ
Ｎｐ
Ａｍ
エポキシ
国土
俳@@
優
受胎
メ@@
汗腺
蓄熱
ＡＡＡ
プル
色差
様@@
態
保育
ａｔｉｃ
ｉｎｏｍａ
ｎｏｄ@@
ｈｙｐｅｒ@@
ｐｌａｓｉａ
ＢＷ
ＳＤＳ
漁@@
ＡＦＰ
ＫＡ
ＣＥＡ
較正
占
珪砂
代用
プレイヤー
ロパ@@
シー
吹出
１３２
買
テル@@
ＥＸＡＦＳ
ＡｌＯ
１９０
Ｐｂ
ドラム
存
決断
少量
ｔｈｅｒ@@
ゆるみ
片@@
頭髪
健常
サーチ
ｌｏｏｓｅｎｉｎｇ
ＡＭＥ
一番
ＣＡＢ
注力
既設
適@@
ＨＮ
コンデン@@
タップ
ｖｉｅｒ
絞@@
ＭＡＧＥ
Ｔｂ
Ｔｇ
ＲＳＡ
解体
カンファレンス
直
契機
気化
さび
ｂｅ
網羅
インテグレーション
害虫
越冬
効
初生
インテリア
丸@@
ルーフ
ＡＣＥ
ＥＲ@@
ＰＫ
ショウジョウバエ
フィード
浄@@
樋@@
籍
装荷
品@@
レプチン
展
町づくり
熊野
ＭＲＴ
ディジ
ディスプレー
童@@
謡
沈降
ショップ
３０@@
明白
ワーキング
ストレプト@@
Ｓｔｒｅｐ@@
ｓｅ@@
オン@@
マンド
メカ@@
ニクス
ろ@@
肉@@
老年
灯
ＴＥＯＳ
告知
ＵＮＤ@@
ＡＴＩＯＮ
モグラフィ
ｈｕｍ@@
ｏｃｋ
ピロ@@
カル@@
公差
ピー
ｒｅｅｎ
フロア
白髪
眉毛
捻転
１９８６
Ｔｈ@@
駆@@
逐
プッシュ
Ａｕｇｅｒ
右上腕
公平
シラン
固着
ＣＴＳ
発赤
トランス@@
フェラーゼ
マブ
画
ジャン@@
見落と
ョ@@
バン
条約
締結
ミオ@@
キシン
でん
ＸＲＦ
ｐｐｂ
ＣＵ@@
便益
済み
複写
定点
創製
Ｃｐ@@
極小
郵政
魚
ナッツ
ニトール
ＦＬＥＸ
ウォーク
リウ@@
ｍｅ@@
ケル
ボーリング
肺胞
ペプチダーゼ
ｉＮＯＳ
フト
追尾
所属
Ｆｉｓｈｅｒ
強酸
覗@@
随時
発声
ＶＦＡ
ＥＣＧ
ｒｏｌ@@
Ｎｅｗ
ペプチ@@
ＫｒＦ
ＡｒＦ
ＰＭＤ
ＵＩ
Ｍｕ@@
ｌｅｓ
ａｐｅ
引き上げ
レセプター
天@@
王@@
圧延
外界
底面
吸込
時効
水路
岸
ホールド
ッチ@@
ＲＩＫＥＮ
ミュ@@
正式
下回
総説
カキ
藤沢
都@@
区@@
砂
沿道
ＨＣｌ
蒸着
研修
トロピン
ＧｎＲＨ
攻@@
シグ@@
チャ
ＰＩＤ
エピトープ
林分
心房
細動
刺@@
聴力
押さえ
ミスマッチ
触@@
ジュ@@
ラス
Ｂｅｒ@@
穏
ブランク
トロン
サイン
チェコ
共和
ＬＯＣＯＳ
ｍＶ
合致
ＥＣＴ
Ｌｙ@@
Ｂｔ@@
前述
プロピ@@
ウラシル
ＴＲＡ@@
ＵＤ
前腕
ガーネット
双曲
Ｂｕｒ@@
メニスカス
強風
モノマー
犠牲
見掛け
品位
北欧
ゆ
ＧＯ@@
ＡＶＨＲＲ
ふっ@@
ＴＤ
光量子
船体
漕@@
縦波
ａｎａ
ｏｐｓｉｓ
ｍｕ@@
ガル
連成
ｏｎｔ@@
うっ血
マダニ
ｙｓｉｓ
ｉｃｋ
ＢＯ
Ｃｏｌ@@
ｓｓ
Ｔａ
ＭＶ
ＳＨＯＸ
り患率
原型
牛@@
合板
パーティ@@
鋸@@
刃
立方
採
上方
ＳＳＣ
ｉｌｉｔｙ
ＸＲ
ＡＦ@@
受精
ＰＫＣ
貼付
適宜
レスキュー
昏睡
履
操業
併せ持
御
貯留
捕捉
夕方
錆@@
博
タクシー
インプラント
盲
Ｓｏｌ@@
Ｂｕ@@
煩@@
わし
画分
ｍｍＨｇ
ｐｍ
ＳＯＳ
包含
救済
縮@@
ホモ@@
イズ
ウレ@@
鹿島
絵@@
回盲
ＳＲ@@
エンス
透@@
ばらつき
公衆
プラスミド
クトリ
版@@
キャリブレーション
リソソーム
紛失
突発
スラ@@
ａｇ
ＥＳＰＩ
感想
誤解
ｆｉｌ@@
左室
漂流
漂@@
着
ＬＭＳ
ゲスト
本例
ＧＨＲ@@
ｈＣＧ
魔@@
変@@
ラード
ハイドロ
テオ@@
ミクス
マイグレーション
立ち@@
返
いた
事前
曽@@
干潟
構内
脱離
縮
ポリシー
ｅｓｍ@@
斎
１７@@
ｓｈ
カルテ
要件
芽胞
相同
ビード
枠組
アプリ@@
オリ
ＣＧ@@
ーバ
イントロン
割
ｓｐｅｃｔｉｖｅ
錯
ヨ@@
ａｍ
ｐｈ
ａｄｅｎ@@
異同
功罪
強固
ＫＰ
加わ
チュー@@
伸筋
尺@@
楕
手引き
多大
明電
舎
ナイーブ
アンギオテンシン
なくな
高松
坂@@
好適
抗@@
謝
思い@@
ＥＧＲ
ＧＰ
細管
充満
毛細
全層
ＨＩＰ
オーディ@@
ＮＭ@@
民営
フラン@@
ミオシン
ＳＳＲＩ
卑
キュラム
所得
ＴＩ
Ｗｉｎ@@
リー@@
時折
ヘ@@
送風
農薬
ＣＡＮＤＬＥ
ＫＯ
於け
ゲノ
ホル@@
足底
淡@@
変種
ＭＩＢＧ
シンチグラフィー
確@@
一旦
後退
小管
冷間
ブラウン
デコーダ
ＤＡＣ
ＮＩＳ
濃縮
くらい
枯渇
兵庫
ｓｅｖ@@
ｅｒｅ
ｄｉｎｇ
ＦＲＰ
釜
魚介
範@@
ゅう
ｃｅｓｓ
壁@@
右膝
精細
メタリック
加入
ｘＤＳＬ
ＤＳＬ
１２００
ＰＵ
発泡
楽@@
９９
上がり
ムー@@
Ｎｅｔｗｏｒｋ
抜
貫@@
ノゲン
現@@
ＷＡＴＭ
シングル
ナル
省力
しば@@
らく
ａｎｇ
ＮＢＩ
投球
毛管
ウィ@@
水痘
ｉｇｈ@@
偏波
サーキュ@@
ゅう@@
アイドリングストップ
動揺
具合
椎@@
茸
イリ@@
ジウム
ＸＹ@@
歯肉
担体
ＫＩ@@
ポロイ@@
ダル
ＡＰＳ
アフリカ
鼓@@
ｄｄ@@
Ｔｏｒ@@
ｇｅ
プロー@@
ビング
埋め@@
ＨＶ@@
省エネ
体長
コイ
ダイス
ＶＣＯ
間葉
ルミネ@@
沿い
終末
キュー@@
エル
ａｃｃｈａｒｏｍｙｃｅｓ
ｃｅｒ@@
ｅｖｉ@@
チャンバ
協定
わり
創設
ＯＦＣ
Ｎｏｍ@@
Ｎｅｅｌ
焚
重ね
頼
リネ@@
キュウリ
う@@
ＡＩＳ
持@@
久@@
周知
巡回
母斑
ＪＥＳ
小形
変速
コマンド
ーン
アッ@@
プリ@@
思い
ｏ‐@@
作型
春@@
仲間
暴力
内層
フッ@@
入り
敷@@
藁
畜舎
行程
卸
えん
鉄損
ＨＲＣＴ
腰部
コンパイル
透磁
清@@
横浜
ｃｌ@@
トラフ
ｎｇ
ｍＬ
ＧＯＴ
国外
蜜
養@@
蜂
主要因
未満
膜面
ｌａｓｔｏｍａ
ＢＣＧ
休眠
ミセル
要@@
リン@@
フ
Ｐｉｎ@@
Ａｐ@@
ｒｅｕｓ
係
ボタン
陸地
ＳＩＰ
弦
スタティック
ｐｏｌ@@
石川
街@@
ｓｔｒｕｃ@@
ランド
ｃｅｓｓ@@
ｌａｎｄ
ＴＭＡ
大陸
全域
アシドーシス
ＯＰ@@
＞
マルチパス
定位
ブラー
同心
円@@
ＶＬＦ
洗濯
ろう
アイソレータ
００
増多
ＰＦＭ
労作
息切れ
一過
正方
釈
温熱
経腸
製剤
フォワード
博@@
ｆｏｌ@@
戸@@
健診
ＦＥＬ
外周
メッキ
カルス
ＳＵＳ
葉色
真性
Ｌａｖ@@
幽門
氷晶
像@@
おき
ｂｙ
ウェー
臨
Ｐｌａｎｃｋ
Ｌａｍ@@
挟@@
み込
ホモ
ＧＰＣ
Ｐｏｗｅｒ
ＦＲ@@
スラスト
Ｈｉｌ@@
ピン@@
ＺｎＴｅ
自験
ストラテジー
ヨー@@
マー@@
ベニ@@
ザケ
サケ
ギ@@
マス@@
ノスケ
スチール
障@@
碍
被爆
浅
電
種種
４０@@
ｕａｇｅ
Ｍａｓ@@
ｒｙ
１３@@
９０@@
排膿
ピンホール
解除
ＬＩ@@
粘
ょう
退化
亜型
減じ
ｗａｔ@@
ｔｏ
’@@
待@@
ｗｅｌｌ
ｏｒｉ
測色
携@@
低次元
トー@@
鳴@@
リアリティ
ダイナミ@@
ズム
汚@@
ＡＤＣ
ｚｈ@@
掃引
ＶｏＩＰ
ゲ@@
ゼータ
Ｗｅｉｂｕｌｌ
最尤
強心
荷
積@@
ＥＣＰ
Ｓｃｈｏｔｔｋｙ
ＡＣＬ
怖
溢@@
卓@@
常温
列記
回虫
ｓｙｓｔｅｍ@@
ＭＦＨ
ダウン@@
混在
病勢
倍@@
バンプ
雨量
カップル
ホメオ@@
スタ@@
シス
べ@@
ａｙ
黄@@
歯@@
アンチ
Ｏｆｆ@@
綿
ウイ@@
Ｐｅｉｅｒｌｓ
フェルミオン
乾留
星状
継電器
Ｋｄ
Ｔｂ@@
Ｋｅｒｒ
ＦＷ@@
嫌
見出@@
革
富化
ＭＰＣ
熱量
食酢
機材
氾濫
ＰＳＳ
国境
目安
前線
沿革
進入
ＸＰＳ
論点
蓄電池
陸上
勧告
治験
はじめて
圧子
食味
Ｐｅ@@
トレンド
Ｌｏｒｅｎｔｚ
リボ@@
ビン
層内
所定
散
かた
好評
並み
随
ブレンド
ＣＢＰ
ＡＨＳ
天井
コラム
ねじり
ニード@@
錐@@
ＳＵ@@
ＴＡ@@
ゾン
ＭＥＡ
カス@@
ツベルクリン
ｌｅｘ
ｏｎａｌ
ｐａｉｎ
ｓｙｎｄｒｏｍｅ@@
遠位
古代
ミア
ＳＮＲＩ
モルモット
種苗
もんじゅ
半ば
左頬
泡沫
ファー
マコ
ゲノミクス
ＬＳＭ
ナノドット
いったん
相図
ニッ@@
ポン
似@@
ＡＱ@@
プレーン
液膜
真核
放線
ストレッ@@
強ま
Ｙｏｕｎｇ
明@@
肉芽
ＤＢ@@
書類
トーン
調@@
伸長
ｔｒｏｌ@@
ｌｅｄ
ＨＢＤ
墾
牧草
ｄｅｒｓｏｎ
ｂａｌ@@
ａｎｃｅｄ
ａｔａ
ＲＰＧＮ
ｈｃ@@
Ｓｂ
ＮＹＨＡ
ＨＴＭＬ
オペレーション
精力
コレ@@
ＭＣＴＤ
先駆け
移入
Ｂｏｒ@@
Ｍａｒｋｏｖ
回分
話者
ニュース
腫@@
ｌｉｚ@@
Ｈａｅｍ@@
ｏｐｈｉｌｕｓ
ｉｎｆｌｕｅｎｚ@@
続き
ＩＣＵ
班@@
患@@
前報
とりあげ
セ
エビ
幼生
ＬＩＢ
ホン
ｐｅｒｉ@@
Ｇｉｂｂｓ
ＶＰＮ
ールド
恥@@
ＭＰＬＳ
ふる@@
ＭＥＴＲｘ
固溶体
フォーマンス
ＰＣＮＡ
ＮＲＣ
住
寺
松@@
ＳＥＴ
復調
ヒドラ@@
浮動
シュ
クランク
磯
Ａｎ
Ｎｅ
輪状
ツーリズム
厄@@
ビュー
パンフレット
ＴＴＰ
ｌｅｘ@@
ＦＦＲ
シンターゼ
供@@
ｒｅｗ@@
ｓｔｅｒ
ＰＤＣ
火力
管癌
ジストロフィン
スプライシング
ＳＳＲ
逼@@
Ｔｈｏｍｓｏｎ
飼養
仮@@
草本
欲し
バーチャル
反跳
梁@@
ＬＣ@@
ＭＲＳ
臼@@
スタン@@
ａｌｌ
爪@@
郭
離脱
すい
違え
誤@@
バイポー@@
耐用
ネガ
汚
ケー@@
労
因果
取りまとめ
バラツキ
有病
政令
難@@
ｈｉｐ
転子
淋菌
ラル
管路
連立
吸光度
資産
融資
権利
給与
退@@
フラボノイド
可溶
呈@@
激痛
り込み
スピーカ
当たり
カップリング
ハミルトニアン
穀物
玄米
電算
遺@@
量@@
クロロ
独@@
熱力学
ロジスティック
ａｒｄ@@
すす
前駆
刊行
湖沼
妨@@
蟻
ＩＳＭ
産卵
世
騒
選別
ＮＡｓ
ビュー@@
かかりつけ
アドバイス
随@@
伴@@
くらべ
ベーシ@@
ジー@@
ンズ
’ｓ
１９８５
クシ@@
不溶
ｓｍ@@
水域
沿線
曇@@
極微
ＲＴＤ
アレー
ＭＴＲ
アンダー
きめ細か
グロビン
ＳＴＮ
太@@
学問
側方
スピングラス
ｓｋ@@
ｙ‐@@
バチ
ｏｒｎ@@
ｒｙｓ@@
ｆｏｒｍ@@
ｏｓａ
優占
彼女
明記
ＣａＯ
給気
シソーラス
Ｂｅｔｈｅ
スキル
病状
モザイク
占拠
ＱｏＳ
防除
ＨＥＬ@@
無痛
１６３
ｍ３
優@@
雅
シデント
マネージャー
１９７１
ｅｏ
Ｃｅｎｔｅｒ
稲@@
わ@@
持ち@@
司法
アフ@@
ナシ
ｌｌ@@
ｍａｎｎ
ＧＴＯ
弧@@
Ｎａｖｉｅｒ
Ｓｔｏｋｅｓ
丈
ラム@@
スタイル
′@@
地元
カチオン
マグ@@
ＩｎＳｂ
とりわけ
ｉｌｌｉ@@
光沢
侵
提起
麻
イレウス
組み換え
ｒｅｃ@@
滑@@
焼き@@
是正
外的
内的
メラ@@
ノーマ
ＩＶＭ
チア@@
ダゾール
ラッピング
原色
Ａｐｏ
神@@
祖先
形@@
づ@@
水田
ラミ@@
ナー
ロボ
ドック
チケット
ＥＣＤ
ＬＰＳ
専@@
任
ホイ@@
ＮＩＸ
井@@
架橋
傍@@
るか
キャピ@@
ＬＢＭ
体幹部
巧み
す@@
ばら@@
メード
来る
Ｐｌａｓ@@
Ｇｒｉｄ
ｒａｙ
オリティ
ＢＶＰ
ーシ@@
ュ
訪@@
ｓｋｙ
ＡＶＤ
ＳＢＴ
ブラスト
ＤＬＴ
ｌｉｎ
繁@@
華
遊
論争
ＪＲ
鉱@@
基油
ＢＩ
バラ
ＣＴＤ
コレクション
本年
２００７
帯血
ａｕｇ@@
骨透
亮
ートメント
下剤
推@@
行き
前屈
弾力
ＩＵ@@
ＧＲ
Ｇｕ@@
ａｃｈ@@
マグニチュード
胆道
宿
寛解
膨隆
地位
単発
コンピ@@
タンス
打抜き
会計
１４００１
ｐｉ@@
ｍｉ@@
ｅｉ@@
ａｕｔ@@
ｅｈｉｃｌｅ
陥凹
波源
ＴＡＴ
肘@@
病床
ほ乳
肥育
ｍｕｌ@@
脅か
補聴
噴火
ほ@@
冠状
液相
引起こ
偏@@
水車
香川
重極
プレー@@
スメント
堤@@
直下
倒壊
煤
エマルション
ローマ
フォ@@
威力
レニン
オーバーラップ
損耗
準位
阿@@
武@@
隈
山地
教示
ＦＬ
不備
イルカ
セラピー
顔貌
再度
シード
見かけ
補間
河口
ＢＯＤ
バック@@
マイコ@@
ＧＭＯ
組換え
ＧＭＭ
締
発効
各項
高熱
ッジ
中等
申@@
ナノ@@
暮
牛床
マット
尾部
Ｌｉｇｈｔ
ｅｐｔ@@
ａｎｇｅ
装具
ＰＶ@@
固め
ＮＧ
ＥＮＧ@@
枚@@
ふまえ
Ｐａｇ@@
高力
ＥＩＡ
たい
フタル
中長期
鞍
アゾ
異質
ＤＷ@@
付随
ｉｎｉｔｉ@@
視程
カルニチン
ＢＳＣ
潮汐
高低
視認
鮮@@
以後
氷@@
京@@
ＣＧＡ
下床
癒着
ａｉ
組立て
Ｆｌｕ@@
取上げ
習性
支@@
ｏｍｙ@@
エノ@@
サブセット
ミツバチ
ｆｌｏｗ
ｂｌ@@
卵白
本論
リソ@@
グラフィ
打ち
ＳＭＲ@@
撤去
施用
Ｃｈｉ@@
ａｒｉ
固@@
教え
手帳
セン
ドーパミン
リバ@@
ウンド
銀@@
訴
μ@@
コサ@@
ミノ@@
ベンダ
ＥＤＡ
Ｔｅｃｈｎ@@
ａｉｒ
ＴＭＮ
浴@@
何れ
電機
精巣
ＸＴ
附属
相補
ＩＬ@@
エラ@@
下面
カリ@@
不織布
Ｃｅｒ@@
おおむね
Ｏ２
矢状
振り@@
浮き@@
防振
遮音
キャッシュ
髄核
高位
ＦＦＴ
近隣
泥@@
アン
ＮＦ
エピ
リウム
反り
霊@@
痛風
Ｓｒ
巻線
ミッ@@
′
通電
Ｌｙａｐｕｎｏｖ
抜本
ルーツ
ＮＰ@@
焼灼
恐怖
りつけ
貫
Ｒｅｔｔ
右室
ｗａｙ
夫
とり@@
自信
陸棚
Ｐｒｅ@@
ネル
Ｌａｇｒ@@
アム
Ａｈ@@
財政
陥
ソリューション
脱色
ホース
大変
ｙｌ
相殺
巻き@@
課@@
病室
収納
瓶
何@@
髄膜
店@@
ＵＮ@@
ｆｕｍ@@
ＰＨＡ
ＰＷ
ケット
Δ
孔@@
ストリッピング
ｄｕ@@
ａｓｉａ
銅板
ウレタン
ａｎｄｅｒ
厚@@
導電
きち@@
んと
事柄
ｖｉｔ@@
紅色
触診
東洋
名称
埋込
ＳＨＧ
協働
体動
リモコン
滅菌
ＣＷ@@
ＮｉＦｅ
飲食
数千
￣
捕
ティクス
インス@@
ツル@@
メン@@
桁@@
ＴＬ@@
ＶＦ
制動
Ｆｏｕ@@
２０１
ＩＥＥＥ
造成
ＮＩ
除@@
排@@
ａｕｄ
階
株式
社@@
債
決済
ション
フロッ@@
ＶＥ
ｓｉｖｅ
Ｐｒｏｊ@@
ＣＰ@@
パール
牛群
イネ
づ
鉄剤
スチ@@
ョン
もち@@
ｕｓｅ
限@@
端@@
緒
兼ね@@
ビー@@
セボフル
疫@@
ＣＥＲ@@
Ｈｅ
テトラ@@
畿
Ｓｕｒ@@
Ｅｑｕ@@
エッセンシャル
鉱石
リブ
フリ@@
ーズ
賄
貧
綱
ミズ
ず@@
楽器
遠@@
腐敗
ライナー
びまん
公益
選@@
Ｚｅｅｍａｎ
極薄
貼
ＫＥＮ
カウンセラー
延@@
Ｊｏ@@
ｃｈｅｒ
ｏｒｐｈ@@
ｏｎａｓ
ｉｖ@@
ａｌｉｓ
ｄｉａ
歯周
病@@
ノキ
薦@@
埋蔵
夏期
原始
ＣＡＢＧ
時刻
ＨＣＰ
据@@
設
情緒
都合
いき@@
さつ
レコーダ
痩@@
ＯＰＳ
サード
パーティ
ｏｖｅｒ
６１０
ブック
はい
ｂａ@@
ＰＷＶ
稀@@
ＡＣＡ
ンチ
へき
縦型
麦@@
複
包
断裂
ロドプシン
敬
キャラ@@
マスコミ
宣@@
伝
じょ@@
天秤
ＱＣＭ
定額
メチ@@
公布
卵@@
鶏
ＢＬＭ
賊
泌乳
外壁
押出
れい
極子
ＰＣＦ
１０４
パナマ
医科
聞@@
灰@@
吸光
腹症
腸間
弁@@
惣@@
菜
垂
ＳｔＡＲ
プロモーター
ロング
ドレン
なが@@
畦@@
塗
ざる
大変形
軍@@
経由
ドプラー
定在
て@@
ＮＳＩＰ
体幹
高脂
型別
蒸散
２２３
フォーミング
ピラミッド
暖@@
ぼみ
プロテ@@
オーム
乗算
個数
オーバライト
膝@@
エコ
挟
従@@
兄弟
獣
撲@@
滅
大臣
ＣＯＳＭＯＳ
吸水
完@@
掌
せき
髄様
全摘
輝
ＴＳＨ
索
同胞
ｕｈ@@
ピエゾ
ＥＲＣＰ
難易
ダイアモンド
ＥＥＤＦ
両極
テール
ヨウ@@
すすめ
もっとも
賞@@
賛
パッキン
５０６
ＬＬ
緑化
びらん
ＨＴＳ
五
Ｈａ@@
岳
頂
霧
掘@@
因
驚異
大き@@
あらわ
婚
滑
焼き
くしゃみ
抜@@
直列
手掌
えき
ｔｉｌ@@
へん平
アセン@@
ブル
ＳＣＯＲ
協同
ｄｉｓｔ@@
ＣＢＲ
ｅ‐
ｂａｓ@@
堤
ＡＴＬ
プロファイリング
探鉱
白衣
湿原
Ｂｅ
Ｐｏｃｋｅｌｓ
硬結
バエ
検疫
腫よう
かご
ＴＳＡ@@
ジュネーブ
トロポニン
ＮＡＮＤ
リーダー
本部
後継
ＮＧＯ
来院
出展
ａｒｉ@@
亜@@
眼圧
自記
Ｒｈ@@
ｏｄ
帳@@
養豚
偏極
Ｘｅ
１２９
元@@
バイポーラ
音色
ハイビジョン
静圧
ＵＶＡ
ＵＶＢ
蘇生
２２０
脇@@
役
返@@
却
つながり
局@@
シャント
Ｍｅｄ@@
築@@
理@@
躍@@
ベンド
室@@
消音
所期
桑@@
レシ@@
加@@
媒@@
染
線状
ＰＧＡ
Ｍｉｃ@@
ｍｅｇ@@
ベル
ＩＮ
ＮＬ@@
ラグランジアン
心肺
サンド@@
コンパ@@
クション
パイル
まい
書き換え
ニュートリノ
大手
ｅｌｌｅｒ
バッテリ
複屈折
ｉｎｃ@@
´@@
機動
乱
フォント
絵
ＭＢＬ
ｔｅｒａ
岬
運行
隻
Ｗｏｒ@@
採り入れ
但@@
防犯
全社
本数
以@@
カウンタ
ゲーション
前年
トピックス
スケ@@
諸説
新庄
ＦＶ
カスト
旋削
外形
貝
ダイヤ
座席
脱線
ＰＥＩＴ
ラク@@
昼夜
牧@@
函@@
キセノン
ｔｅｄ
震央
前面
精液
クレジット
レクチン
ダイナモ
烏@@
龍
溜@@
揺
約@@
Ｅｒ
カリエス
著効
方@@
見出だ
台車
佐@@
アイソ
紋
クリアランス
アップ@@
通知
運@@
ｑ@@
エスケ@@
漸@@
私見
少@@
演奏
水槽
ｇｏｒ@@
汚水
ウル
許@@
諾
ネオ@@
澄
放@@
ｗｉｔ@@
ノック@@
安静
立位
指@@
先天
干@@
辞@@
典
コンテキスト
ホルム
助言
高原
有料
釘
冷中
見当
識
金星
気球
天体
ュー
ＩＮ@@
珪藻
耐圧
エフェ@@
ドリン
開度
ＴＣＤＤ
引き
環@@
一元
ダクション
自宅
昼
倒@@
途
聴取
ベル@@
突き@@
ベーク
綾@@
立て
腐@@
熟
チャン@@
ネリング
Ω
受入れ
限局
マクロ@@
母体
小体
ＰＴＣＡ
出水
ＭＣＩ
ぐれ
蓋
磨耗
半値
弓
右股
ａｎａｌ@@
ｓｃａｌｅ
公社
ＶＰＥ
累@@
り出
冷感
ディング
オリゴ
へん
解読
励@@
ｖｅ@@
ＵＡＳ@@
運賃
リーク
ｏｆｆ
民@@
党
双対
刑@@
浜
任@@
タッキング
ステー@@
生地
ミュー@@
封@@
ＶＲＭＬ
磁器
美術
南西
検@@
傾き
学術
ｔａｌ
加算
メタ
パーマロイ
促@@
分間
バックアップ
骨端
拒否
解毒
フラッタ
タイル
稜
カルボ@@
キシラーゼ
漢字
ｄｅｒｍａｔ@@
ａｎｓ
月@@
旬
養成
Ｔｍ
誤り率
前進
傷つけ
ベアリング
ッション
ポスト@@
乳汁
搾乳
喚@@
サーマル
同性
渡航
海中
献@@
ＪＰＥＧ
足背
ＦＣ@@
隅@@
養生
ａｎｔｉ@@
弱毒
ｋｅｌ@@
態@@
リングレーザ
後天
血@@
友
モックアップ
翼@@
抗力
コンディ@@
品川
換
通路
跨@@
築
成@@
ザイム
所@@
Ｍａｃｈ
掛け
エナ@@
微@@
ＰＳＤ@@
流下
東南
ラテン@@
グレ@@
ＳＩＭＯＸ
ＬＭ
多変量
ポリマ
自社
船外
殆@@
んど
Ｍｂｐｓ
ヒアルロン
右肘
両膝
創生
Ｆｓ
示@@
体液
瞳
Ｅｒ@@
ＲＥＭ
ＥＥＳ
インフラ@@
ストラ@@
クチャ
書き@@
ＴＥＧ
昔
私
ｉｔｔｅｒ
Ｓｐｅｃ@@
ａｔｉｏｎｓ
物語
液中
爆
搬
岩@@
窓@@
クリニカル
２３５
豚肉
マイナス
作付
コレラ
鋼製
ＨＢ@@
符@@
空腹
愁@@
レジャー
マン
ロケーション
カイ@@
コ
ヘッド@@
フォン
ＴＮ
旋光
たばこ
題
曲が
テレ@@
同じ@@
ッタ
書き
宝石
ランク
替わ
ＲＥＴ
ＡＳＶ
刺入
抗酸
紛争
助長
骨材
インド@@
シナ
半島
貯水
Ｊｏｎｅｓ
デーション
粉塵
カビ
ＶＣＭ
ミカン
ポンピング
アカ@@
ペラ
保@@
養
ＪＥ@@
農林業
センサス
耕
シリ@@
サイ
キャベツ
ワ
アブラ@@
水冷
セラ@@
ＡＭＬ
ｅｍｉｃａｌ
ｆｉｅｌｄ
左房
ＣＥＴＰ
ＡＳＳ
歯科
欝@@
ｉｔｚ
ＤＵＶ
カーボネート
林業
堆@@
顕@@
快
頬@@
可燃
喫食
手首
織@@
抜釘
モン@@
ゴル@@
ビ
ａｐｈ@@
無菌
親魚
耐火
収@@
蔵
ｇｏｏｄ
ＤＶ@@
ＣＦＲＰ
ポット
揚水
上水
ｌｏｇ
崩れ
ｊａｐｏｎ@@
ｉｃｕｓ
入り口
ラフ
哲学
ＩＢＤ
ＣＯＰ
通年
Ｔｉｍ@@
莫大
ちょう@@
鍵@@
蔓延
ＣＨ@@
勘@@
コレステリック
ｌａｓｔｉｃ
半減
キャリア@@
ノン
スポ@@
ロトリ@@
グアニジン
全般
脊@@
ｅｒｅｎｔｉａｌ
小指
成虫
泳
製鋼
直前
枝肉
メト@@
純@@
渦巻
ω
主治
ピール
紡錘
納豆
アウトソーシング
土質
ストロ@@
チウム
トール
ｍｏｌ
梱@@
奪@@
還
リン酸
スコープ
繊細
論述
吉
ＰＴＤ
国連
ーゼ
ＤＦＴ
コロニー
水滴
ぼう@@
奏効
丁
電球
測光
ｕｔｚ@@
巡視
大小
殺@@
リップル
偶然
腎癌
西欧
抑止
ＤＳＣＧ
敗@@
高潮
エリスロポエチン
作付け
ジン@@
イント
Ｒａｓ
Ｒｈｏ
ＩＶＩｇ
髄内
軸受け
ｒｅｇ@@
ジェン@@
艶
１１@@
厨房
スピー@@
ふく射
ボトム
潟
刃@@
急増
宅@@
Ｕｎ@@
Ｖｅｈｉｃｌｅ
ね@@
ハワイ
吊り
ｔｒｏ@@
メトロ@@
ニダゾール
困@@
惑
驚@@
ポジティブ
紫色
細@@
貞@@
治@@
ブドウ
ＴＳＣ
ＴＥＲ@@
圧潰
ＧＡＭ@@
ＤＩ@@
Ｃｈｌａｍｙ@@
‐Ｈ@@
Ｃｕｒ@@
中部
ウェハ
戦争
トランジ@@
下層
ペースメーカー
吐出
延ば
志向
児童
資@@
堂
リンス
トープ
ｓｈａｍ
ＮＲＤ
ヒドロ@@
ｓｉｂｌｅ
比重
＜
ＯＩ
俊@@
敏
プシン
プロバイ@@
Ｄｅｂｙｅ
アデニン
タクト
ミシ@@
抗癌
ヘルペス
真剣
きっかけ
止血
潜熱
ＥＤＸ
／ｓ
部痛
ＳＡＴ
魚体
ＲＥＥ
ｅｒａ
カテ@@
演題
就@@
パウ@@
ゴルフ
酎
コンビ@@
ナント
トラ
ＥＬＦ
ディー
秋季
体操
大事
ヒー@@
ディスカ@@
ｈｒ
Ｐｂ@@
ブロッケード
放流
シリン@@
ＴＧ
縦断
スカ
望@@
縦隔
ＧＥ@@
ｒｏｍａ
ワイ
ν
奇
ビオチン
ＴＡ
対立
残余
旭川
ＲＰＤ
ＭＢＦ
ＭＡＩ
フーリ@@
ェ
瞬
踏
仙
集ま
賢
取り囲
妙@@
湧
格
結婚
ぼ
ｏｍｉｃ
ｄｉｓ@@
てんかん
ＬＯＮＷＯＲＫＳ
けい
ｗｅ@@
ｐｏｌｙ@@
ｅｔｈ@@
ｅｎｅ
ＨＯ
摺@@
鉛@@
筆
制振
ダンパ
反省
ブタン
ＬＰＧ
等化
トラッピング
ｍｕｎ@@
ＧＯ
ｏｖｅｒ@@
戦@@
ＡＣＫ
ＳＡＮ
ストレージ
欲@@
求
タケ
レー
ｅｌｄ
フォルニア
ＶＬ
キノ@@
Ｂｅｎ@@
アウト@@
ＡＲＩ
もしくは
円盤
耳介
海運
ＩＩＰ
玉@@
ＣＨＯＰ
ジョイント
図書
清酒
プット
ｕｎｃ@@
耐糖
４８０
船@@
ＤＭＩ
ＡＯＴ
成育
故@@
十
ＢＺ
同定@@
ＤＧ
擬
泉
闘
リゼーション
バイオ@@
リアクター
ｐａｔ@@
ＲＥＭＰＩ
ＧａＳｂ
ＵＩＤ
か国
硫
無害
肩@@
Ｊａｃｏｂｉ
かじ@@
発注
集録
背@@
ライセンス
ミクロ@@
封止
併発
結露
長尺
リポ
各組
織
典拠
蜂巣
ＶＣＡＤ
ッセン@@
岩手
点眼
り合わせ
バネ
しゃ@@
っくり
けいれん
れん
領
ＵＬ
ミニマム
スクラップ
栗@@
代理
浮力
筋膜
ａｃｔｅｒｉｕｍ
ｔｕｍ@@
ｉｅｎ@@
途@@
絶
淡路
ＶＬＤＬ
ＩＤＬ
Ｅｌｅｃｔｒｏ@@
ｏｓｉ@@
プロテイン
懸濁
ｅａｒ@@
桜@@
よ@@
τ
娘
色々
セクタ
アノード
コネ@@
クト
２人
メタ@@
ロイド
（@@
海面
遅発
コンポスト
臭@@
ころ
バルト
産出
インフ@@
クタ
プル@@
関税
ムスカリン
等方
Ｎｐ@@
官
Ｓｃｈｗ@@
ＣＡＩ
動詞
句
省略
乗客
テク
ニュートン
ｓｅｄ
ｏｓｔ
裏
換@@
プロフィ@@
ζ
くれ
Ｃｏｘ
Ｂｌｏｃｈ
根幹
鋼材
タイトル
潜時
バレー@@
Ｒｈｏ@@
ＳＨＲＳＰ
目録
分科
前期
暗示
イング
炉内
プラズマ@@
リアクタ
分域
ＩＥＴＦ
技研
イソ@@
エン
発射
迎え
ＯＣＮ
ｏｆ
全員
ＰＡＣＥ
深@@
ＲＦＱ
永眠
おいし
詳@@
利
業績
近畿
スク@@
果
Ｋｌｏｔｈｏ
バッファー
生薬
節減
集まり
インペラ
２Ｏ
Ｈｉ@@
ｔａ
リゾート
プリック
ストリーミング
レム@@
壁面
梅@@
雨@@
Ｓｃｈｗａｎｎ
糖度
ょ@@
剖検
ルシ@@
心配
Ｈａｒ@@
ＢＬ
キサ@@
ゾロン
繰り@@
揃え
ｈＨＳＰ
ｕｉｓ
疎水
清涼
直角
面内
本剤
肝性
開裂
志@@
潅
ヘリカル
アッセイ
情況
見い@@
だせ
ｄｕｃ@@
塗@@
徳@@
ペル@@
クチン
インセンティブ
事後
双晶
符
天敵
セミナー
基調
高域
使い@@
捨て
裂
連絡
Ｐｉ@@
威@@
安易
ＣＯＲ
ケイ
部署
トーク@@
鼻@@
ＡＭＡ
Ｚｅ@@
ラドン
官能
方解
ＴＲＨ
δ
型@@
透かし
Ａｄｖａｎｃｅｄ
石鹸
ナルコレプシー
ＫＤ
尊重
ＦＡＣ@@
骸
小さ@@
システイン
冷水
ヘリコン
スイ@@
狂犬
打込
噛
ヨン
転落
メチル@@
ピル
エミッ@@
ＬｏｎＷｏｒｋｓ
富山
台形
炉@@
肋間
壊@@
改札
コンコース
通行
ｅｔｅｓ
ｐｌｉｃ@@
Ｓｔｕｄｙ
裂隙
バソ@@
プレシン
尿崩
ファクト
スミア
アリング
ブレーク
ＣＳＭＡ
プラス@@
げ@@
シンチ
メーター
グリセリン
軽@@
凍@@
ジェクト
ｔｏｃｏｃｃｕｓ
ｏｆｏｒｍ@@
ユーティ@@
リティ
入り込
ミン
カイラル
ブロー
恒
建て
吹
余暇
ュ@@
ッセル
某
１６８
奏@@
右心
ｄｅ
Ｓｉｔｔｅｒ
ライニング
ライフスタイル
テーラー
メイド
被
Ｆｉ@@
水位
近医
リプル
弱点
繋が
ボンベ
ＲＡＤＩ@@
デューサ
励振
サイクリング
測距
ケプストラム
セグ@@
トロール
熱水
苛酷
アルツハイマー
スパン
政
ｕｌｌ
居室
Ｂｃｌ
取込
ａｓｓ@@
プロダクト
シンチグラフィ
ＫＲ
フェリ@@
ニド
頚椎
彫@@
刻
敬@@
トリノ
ミリ@@
ａｕ@@
ベー@@
フロン
チョ@@
ＫＥ@@
ＩＮＣ
ＭＥＣ
怒@@
挨@@
拶
逐次
往還
遷
音速
サプライチェーン
高次
プロバイダ
ＳＰＥ
茂
奨励
ｈａ
薬液
トル@@
Ｍｅｒｃ@@
ｕｒｙ
遡及
可積分
ＬＨ@@
インタ@@
失神
ＬＴＰ
牧
草地
絞り
アストロ
ペイン
盆
ベリ@@
ＵＴ
タミ
太
ウラ@@
Ｍｏｔ@@
Ｔｏ@@
ＯＫ
Ｏｐｅｒ@@
きの@@
ラウ@@
バレル
延伸
コムギ
沈下
バイ@@
逆比例
皆無
長寿
込め
フェリチン
Ｍｓ
分画
寒@@
肩甲骨
ビニ@@
筒@@
視察
青@@
ＩＧ
焼結
ａｌｉｔｙ
車種
ソル@@
針@@
灸
ＳＳＢ
場中
交え
鹸@@
外挿
シミュ@@
パラメーター
独占
ＳＳＧ
パイ@@
洋@@
缶@@
詰
ーター
擦
増倍
ｒｉｅｒ
Ｈｕ
東芝
航@@
円板
ｏｍｅ
セメントレス
ｏｕｌ@@
ティン@@
ｑｕｅ
ルーメン
人手
ＣＭＳ
慣行
ＲＩＥ
入札
珍し
アセチル
郭清
民族
父@@
氏@@
アルカロイド
廃熱
草案
ＬＴ
泳動
１９７５
ＯＰＧ
ＯＤＦ
モル@@
優劣
天気
弘前
多用
プレックス
請求
ｏｐｈｉｌ@@
ｏｃｉ@@
ｄｉｓｅ@@
魚@@
卸@@
売
済
モンスーン
吸熱
ｕｎｃｔｉｏｎａｌ
ｄｅｐ@@
ＰＣＬ
棄
励磁
Ｄｒａ@@
沿面
密閉
ゲル@@
ハンス
ピリジン
布設
プロセシング
ＭＵＳ@@
ＲＦ@@
ＣＳＲ
まちづくり
パリティ
ＥＰＤ
人命
休止
ＴＨ
スマ@@
ＦＩＸ
ｉｃｓ
全米
創作
苦情
気液
・@@
誌@@
ＯＰＡ
Ａｒｃｈｉｔ@@
キャンプ
ＮＭＤＡ
結び@@
概@@
池@@
Ｒａｙｌｅ@@
重ね合わせ
益々
リサーチ
ＦＫ
巨@@
高騰
くり@@
珠@@
洲
能@@
登
ニオン
噛@@
毒物
程
ＣＪＤ
マネー
固相
階級
昇@@
身@@
遇
評@@
議
Ｈａｄ@@
巧@@
拙
えば
律速
ゆえ
Ｈｆ@@
ジル
喉@@
作り@@
フレキシ@@
非鉄
スチレン
シガ@@
心がけ
ＭＬＡ
Ｍａｊ@@
ｅｓｔ@@
マイナー
クラブ
耳@@
ａｔｉｖｅ
ＭＰＴ
エビデンス
エータ
低迷
Ｄａｔａ
ｓｉｓｔ@@
ＲＬＳ
砂質
久山
コホート
液面
賛@@
トウモロコシ
杵
郡
枝@@
鎖長
ａｎｓ@@
エピ@@
ｏｎｅ
多相
ＲＡＳ
Ｖｏ@@
手が@@
都心
着地
捺染
クロ
マイト
零@@
照ら
Ｄｙｎａｍｉｃ
Ｌｏｗ
山間
ザル
ステロン
復
アラ@@
靴
均衡
注腸
後面
ＱＤ
エチ@@
オピ@@
栽@@
剛@@
震
金@@
メモ
ｈｉｚ@@
十@@
嵐
ＴＰＥ
ホロジー
ＱＬ
Ｒｕ
侵食
オセアニア
がり
態度
±
ｃａｐ@@
Ｋａｒ@@
賦@@
与
ＤＰＴ
造@@
ａｎｋ@@
ＦＩＲ
振れ
車@@
封
シェー@@
申請
全貌
式@@
当り
文脈
俗
強直
キャリアー
フローサイト
表式
調波
モジュ@@
ＰＯＦ
アンロード
芽腫
コラボ@@
プロピオン
半身
挙@@
行@@
詰@@
企@@
発想
調律
ＴＰＮ
水管理
櫛状
デー@@
機転
消炎
含@@
塊@@
課程
ダイヤ@@
ドライ@@
ロジカル
濁@@
臭化
非@@
ＥＤＦ
ば@@
破れ
輸液
云@@
μｓ
ＳＩＲＳ
滴
義
越@@
薄肉
じ@@
徐放
販
かび
高調
ポリゴン
分娩
化膿
架空
スライディング
複@@
黄斑
サイトカイン
ＮＧＦ
らせん
ＣＡＰ
総和
直売
ＭＰＯ
支払い
代@@
ホール@@
電器
玄@@
卑@@
弥@@
削
エンドミル
ＰＭＸ
メルトリン
メニ@@
ハンドリング
流束
ｉｔａｌ
質疑
ＲＦＰ
エチル
アルキル
連関
埋立
→
コンピューター
伊豆
諸島
鼠径
標定
東海道
予@@
力点
冷暖房
養護
ポリスチレン
敏@@
農
ＴｉＣ
ＤＨＥＡ
胆@@
摘
ダウンロード
凄@@
生き残り
秋@@
粛
ミニ@@
テクノ@@
ロジ@@
Ｓｅｌ@@
ｅｔｅ
ＣＣＣ
ＳＵ
福@@
腰@@
カ国
し好
ＴＭＩ
沖
水深
ヤギ
建@@
方形
払い
Ｐｉ
ＪＵ@@
ＩＤＴ
肢@@
側鎖
パッキング
クロストーク
バウ@@
インテ@@
所与
疹
Ｍｕｅｌｌｅｒ
アー@@
骨粗しょう
ＡＤＩ@@
読み出し
ガラ@@
ｌｉｃｈ
旺盛
砂@@
ＬＦＣ
上り
ＨＦＣ
テック
陳@@
腐
蛍@@
飾
ｋｂ
輪@@
日齢
査@@
満@@
ＰＡＭ
危ぐ
植え込み
こえ
隠
負性
幼稚
撚@@
偽
ほう素
Ｓｃ
ａｆ@@
ッティング
アクチン
快@@
伊
ビル@@
ベリー
ＷＲＮ
念@@
表在
角質
立上げ
たが
ｏｚ@@
巻き
給湯
性腺
葉@@
西方
海流
程@@
管壁
洞@@
肺野
木造
クロマ@@
処
シロ@@
ｎｏｖｏ
ＧＬ
即
チンパンジー
発話
アセトアルデヒド
いつ
Ｗｅｉｂ@@
瀬
グマ
踏み@@
ザ@@
ゼン
揺れ
タイト
イダル
ＨＯＴ
通話
尖
ｆｌｅｘ@@
ｏｓｔｅ@@
稲作
潅流
銃@@
ｃｍ２
軽症
メトトレ@@
Ｔａｔ
内在
見出し
白黒
遭
緊@@
級@@
下限
Ｎｘ
ＡＭＦ
しゃ
ｆｉｅｄ
ｍｉｃ
両親
被@@
服
隣
デキサ@@
メタゾン
Ｓｍ
Ｙｂ
過小
見つか
ヒュー@@
マンマシン
住居
ｄｏｕｂｌｅ
ＩＮＰ@@
ｃｏ
ジノ@@
リド
ＰＷＲ
煮@@
ｓｙｎｄｒｏｍｅ（
暦
尽@@
荒廃
埋@@
竹@@
免震
送受信
セッシング
ｅａ
ｃｌｉｎ@@
ゼ
Ｋａｌ@@
清
隠れ
顎@@
トモグラフィー
ＲＦＬＰ
触
調味
分解法
アーカイブ
２８０
ＶＱ
肯定
Ｔｏｄａ
ｉｒｙ
実車
腎@@
摘除
いかなる
エル@@
胴
隙
燈
腔@@
サリチル
サリ@@
ミド
濃@@
薄片
ＹＢＣＯ
産学
験
期@@
審
挫@@
多値
彩度
ＣＮ
価@@
坑@@
呂
稔
尿路
葉緑
痛@@
ａｓｔ
ａｔｏｒｙ
ｔｅｉｎ
単色
ＪＩ
ＤＤＴ
ｕｃｈ@@
ＵＥ
返し
僚
榛@@
沢
男
椎
層別
うかが
享@@
ミキシ@@
廃@@
衰
油剤
ＳＡＰＨＯ
ＢＩＴ
腸骨
ギュ@@
らし
机@@
潜@@
ＰＮＨ
射影
咲
弱め
演じ
喜@@
ケージ
ブレー@@
忙
偶発
ハイブリ
ダイゼーション
綴@@
圧入
果皮
癒@@
Ｐｒｏｃｅｓｓ@@
Ｏｒ@@
ｇａｎ@@
Ｅｍ@@
グメント
ゲイン
ジャム
酸度
尖@@
エコ@@
本機
例題
糖質
単層
ボンド
Ｃｏｒｅ
主力
最長
フィレット
排卵
プリノール
オキシ@@
川@@
イド@@
アニー
導@@
那@@
珂
婦
マッチ
くり
製鉄
音圧
ＸＬＰＥ
製薬
ード@@
跳
ターゲ@@
コンベヤ
普通
ｒｍｓ
ｉｎａ
下血
泣
ＩＴＡ
漏@@
振る舞い
祝@@
造林
モーダル
ＲＬ@@
摂
播
‰
頻
ＡＰＴＥ
航
全部
閃@@
絡
ＳＣＲ
評定
読影
Ｐｒ@@
使え
大体
高所
ＳＲＣ
サブ@@
ヤード
Ｍｏｔｔ
ｚｏｎｅ
インデックス
割り@@
振
ルミ@@
ＳＣＬ
勇@@
定型
ＡＤＰ
律
ＤＴＶ
Ｉｇ
ｆｉｎ@@
遷延
本態
ＮｉＯ
桜
３５０
ＤＥＭ@@
階@@
Ｉｒ
アイソトープ
鼠
底層
ＢＶ
ネラ
参画
筑@@
覇
駆血
ＯＧ
供試
カテプシン
ＳＢ
おう吐
活
フィブリン
電磁界
ｃｅｐ@@
Ｔｗ@@
ｔｓ
Ｈｉｇｈ
Ｊａｖ@@
永遠
アトロピン
アライ@@
Ｔｓ
母材
Ｆａｎｃ@@
ｙｐｅ
母乳
グルカン
△
豊@@
浦
ネット@@
生ゴミ
蒸@@
胎生
録画
フォト@@
親@@
肉牛
ｔｈｅｒｍ@@
ＨＤＴＶ
切替
踏切
居宅
乾性
ＰＺＴ
虹彩
ｍｅｒ@@
携わ
グロブリン
ヒツジ
鏡像
ｂｉｔ／
あらかじめ
コンサート
馬@@
蹄
ハーモニ@@
ペス
受変電
コー
社長
ビー
メトリ
ａｕｅｒ
ポジショ@@
揚力
ＢＳＴ
度数
ＤＯＳ
ブラシ
ｎｅｕｒｏ@@
Ｍａｎ@@
ｕｆａｃｔ@@
バリオン
スーパ
助
底@@
貸@@
借
インターロイキン
スプレ@@
ソン
水面
質@@
ラビリンス
各点
マルチ@@
混@@
サンプ@@
秤@@
ＩＣＲＰ
記念
ーブ
キシレン
ＤＤＭ
スピーカー
株@@
リモデリング
ディップ
クランプ
執
バイト
ＶＨＦ
フネス
ＡＲＣ
理工
概日
陶器
ユビキタス
時痛
各群
昼光
臭気
おい
暖
フィット
飛
用法
充足
溶鉄
骨芽
スペー@@
Ｈｅｌｉｃ@@
ｇａ
ｅｍａｎｎ
フーリエ
ＷＧ
腸管
Ｄｓ
カルバ@@
ゼピン
袖@@
ｐａｔｈ@@
Ｏｅ
ＩＣＣ
伊@@
アス@@
ゲン
リーフ
レタス
ダイバーシチ
Ｐｅｎｎ@@
Ｐｒｏ
執@@
Ｂｒｕｇａｄａ
ＣＹ
富士通
Ｐａｃｋ@@
トレー@@
デュアル
ＳＶＣ
ジス
ＵＶ@@
ケーシング
泌@@
鎖状
ｅｓｓｍｅｎｔ
凸@@
凹@@
ｍｕｌｔｉｐｌｅ
ｒｉｎｇ
茨城
県内
Ｍａｙ@@
ザン
毎月
ピュ@@
徴@@
兵
スー@@
Ｂｌｕｍ@@
面@@
チロ@@
仙骨
ＬＤＰＥ
ＩＺ@@
認@@
容
給電
散逸
ブラシレス
ニティ
蚕
イー@@
邪
裸@@
テ
暑熱
接
青銅
プラズモン
ポラ@@
ＢＰＤ
アザ@@
汚濁
電車
ハーブ
ｂａｃｋ
ｏｌｄ@@
インフラストラクチャー
アミ@@
遊@@
タリー
アルカ@@
クリプト@@
スポリ@@
違反
掃
自助
ＧＡＰ
菌類
カッ
スキュー
Ｎｅｗ@@
ｏｎ‐
問い@@
７０@@
地震動
１２８
フルオロ@@
渇
療育
釣合い
見過ご
蒐@@
サマ@@
磁極
蚊
ウマ
ＺｎＳ
きっ抗
寛@@
クロロ@@
更
ティック
後続
チューター
クリーク
Ｃｄ@@
ＰＩＸＥ
技@@
めまい
Ｃｌｕｓｔｅｒ
りん@@
砂糖
ｄｅｒ@@
ｗｏｏｄ
ユウロピウム
ＳＧＡ
スプリアス
槽@@
未然
ｓｐｅｃ@@
ゾル
ａｗ@@
ｅＶ
ベン
Ｂａｒｒｅｔ@@
ｔｅ
すきま
ＥＧＦ
客@@
南@@
梅雨
ノーマル
幹@@
途中
Ｓｕｐｅｒ@@
ｐｏｓｉ@@
リグニン
ＬＥＸ
漬@@
夏型
匹
ｉｓｔ@@
一群
撞着
仰
不信
まっ@@
ギプス
夫々
ＭＨ
押@@
食用
基ず
脈@@
ＥＧＦＲ
ｄｔ
Ｍｎ@@
飼@@
解糖
アイ
体性
ダイズ
斬新
水俣
ブラン@@
セーフ@@
ガード
終
Ｔｈｅｒｍ@@
ｓｔｒｕｍｅｎｔｓ
直結
臨@@
ｍｅＶ
遅@@
シリン
ＬＦ
計@@
漆
ニー
起立
蜂@@
巣@@
静か
Ｒｅｓｏｎ@@
単価
ぴ@@
側頭
後頭
アタ@@
Ｍａｇｎｅｔ@@
十字
マシ@@
概述
巨
尊@@
厳
オプティカル
＃
ＦＡＣＳ
ＴＳＢ@@
ッド@@
ｌｉｎｅ
ＡＥＦ
勘
カオリナイト
観血
Ｂｒｉ@@
ｄｇ@@
突入
戦前
露地
庄@@
ＤＲ
データ@@
盲検
ＮＥＤ@@
ＣＡＰＤ
ＢＷＲ
アルミ@@
グルココルチコイド
丸
サファイ@@
エネ@@
リフ@@
ノミー
４０００
ボン@@
イソプロテレノール
クレアチン
ヘリコプ@@
搭乗
ルビン
ＭＹ@@
客
骨腫
早く
性差
除湿
被膜
Ｐｏｒｔ
隅
フロー@@
痕跡
多形
磁壁
ＬＡＳ
ｕｄｅ
単球
Ｃａｕｃｈｙ
イオ@@
荷@@
従属
帰@@
ジュール
暴@@
漢
ＰＲＲＳ
部会
佐
僧@@
帽
Ｃｅｎｔ@@
アルベド
ＲＯＳ
〈
〉
職場
上向
重み付け
ｍｕｌｔｉ@@
ｈｍ
ーフ
角@@
テックス
ＡＥＳ
ｔｉ
ＭＩＭＯ
ｕｃｌｅ@@
ＰＬＺＴ
中山間
鱗
ＬＢＬ
やさし
Ｋｅｒ@@
ｐｓ@@
Ｑｕ@@
減塩
ｇｅｒｙ
院
面談
ニック
Ｎｂ@@
Ｏ３
Ｅｉｎｓｔｅｉｎ
問合せ
鋸
骨組
美容
創部
抄@@
スパ@@
チャネリング
タイムリー
アクセプタ
Ｎｏｒ@@
ジス@@
シウム
ＭＭ@@
ｏｋ@@
カプ@@
ランス
おう
ＯＳＰＦ
藻@@
滴定
江@@
負圧
ビス@@
ｅｆｆ@@
立ち上げ
ナフ@@
イメー@@
ＦＡＮＣＡ
−@@
ショウ@@
セリ
リーブ
歴@@
般
水酸
ＮＬＣ
数理
渦巻き
ペーシング
空胞
湾曲
ＧＨ@@
想
検尿
ニコチン
職人
タワー
Ｐａｒｋｉｎｓｏｎ
週@@
優性
カロ@@
ｒｂ@@
射
ムシ
糸状
蝶
ホモロジー
ＨＭＭ
ホスト
税@@
収
ｓｃｒｅ@@
ｅｎｉｎｇ
手背
非晶質
ホ
仁@@
アンギ@@
ｏｎｉａ
ＳＺ
吐き@@
ＺＭＰ
ゥ
幻肢
派
レジン
索引
混和
嘗@@
ＮｉＰ
麦
ペレット
スポン@@
インタラ@@
型枠
衡@@
飛跡
スタブ
重畳
ｏｇｒａ@@
斜張
パーキンソン
浅@@
ｍｉｘ@@
ｇａｔｉｖｅ
絡@@
畑@@
客室
雌豚
交配
め@@
ナック
タノール
ＵＢＲ
鋼橋
ａｒｔａｎ
類縁
紙@@
幣
許
誘引
浦@@
モンテカル@@
アスファルト
門@@
与@@
ＯＣＴ
ｉｃｈｉａ
ａｌｂ@@
ｏｌａ
Ｒａ
靭性
不向き
恩@@
恵
沸@@
揺@@
プレーナ
タンデム
バッ@@
オートクレーブ
ラミン
オートメーション
減算
梯@@
打撃
吊@@
曹
ナノテクノロジー
ＮＰＰＶ
ｏｌｔｚ@@
ＰＤＴ
例@@
集塵
免許
アデノシン
Σ
ＰＳ@@
オフィ@@
ＡＣｈ@@
祖@@
加湿
ラオス
農民
沈み込
パレット
雌雄
平地
われ
リケ@@
左肺
１日
ＭＰＳ
榎
緩解
ＰＤＭ
Ｔｅ@@
，０００
ｍ２
フライ@@
ヒノキ
ＮＡＳＨ
エルニーニョ
詳述
苦
シーズ
レジ@@
髄@@
訳
Ｋｅｌｖｉｎ
ゲルマニウム
担持
ｆｅｒａ
当院
婦人
床版
窯@@
ｕｃｔ@@
非晶
リボ
成り立ち
ンドウ
ＳｉＯ
ターゼ
高張
Ｒｅ
ッチング
編成
踏@@
み出
綱@@
ジベ@@
レリン
塊根
インテリ@@
咽@@
喉
ＳＣＦ
プロスタグラン@@
落@@
コンプライアンス
樽@@
キャビ@@
尽
握@@
沼@@
焦電
Ｐｃ
腹圧
控@@
襲
事@@
湯@@
ＴＲＸ
肥@@
本症
クチ@@
カテゴリ
即応
ブチル
Ｆｒｅ@@
ｕｎｄ@@
山口
宇@@
感冒
迷
ィ
スカー
ｏｘｉｂ
ｖａｌ@@
ａｄａ
スキ@@
談@@
患肢
トリック
３１６
ソーダ
伝動
ｉｎｅｓｓ
京
アミノ@@
フレッシュ
ペンダ@@
り合い
トロン@@
エチン
イベ@@
標
ＱＦＤ
島根
呼応
全周
陽@@
最善
アンサンブル
家禽
建
フレア
トリウム
帽@@
晶@@
々@@
ＶＡＴＳ
ｅａｒ
彫
クロマチン
桑
誠@@
却@@
ライフ@@
ｃｏｎｔｒｏｌ
ＬＰＥ
芯@@
畳@@
切離
座@@
ｏｇｅｎｅｓｉｓ
Ｄｉｆｆｅｒｅｎｔｉａｌ
アンドロゲン
さら
意向
翻@@
ＭＥＳＦＥＴ
ラグ
オレ@@
イル
測@@
ダイナ@@
発破
ベーリング
ドプシン
ドレ@@
ＣＲＣ
頂@@
ｍｏ@@
青年
適度
上陸
スティ@@
濫@@
独創
アライメント
グリア
ＭＣＰ
ｅｒｔ@@
ＨＶＪ
サイク
ＯＤ@@
ヘリ
ｔｉｃａ
Ｒｏｃｋ@@
酸味
裁@@
はん痕
単収
マニ@@
隆@@
ｅｕｓ
照
ｓｅｌ@@
虚
宜
所在
もな
消退
起炎
聖@@
伐
芝
両国
妖@@
貌
麗
参@@
骨肉腫
人権
擁@@
護
ＴＩＯＮ
合せ
≒
ｒｅｅ
ワルファリン
ｆａｃｔｏｒ
廃材
ｋｉｎ@@
諌@@
まち@@
ｋｌ
ＮＦＴ
胃管
雨滴
飯@@
退
傷@@
ご@@
ＥＴＡ
格@@
自
Ｃｏｍｐｕｔ@@
界@@
窄
掌@@
スパイ@@
弾
ストレ@@
密@@
ＨＳＰ
Ａｌｆｖｅｎ
蛋
Ｂｏｓｅ
ＫＥＫ
ｄａ
花持ち
ロボ@@
ティックス
アクチュ@@
伸び率
線材
ファントム
デー
１７０
１３１
ｏｌｅ
豆@@
ゲニステイン
かく乱
開頭
兄
ＡＲＢ
徒手
標@@
ソナー
特急
汎@@
Ｔｏｌ@@
リポ@@
震@@
バインディング
覚
ｏｓ
Ｌｅｇｅｎｄｒｅ
ｅｃｋ@@
習熟
ｉｃｕｍ
″
カバ@@
糊
イソ
尺骨
ガー@@
サポニン
ＰＰＡＲ
ｈｙｄｒｏ@@
旭@@
ｇｎ@@
離陸
マッハ
ｒｐｍ
グラフィカル
骨遠
幹部
ｐｉｏｎ@@
ａｔｅ@@
浮揚
インプット
セッ@@
メトリック
コード@@
順応
臓
ＣＥＰ
御@@
マスタ
鋳
片側
試聴
サイレージ
至@@
吸音
索@@
ｏｗｅｒ
受注
膨潤
四角
電磁気
ャ@@
Ｓｐｉ@@
人的
シュート
イワ@@
サキ
ｉａｌ
ｈｙｂ@@
洗練
ファームウェア
メンバ@@
空乏
午@@
週末
臥@@
社内
Ｓｊ@@
ｒｅｎ
バリウム
遜@@
収め
滴下
放熱
寺@@
寅@@
彦
昇
減容
杭@@
エレベータ
なる
Ｐｒ
サン
ぺ@@
ｄｉｓｅａｓｅ
排尿
遺残
ＩＬＡＳ
自給
詰まり
術野
Ｅｘｃ@@
ｅｌｅｇ@@
純鉄
銚@@
宮@@
概算
スワ@@
インピ@@
ジメント
ミレニアム
アドホック
妃
晩@@
テッド
シナ@@
てん@@
ベンゾ
薯
ＳＥＥ
カセット
真理
肝外
カス
ＲＣＣ
庸
ｓｐｏｒｕｍ
植
転座
１９８２
天候
ＶＡＤ
ッパ
堪@@
恵まれ
沃@@
卵子
授@@
ＤＮ
熟成
枕@@
織布
Ｔｅｘ@@
いし
拾@@
水塊
アンジオテンシン
奉@@
仕
功@@
績
木幅
デス@@
ポ
続@@
ＭＵＳＩＣ
日米
体質
ｃｙｔ@@
卵管
拍動
シャドウ
上行
随伴
被災
テトラ
ｏｐ
島@@
泳@@
３０４
カナ@@
求@@
アクセント
義足
雑@@
穀
ＮＩＰ@@
気持ち
ノーゲン
ちつ
ぜ@@
被写
ＧＭＳ
ＬＶ@@
ｏ‐
ＳＬＰ
長波
札
荒@@
余り
黄だん
美
リケッチア
統括
ッサ@@
ーニング
体型
ＱＦＰ
脹
招@@
ＣＩＰ
ヒドロゲル
Ｄｒ@@
イミ@@
発色
ＴＧＦ
突破
博士
柔@@
インシュ@@
リング@@
たく
進@@
鰭
劇
オペレーティング
トリ
前野
警@@
鐘
ＴＡＲＣ
言@@
気づ
Ｍｅｃｋｅｌ
枠@@
偶@@
採血
承@@
ーマ
夫婦
減小
耐候
ベンゾジアゼピン
減弱
遮光
皮弁
黄
カテコール
患部
豊田
レドックス
簡略
ュータ
レオ@@
毒@@
ペニ@@
就労
ｎｅｕｍ@@
ＫＬ
リグ@@
託
黄砂
ムンプス
インベン@@
ろ材
胸腔
フェニル
守@@
匿@@
クローナル
化成
立坑
オブ
テラ@@
ＣＳＦ
症@@
Ｗｅｒｎｅｒ
高能率
酔@@
セレ@@
ＮＥＳ
悩
渡し
ＯＮ@@
桃@@
千
Ｌａｇｒａｎｇｅ
ａｎａｇ@@
交番
ムラ@@
警察
レシピ
還流
テラビット
貸
処@@
有線
乳剤
プロト@@
系@@
聴診
『
』
性分化
ボロン
古く
ヨ
ＩＧＦ
癒し
癒
溶鋼
苛@@
ＨＳＱ
コシ@@
ダーゼ
責@@
ａｍｙ@@
混乱
軟弱
令
デフォーカス
空冷
開け
紡
均@@
呼び@@
湿疹
改ざん
喪
Ｉｎｔｅｇｒａｔｅｄ
ｔｅｃｈ@@
Ｉｎｔｅｌｌｉｇｅｎｔ
ニム
云
かえ
臥
ｈａｂ@@
捉
ｐｏｓ@@
急@@
クオリティ
碍子
乱@@
ジラミ
緩慢
祥
不振
貨幣
膨満
フェン
食い@@
院@@
父
梢
クロー@@
ズド
整@@
個@@
座屈
Ａｕｇ@@
Ｖｉｒ@@
フッ化
％@@
水理
兼
紐
イソフ@@
ラボン
カスパーゼ
拭@@
くさび
ボス
羊
ｏＳ
シンボル
幕@@
歳@@
淡
鍛@@
錬
Ｊａｃｏｂ@@
大成
ＷＮＶ
たわみ
ｔｇ
カタラーゼ
先駆
蘇@@
我
新奇
サル@@
ｙｚａ
Ｊａｐ@@
共焦点
ＫＵ@@
モールド
予知
険@@
原案
先立
尤@@
ＳＢＳ
ＧＶ@@
メラーゼ
ディレ@@
ゲッタ
共変
蛾
恒温
頓
値@@
ｙｓｔ@@
ｒｉｇ@@
ｔｉｃｌｅ
ＤＸ@@
あら@@
下口唇
風圧
会陰
ＳＱ@@
ＳＰＥ@@
オリジ@@
ＰＢＭＣ
プレキャスト
ロータ@@
来@@
ｙｔ@@
軸流
粒層
多極
血尿
工期
Ｎｓ
Ｆｌｕｘ
シンチレータ
囲@@
万能
ＳＯＬ
エラスチン
ｖｉｒ@@
ｔｕａｌ
狙@@
ｍｄｘ
オニウム
帰
ｏｖ
面上
上越
歪@@
１２@@
閉じ@@
青果
埼@@
的@@
ノイ
グラファイト
財務
テキ@@
ッグ
げっ
ファン@@
寡@@
ＡＳＴ@@
読取り
ｍｔＤＮＡ
喜
アピール
コルチ@@
包埋
宿主@@
ｇｒａｎｕｌ@@
ｙｓｉｎ
ホス@@
湿
ドーズ
韻律
枯@@
サラ@@
ルス
岐
セミ@@
ケラチン
ファイリング
まえ
布@@
ｅｔｙ
ＲＴＡ
遮熱
鋭@@
偏心
多軸
ＴＦ@@
ロック@@
ウェル
ＥＤＴＡ
チニン
コンソ@@
耐雷
鉱業
頻拍
胞
教員
ＬＡＭＰ
再考
増生
水生
ＳＩＡ
ては@@
しえ
ニア@@
チーズ
グリシン
面体
パノ@@
ラマ
歯根
菌@@
銘@@
苦@@
敵
掲@@
供与
１４０００
ＢＵ@@
先生
波及
ＰＡＰ
ｓｉ
坐@@
叔@@
撤@@
揚
コウ@@
レイ
黄熱
消臭
ウール
ふく@@
尿@@
街路
ＶＯ
鳴
病歴
ボラン@@
アニオン
悔
脈
イミド
終局
絶滅
停@@
留
ウォ@@
軟@@
ａｐｙ
穏@@
リニア@@
ＧｅＶ
ＡＯ
オニン
ずら
ｏｌｉｃ
ティブ
キセ@@
ｅｗ
ラマン
ハイマー
風化
異形
遂
益
ヌ
ＳＣＡ
呑@@
やせ
ウェイ
ウィルス
本事例
＜@@
レイノルズ
シクロスポリン
ＢＣＡＡ
ＢＴＲ
ｕｘ
いに
帰属
主徴
再熱
ポル@@
ＣＮＶ
対側
奥@@
ケプ@@
刀@@
コイド
アスコルビン
ＫＣｌ
ｇａｐ
段@@
漕
合わさ
桂
ＰＳＫ
東西
肥
除草
踏圧
セロ@@
定格
レーザ@@
ラボ
風量
道筋
ヒスチジン
２４０
ジャパン
ｉｄｉ@@
奇数
Ｄｐｄ
マル
伝承
ＯＸ
検
多価
穴@@
ｎｉｑｕｅ
関@@
わり合い
ＸＡＦＳ
武器
Ｐｈｅ
閣@@
ヌクレ@@
スル
ＨＫ
浸炭
スティング
虹@@
彩@@
徹
甲
ｒａｔｅ
キシル
ノイラミ@@
栄@@
難燃
ＩＣＡ
倦@@
怠
息@@
採算
トレー
層厚
段差
ＩＰｖ
漫
含浸
およ
ＭＩＳ
ホート
ぬ@@
散漫
隙間
挿@@
１２３
直し
ラトン
俣
岩盤
編@@
強弱
ｉｎｏｓａ
かい@@
光束
訴@@
斯@@
パイ
ＤＦＲ
等式
ＬＭＩ
ネート
水量
｛
｝
砕
ルテ@@
県@@
偏り
らか
エナメル
ｋｅｒ
装
担@@
紫@@
星@@
ンプ
場@@
迷@@
Ｔｒａｎ@@
クモ
コナ@@
以
狩@@
餅
製油
キソ@@
８５０
Ｈｏ
棄@@
全光
オリン@@
智@@
高次元
戟
膜質
焦
マラ@@
チオン
テロメラーゼ
ゼイン
珠
ＱＥ
水様
ラビリティ
耐@@
ＩＧＴ
ｖｅｎｔｉｏｎ
ＰＣＰＳ
≦
ディスプレ@@
イス
ＩＭ
ものづくり
ポルトガル
藍@@
沈
増減
倉
径@@
Ｓｂ@@
レプトスピラ
成年
ｅｒｇ@@
ＡＣＣＰ
ＰＯＮ
ＳＣＥ
シスト
増設
クレチン
拓
ｐｒｉ@@
食後
２３８
ＵＨＦ
緩やか
―
メア
惑@@
併存
水害
堤防
栃@@
ポール
ベ
チベット
リオ
うけ
捺
複眼
パターニング
斗
誇
伸
Ａｒｃｈ@@
スク
ｐｒｉｍ@@
ボイス
聖
ベート
ネイル
ｉｅｎｅｒ
ａｉ@@
ｅｉ
隔
グレー
食性
動画
納得
ｏｖ‐
Ｏｎ@@
ラフト
ｏｇｒａｐｈｙ
統@@
ストラン
果@@
汁
ＳＳＬ
コルチコイド
ｋｉｎｇ
マニプレータ
或@@
ぜん
暑
業@@
マティック
ッシング
甚@@
要項
ａｓｓ
なり
ｅｔｔ
メルト
ＯＤＡ
飛び@@
揺動
水熱
アジュバント
光路
くも膜
腸炎
スロ@@
ＤＣＦ
コモン
ダクタ
舵
アイテム
国内外
探傷
割引
砂岩
フル@@
プラン@@
きゅう
足場
抜管
捨
アオ@@
スタイ@@
Ｌａｐｌ@@
ＢＴＥ@@
団@@
ＭＰＥＧ
ＭＥＤ@@
曳@@
朝鮮
ＨＡＰ
１１００
つなげ
架
堀@@
バイナ@@
居@@
凝
１５５
ｅｃｈｏ
エバネ@@
ッセ@@
インジェ@@
メダカ
ｙｚ@@
ノニル
胸壁
キサン
措
ゾウムシ
ヘア@@
溝@@
テン@@
穿@@
系譜
相模@@
トイ@@
アンス
渋
なえ
横型
ｈｅｉｍ@@
散発
プロセ@@
スチャ
究@@
ｌｄ
樹冠
Ｌａｍｂ
機上
トライアル
浴び
轟
リアク@@
ｅｓｉｓ
採鉱
抱@@
強め
衣
アミロイドーシス
取込み
正中
免れ
不定
ＳｉＯｘ
煙@@
絡み@@
異性
域@@
ｋｅｌ
ＤＨＡ
ＭＭＩＣ
胆石
ｄｅｎ@@
奪
けい骨
掃除
自我
逃避
スポー@@
ウェア
ドミ@@
Ｔｏｔａｌ
ＯＣＩ@@
臼
完結
キャリヤ
旅
焦@@
眉
全圧
一気
フット
把
こみ
引起
海図
測地
Ｐｔ／
ＩＳＡ
すぐれ
ぱ@@
ジェネレータ
汁@@
エレ@@
ベーター
配偶
運航
３７@@
ノーベル
ＡＵ
あい@@
昧
ＣＴＲ
ＡＩＰ
ｆｌｕ@@
ｐｒｏｔｅｉｎ
中旬
下旬
造設
過誤
カッ@@
ＲＮ
固執
雨水
底泥
外皮
ザーバ
マニピュ@@
Ｒｕｔｈｅｒｆｏｒｄ
履行
ＶＸ
停電
臨時
モヤモヤ
播@@
ＵＩＰ
崩@@
不可@@
避
ロイ
仁
馬力
Ｓｅ／
ｈｋｌ
幼@@
Ａ．@@
悲@@
Ｔｅｃｈ@@
ｏｌｏｇｉｅｓ
心地
新線
実生
萌@@
エクリン
ｄｉｏ
セシウム
プラ
乗数
ｕｎｔ
講@@
押し
落ち
裡
通院
誘
カイン
連系
発掘
しき@@
ラフネス
セルラ
辿
兆
ＦＷＭ
公立
ルギ
定ま
樹体
委@@
ＳＣＯ
周術
ａｃ
阪神
頻脈
ＮＳ@@
救@@
代行
だれ
ＧＴＰ
総計
燃@@
巴
アデ@@
両下腿
仮性
トレン@@
放物
最強
瀕
取り引き
φ@@
喫@@
ンドル
奈@@
フィック
照査
ーティング
著@@
本社
止@@
三陸
Ｃｏｍｐｔｏｎ
ｂｏ@@
明細
Ｂａｃ@@
ハーフ
樽
筋腫
ラーゼ
廉@@
ｐｄ
朽
ｙ‐
頚@@
乗せ
バリン
ＣＭ@@
傘@@
育児
麺
Ｈａｒｔｒｅｅ
券@@
丹@@
スペック
季@@
肋
ＧＷ
ブレード
後縁
ヘパ@@
小数
右肩
隔@@
耐力
コーディネーター
兼@@
管制
ニトロ@@
熟知
貯@@
ダイバータ
消し
ＢＲＳ
μ
材@@
魚種
官@@
伏@@
ＤＨＥ@@
ＡＧＶ@@
豪@@
ペナル@@
プライシング
ＡＮＰ
遊泳
ｅ‐@@
平準
叱@@
責
Ｖｉｃｋｅｒｓ
ＢＮ@@
マイズ
霞
通勤
繊毛
小核
堅牢
疾@@
ょう@@
左葉
助@@
冷風
届
リゾチーム
市街
キロ
エディ@@
妙
ｎｅｒ@@
雑
善@@
明治
導き出
パーキン@@
秤
刈
図れ
年月
ムアルデヒド
脱皮
芝@@
乾
強膜
満
ｈｉｄ@@
高年
ＰＱ
キャスト
黙
カフェ@@
療
著減
ｙｍｐｈ@@
ｍａｃ@@
締め
ＢＡＣ
メラ
マメ
上旬
冒@@
険
鰻@@
チド
浸@@
おこ
伸側
ＸＥ
潰@@
塞@@
アランス
著
牛舎
アトラ@@
刷@@
ｏｐｕｓ
製紙
外反
倒
ＵＩＣＣ
ａｓｉ@@
ホスピ@@
序
メソ
骨シンチグラフィ
窟
挑
Ａｄｖ@@
縮尺
掘
おそらく
両手
ポスター
里@@
粗しょう
平野
虚数
ＡＳＭＥ
漁
折@@
ムレス
ｓｃｏｐ@@
畝@@
Ａｓｉ@@
灯@@
闘@@
トランザクション
ＳＯＣＳ
サプライ@@
アスペ@@
ルギ@@
ｓｏｎ@@
圧密
公正
交尾
添
Ｓｈａｎｎｏｎ
らせ
霧化
シェーグレン
多色
ｓ‐@@
Ｃｈｌ@@
ＲＣＡ
逆転写
替@@
コスタ@@
リカ
シイタケ
高湿
ａｃｋ@@
乗員
鞭@@
英@@
査
グラフィ@@
火花
伽@@
羅
ｇｒａｄｅ
概
リジン
１１２
スルー@@
低域
防汚
ファセット
陶
ャ
滞留
ずっと
ッ
刈@@
おう@@
シャフト
モチ@@
羊@@
柏
己
浜@@
架@@
ずみ
ｉｃａｔｉｏｎ
ニー@@
ＥＬＤ
正準
スメ@@
酷@@
早生
草原
サツ@@
，パッシブ
ｇｅｓ@@
恐@@
竜
らえ
逃
Ｐａｎ@@
出品
ーラ
償@@
点状
ＩＤＵＳ
六@@
慶@@
湘@@
立木
揮
藍
函
ソーシング
プリ
ｄｘ
避雷
ＦＷＨＭ
ＲＬ
ぢ
くぼみ
ＣＭＡ
狂
ァ@@
乗り
恐らく
Ψ
Ｅ‐
和歌@@
Ｆｏｃｋ
庄
鴬@@
ＮＨＫ
ｕｓｈｉｎｇ
ｏｎｄｕｃｔｏｒ
郵@@
曜
耐水
羽毛
ホー@@
受講
含水
練@@
り上げ
志
縄@@
裸
脱塩
外れ
ポジット
エピタ@@
耕@@
コーディネート
住戸
黙@@
トマ@@
カッター
レンダリング
アッセン@@
訳@@
ファミ@@
ダリング
支点
Ａｐｐｌｉｃａｔｉｏｎ
苦しみ
オーバー@@
ＶＬＢＩ
シネ@@
防衛
峠
迂@@
ＭＡＳ
鷹
壌@@
シアル
ダー@@
Ｈｏｐｆ
ＯＡＳ
Ａｒａ@@
Ｖａｌ@@
リシス
スキーマ
浴槽
薦
抑@@
ンジ@@
セプ@@
率@@
メンバ
筋電
脳室
セラミド
撮
カタ@@
群馬
渓@@
燐@@
アレ@@
ＩｎＧａＡｓＰ
ｂｒａｎ@@
寧@@
窯
捨@@
テクター
受検
営@@
Ｈｏｄｇ@@
マニュ@@
ＭＦＣ
ぽ
ｖｏ
写@@
日内
業種
ミルク
ｃｗ
ドロ@@
留@@
凧
同居
挙
水洗
ＴＴ@@
旧@@
ステン@@
パイオ@@
‐Ｗ@@
ーゲン
琉球
依
スプリ@@
添@@
先取り
内挿
ＤＯＡ
クリン
同国
ヘ
ブレーン
製膜
ビリルビン
渠
ＨＢＴ
Ｔｒａｎｓｐｏｒｔ
操@@
締@@
候
蒼@@
嵩
Ｅｗ@@
律@@
巻@@
シノ@@
Ｎｏ
ルト@@
病像
フォールト
鮎
寿@@
奥
スレ@@
直感
モンモリロナイト
労@@
きめ@@
甑@@
バラ@@
鯨
焼入れ
ゲ
配
ｓｉａｎ
水源
老朽
結さつ
エキシ@@
癌@@
アルカン
ペンタ@@
ＨＵ@@
均
話@@
レプリ@@
プー@@
鼻閉
ｉｔｈ@@
胸水
沃
漫@@
然
下地層
Ｒａｍ@@
１５@@
庭@@
条@@
探@@
為@@
とく@@
乾物
較@@
裾@@
なだれ
タル@@
装用
キッド
取水
申告
ユビ
議会
ロース
思@@
猛@@
烈
帳
トニン
鳩@@
ＴＰＯ
なら@@
イム@@
争@@
国々
考
アドレ@@
ｎｅｃ@@
タジン
痢
ビリ@@
垢
薬事
評
うつ
髄
不思@@
デッキ
ノー
テクノ
託@@
臨場
吹@@
ヌス
蓋@@
横径
カーテン
サウンド
塚
ｅａｎ
挽@@
輪作
ケーソン
マニピュレータ
ーゼル
郷
宏
郷@@
融
枠内
ｔｒａｎ@@
コンド@@
燃え
涙@@
猟
増体
ＳｉＧｅ
ンダ@@
上手
ＰＳＤ
ＤＳＭ
トランスジェ@@
拳
ｄｅｎ
オンチップ
自励
縄
炊@@
Ｆｉｘ@@
架設
互@@
タゾン
ν@@
クティブ
塵@@
ＢＰ@@
ューム
フタ@@
盲@@
ジオ@@
掴
ＩＭＤ
小切開
変わり
秘@@
ｎｏｖ
誘@@
セクター
ケート
ゲノ@@
ミック
ｎｅｓ
刀
Ｓｍａ@@
ブルー@@
ｓｐ
心嚢
アイソレーション
趨
Ｖｐ@@
クトン
スフィンゴ
余裕
〔
〕
アポ
剥@@
協
Ｆａｒ@@
ファー@@
ジド
切換え
イスラ@@
茎@@
有向
笑@@
擬@@
遥@@
グルコ@@
臼歯
振子
木酢
維
報@@
麺@@
依@@
存@@
ヒストン
ＢｒｄＵ
ｄＵ
ダク@@
シアン
トクローム
尺
ＳＭＣ
ユビキ@@
項@@
崖@@
ＩＥＡ
テザー
児島
拓@@
ネガ@@
２１００
ソル
ＭＡＧ@@
Ｆａｒａｄ@@
問@@
冊
Ｌａｎｇｍｕ@@
靭帯
銭
ＰＭＯＳ
トロイダル
使@@
寝@@
ｊ
ミナル
ュー@@
韓
ＤＰＩ
酪@@
インタラク@@
消散
憲@@
職@@
Ｓｙｍ@@
光量
ラミ
複素数
薬効
シーバ
ベイ@@
□
燥
Ｍｂｉｔ／ｓ
記@@
覆@@
キル
債@@
コーダ
フィル
堅
重積
震度
糊@@
伸@@
ぜ
ヘリ@@
畳
残胃
高安
ポーラ@@
アセトニトリル
ローズ
セミ
ＳＪ@@
ゲフィ@@
チニブ
衛
ＺＦ
ＯＤ
ハイパー
蹄@@
１４４
インゴット
ｃｌｉｎｉｃａｌ
殊@@
営農
なん
予
収入
合わ@@
せ持
失@@
吐
蒸
当然
ｔｒａｎｓ@@
眼振
ＫＥ
楠@@
南海
営
庇@@
ａｃｋ
サイクリック
支承
ブス
培@@
兎
ＢＡＬ
り下げ
ビオ@@
ネズ@@
怪@@
痔核
競
イエ@@
打
キャノピー
アセトアミノフェン
改@@
泊
２Ｏ３
数百
ボーン
択@@
ドッ@@
底質
水管
英
掻@@
医家
ＦＩＢ
Ａｓｓｏｃｉ@@
如@@
ＩＳＴ
Φ
アシ@@
ｅａｓｅ
ソフ@@
ストラクチャー
Ｆａｓ
ブッシュ
恒@@
ンネル
斉@@
社外
ＤＱ
ＨＳＶ
絡み合
Ｍａｔｅｒｉ@@
ｙｎａｍｉｃ
肩甲@@
怠@@
ＥＦＴ
デル@@
ｏｎｉ
滞@@
枯
汚損
月齢
ドン
へん@@
ｙｌｏｒｉ
たば@@
相応
拠
ＰＤＦ
オクタン
経日
連れ
対角
グアニ@@
納@@
ホロ@@
ｅｃｈａｎ@@
既
荻@@
ベイ
減法
躯体
渦糸
Ｄａ
アルデヒド
ダイアグラム
ａｃｋｇｒｏ@@
ぜん@@
棲
ＧａＡｓＮ@@
隠@@
仰@@
衆@@
議@@
農林
ブリング
熟@@
ポータ@@
租@@
Ｐｏｒ@@
俵
磯@@
玩@@
参
レル
貫流
カスタ@@
アンジ@@
超@@
搬@@
阻@@
粒@@
履@@
Ｆｉｓ@@
ＢＳＰ
ｂｌｅ@@
ＡＭＳ
ＴＯＰ
ニトリル
戴
伐@@
ｄｔｌ
ガラクトース
アルドステロン
ｐｓｅｕｄ@@
動植物
附
之@@
ＷＯＲ@@
樟
プレッ@@
すい液
射@@
レンス
インテリジェンス
復興
速@@
罪@@
誇@@
エンジ@@
アクリ@@
願@@
ＬＤＡ
併@@
賀
目地
摘@@
ブリン
頭頂部
≧
オオムギ
変色
八
和物
ｏｌｏｇ@@
ウロ@@
こり
オク@@
庁@@
内陸
ｃｈａ@@
ラント
ｉｃｈ
らべ
ｐｎｅｕｍ@@
≪
林@@
柔
ａｎｎ
納
瞬@@
ッシブ
麹@@
描@@
ナイト
トフォ@@
コンテク@@
ξ
ｓｙ@@
愉@@
タク@@
棒状
ＰＡＴ
トロイド
Ｈａｐ@@
廊
Ｉｎｔ@@
Ｇａｕｓ@@
せつ
ｒａｔｅｄ
惨
シス@@
リミ@@
牧場
遡@@
銘
堺
好発
ニューギニア
盆地
熊@@
転院
遺跡
劇@@
ｎｉｆ@@
脂@@
ＡＺ@@
グロー@@
ＶＲ@@
Ｐｒｏｃｅｓｓ
継目
せ@@
統
【
】
拘@@
酪
ナル@@
玩
ＭＪＤ
嶋
維@@
払@@
柏@@
ＢＵＮ
竪
ｂｐｓ
シル
袋@@
サイトカ@@
イニン
クトリー
ＩＶＡ
坑
リス@@
ーデン
埠@@
アクチ@@
往@@
オキシ
オレキシン
鏡視
受託
繰@@
動径
団地
ＣＬＣ
須賀
米@@
ほ
ＬＰＣ
ｍＡｈ／@@
援@@
油漏れ
歯面
ＸＳ
梢@@
トウ@@
抵
もと@@
枢@@
聾@@
唖
柑@@
橘
彩
ナビ
ｓｔｒｕｍ@@
ブロイラー
しく@@
法案
スルホニル
ＶＤＲ
ョ
Ｓｔａｎｄａｒｄ
ルー
ＩＩＲ
錘
Ｃｒｏ@@
遺
際@@
ｃａｌ
マチック
原研
イントラ@@
ＨＤＰ
オピオ@@
ｅｒｏ
１３００
剣@@
鎌@@
失行
騒@@
コシ
ｎａｉｌ
ＯＴＤＭ
ｅｒｙ
娩@@
ＣＯＳ@@
水頭
ベア@@
雛
ｉｇｅｎｔ
ｓｐｏｒ@@
ｔａｔｉｏｎ
趨@@
ＧＥＲ@@
凶@@
ＥＡＮ
戒
銑
うっ@@
滞
ザード
ａｎ‐
ｑｕｅｎｃｙ
混練
トロンビン
ダン
ＨＡＡＲＴ
淘汰
∞
鉢@@
ジアミン
小胞
イガイ
ＬＦＴ
Ｊｏｓ@@
宛
トーラス
たわ@@
幌
って
フィー
ハミ@@
メガネ
コンベ@@
ティカル
神
見積もり
ポジション
オス
ＥＳＳ
ェ@@
トロニクス
低位
ほう@@
キシド
鹿@@
禽
完
ステロール
萎
脱力
トンネリング
ＥＤＳ
ρ@@
ω@@
桟@@
酷
術@@
九
閣
姑@@
賄@@
Ｐａｕｌ@@
コミュ@@
販@@
キニン
ソーラ
カーゼ
削@@
録
煉@@
瓦
カンデ
名詞
釣
撲
稼@@
ｂｉｄ@@
用地
木曽
混ぜ
妻
ファ
ゾ
トピー
鏡@@
ＥＦ@@
実数
プラズ@@
並@@
卵胞
キャパシ@@
狩
重ね@@
ＰＥＣ
ＰＴＢＤ
元来
刷
ＳＥＭＩ
忘@@
スタンプ
ロガー
トランスポート
ブラウ@@
ンタ@@
謎
盤@@
ＸＶＬ
仲@@
螺@@
登校
ＭＳＲ
外資
ＳＰＦ
在@@
フィラ@@
桂@@
いか@@
棒@@
Ｂｌｕ@@
‐ｒａｙ
励
プログラ@@
チー@@
夕@@
Ｈｏｐ@@
丈@@
始@@
ｚｕｍ@@
轄
ゆる
エスカ@@
タント
Ｐｓ
墨@@
役@@
繊
婦@@
伺@@
犯
ゼオ@@
もり
ホロー
インフォームド
消毒@@
リス
セール
警
ポジ@@
忘れ
Ｈｉｇ@@
永@@
ｏｒｉ@@
等級
ポリポーシス
炊
煮
尚
免@@
サート
ーシップ
盗@@
しみ
祈@@
崇@@
拝
徳
Ｇｉｂｂ@@
ネフロン
砥粒
益@@
沫
アベイ@@
鬼@@
譲@@
ぱ
告@@
匿
芽@@
蔽
ａｐｌ@@
リモ@@
ゃ
ニカル
植え@@
ＬＦＥ
ＭＥＬＡＳ
砕石
ｅｂｅｃｋ
腺@@
ツキ
玄
受療
ルコ@@
おお@@
エンベ@@
まか
炭そ
揚程
クレー@@
シデ@@
奨@@
ポリポー@@
人事
遭@@
偶
＝@@
征@@
煤@@
嚢@@
ｆｏｒｍａｔｉｏｎ
ＫＳ
紀
軍
晩
チョウ
リハ@@
釧路
アパ@@
補填
グリセ@@
リブ@@
姫@@
診@@
湧@@
ｏｏｔｈ
シフ@@
貯
甘@@
ガイド@@
堰
激@@
ステリック
出来@@
介@@
勧@@
薩
阪
濁
虻@@
麓
剤@@
宝@@
境@@
痕@@
靭
加療
看
遮
遮@@
捜
ハイブリ@@
酢
騨
イヤー
フィリ@@
虞
Ｄｉｆｆ@@
渡@@
侵@@
潤
奄@@
フェー@@
８０００
出入
蟻@@
錫
審@@
グローブ
龍@@
タクロリムス
罫@@
Ｈｙｐｅｒ@@
ＤＥＳ
セキュ@@
けん@@
艇
ブラフィッシュ
ｍＴ
拡
集学
泥
頁@@
ＲＨＡ
ート@@
ぅ
有明
坐
っかり
灘
フュー@@
逸@@
おこ@@
靴@@
諭
読み
加振
Ｄｉｇ@@
請@@
腎性
Ｂｅｔｈ@@
瀬@@
ピリ@@
伸び@@
蝦
弓@@
クロマト@@
儀
机
象
壮@@
衝
メキシ@@
レチン
路上
遡
興
梗@@
ミツ@@
びれ
ｕｌｔ
フルオ@@
這
獲
櫛@@
：@@
蛍
サビリティ
譜
詞
栄
捜@@
茨@@
ーレン
飴
Ａｐｐｌ@@
於
輩
日独
罪
免
プログラマ@@
わせ
アイド@@
いっ@@
ぽ@@
ｆｒｅｅ
性徴
ムン@@
碁@@
Ｐｏｉｓ@@
ｉｌｌｅ
胞@@
将@@
掃@@
堀
批@@
准
功
γ@@
エピネ@@
両性
麹
仙@@
阻
皿
躍
かぶり
幾@@
ＢＩＳ
駐@@
コックス
こう@@
菱
甘
屈@@
眺@@
郎@@
欄
尻
廻
久
講じ
寄
成り@@
痴@@
錬@@
ｖｉｒｕｓ
カレン@@
Ｌｙａｐｕｎ@@
ウント
坂
縛
ＷＲ
ビス
ホウ@@
曾@@
エス
ムス
森@@
杉@@
Ｉｇ@@
ｒａｌ@@
ブリック
ぞ@@
ビデ@@
七@@
カテゴ@@
玖@@
留め
福
宅
プラスチ@@
ニーニ@@
ダチョウ
休
疎@@
効能
ＴＮ@@
セプト
ポン@@
ダプ@@
ジタル
滋賀
衡
かび@@
嶺@@
川内
訣
領@@
鶏@@
ｋｉｉ
ｅｃｋｅｌ
厳@@
パンジー
峠@@
ドウ
Ｌａｇ@@
ｖｅｎ
ＭＥＳ@@
ｍｏｄｅ
翌
スタンダ@@
圃
ミト@@
ゅ@@
剃@@
停
ｈｅｍ@@
害@@
ｆａｃｔ@@
マーケ@@
潔
梯
援
ＶＣＳＥＬ
Ｓｅｒｖ@@
勤@@
レセプ@@
んな
属@@
古紙
ユニバー@@
ファシリ@@
Ｆｏｒｃｅ
房@@
菜@@
廻@@
フォトクロミ@@
ａｌ‐
セメン@@
ざ@@
併
チニ@@
ペロ@@
キン@@
ウインド@@
港@@
吊
透
盛
危@@
挿
Ｋｌｏ@@
デザ@@
路@@
萩@@
逐@@
伯@@
ｏｆｔ
働@@
継
鍛
支障
奉
填
絢
窪@@
９５０
患
ＵＦＴ
ｈｉｄａｋ@@
附@@
タス
ジルコ@@
Ｃｏｍｍｕｎ@@
捺@@
圏@@
マリン
っか@@
ネシア
Γ
￣@@
ＨＲＲ
察@@
秀@@
鞘腫
位@@
ｍｅｄｉａ
ユ
グルタ@@
＄
ｔａｎ
蘇
ランタ@@
跡@@
吻
女@@
ＨＯＰ
禁
王
拒@@
ＡＥＲＩ
Ｃｚ@@
ｒａｌｓｋｉ
リガ@@
吠@@
スペクト@@
沿@@
獅@@
ポートフォリオ
パイン
カレ@@
抽@@
エポ@@
フォトリ@@
Ｉｎｔｅｒｖｅｎｔｉｏｎ
簡@@
ＳＰＩ
預@@
敗
距@@
膿@@
致
スル@@
菓@@
ｓｐｏｒｔ
｜
得@@
ｅｓｓｅｌ
プシー
蛭
甜@@
ナビ@@
け出
ｈｅｒ
芥
柳@@
雫@@
抵@@
ーダル
摺
蝶@@
媒
セー@@
せん@@
ａｒｉｕｍ
唐
暴
ジギ@@
鞍@@
卿
席@@
ジュー@@
迎@@
Ｊｏｈ@@
ピエ@@
輸@@
鎮@@
慎
イラー
フラク@@
抹@@
眠@@
突
跨
ε@@
キル@@
ｅｎｔｏｒ
イモ
グレーション
がけ
ガー
テライト
ハロ@@
ッケル
ニク@@
蹴@@
桐@@
プレッサ
叱
ガイ
繋
ＥＲＩ
耶@@
彦@@
ドミル
トピ@@
ｋｉｎｓｏｎ
撚
梅
芳@@
蝋@@
ファイト
←
稔@@
束@@
阪@@
葛
掩@@
稚@@
窮@@
戚
アセト@@
はじ@@
Ａｈ／@@
宝
フィル@@
妄@@
ハウ@@
鐘@@
淵
浅層
戯
霧@@
岸@@
菱@@
舟@@
準@@
宛@@
箔@@
ｈｅｉｍｅｒ
殻@@
瑞@@
尚@@
此@@
歌@@
伎
踊
システ@@
卒
欲
ゝ
錨
ビリン
レオ
込@@
ｔｅｒｎ
ｒａｃ
ｙｌｏ@@
オテン@@
ｌｓ
スケット
アメリ@@
繭
君@@
硫@@
想@@
Λ@@
リウマ@@
とど@@
ょく
椋@@
梨
縫
掛@@
Δ@@
辺@@
アクセプ@@
クトース
干
ロッパ
盗
乏
まと@@
墜@@
ｏｕｂｌｅ
汐@@
蝕
竪@@
件@@
窒@@
貰
寮
晶質
午
レニ@@
ＧＡＢ@@
忙@@
オオ@@
バコ
設@@
露
景
裕@@
樺
杉
髪@@
菊@@
ジストロ@@
罰@@
樺@@
湖@@
閑
塾
うつ@@
灼@@
ｅｌｌｉｇｅｎｔ
聾
済@@
否@@
スルホ@@
摂@@
ａｐｕｎ@@
Ｐｒｏｐｉｏｎ@@
；@@
ｇｉｎｅ@@
ＮＰｓ
勿@@
旬@@
コーディ@@
旗@@
舗@@
撒@@
紫
汽@@
ひび@@
シアニン
錐
十二@@
暇
オウ
閥
溜
拙@@
ＧａＩｎ@@
蓄@@
男@@
爵
曾
揖@@
斐@@
習@@
蔵@@
務@@
枇@@
杷@@
績@@
椀
笹@@
ースト
ぺ
棋
すき@@
ＵＳＡ@@
ハイドロ@@
ｇｒａｎ@@
杜@@
モリ@@
苑
ーシス
Ｐｅｉ@@
ネント
州@@
珊@@
瑚
委
杯
ブラシ@@
Ｊｏｎ@@
廉
ｏｄｇ@@
洛@@
垣
曙
シンポ@@
捻
σ@@
笛@@
レージ
インタフェ@@
フィン@@
壷@@
香
タング@@
栓@@
粥@@
糧
慰@@
兵@@
殿@@
獄@@
拠@@
牟@@
碓@@
塞
妥@@
Ｍａｘ@@
潜
剥
鳳
プリメント
ゼン@@
槌@@
ピート
ｐｌｅｒ
インフォー@@
ジェンス
家@@
贈
情@@
イタ@@
Χ
Ｓｔａｎｄ@@
ポエチン
スポリン
アント@@
富@@
護@@
費@@
ｉｇｈ
希@@
ストリン
アスファ@@
ｇｓ
けい@@
√
逓
奇@@
ｐｌａｎ@@
請
モロコシ
署
鷲
ライプ
℃@@
フリン
隊@@
滋@@
衣@@
廊@@
ヂ@@
ニアリング
コンピュー@@
柿
カスケ@@
笠
病原@@
キャン@@
奨
屑@@
プロセッ@@
ラグランジ@@
渇@@
朋@@
ミル@@
邪@@
魔
ａａｌｓ
ｗｏｒｋ
ども
妄
プライン
窪
烈@@
カオ@@
景@@
セパ@@
称@@
ｕｌｅｒ
之
薩@@
綜@@
洲@@
ァ
岐@@
惹
紗@@
ハイド@@
脅@@
旗
亡@@
サルコ@@
吟@@
醸
須
倶@@
めて
アミロ@@
扇@@
遂@@
ｙｌｅ@@
疲@@
弊
酔
トカ@@
窃@@
獣@@
Ｂｒｕｇ@@
アレル@@
ｓｉｅｌｌａ
∝
コンテン@@
デリバ@@
豪
スクラ@@
覇@@
痔@@
宍@@
逢@@
θ@@
ドキュ@@
もの@@
竿
穂@@
鱗@@
孫@@
ウェー@@
ｄｔ@@
Ｊａｃ@@
普
還@@
旭
≦@@
異体
字@@
幕
碍@@
詳
ｊａｐ@@
デヒドロ@@
アンドロ@@
セラ
唯
ＳＱ
拾
展@@
ボリック
由
梗
オキシコール
競@@
踊@@
Ａｂ
禄
赴@@
服@@
寸@@
ズン
プト@@
提@@
佃@@
皇
礼
協@@
カンジ@@
識@@
コントラ@@
就
呉
唄
艦
紡@@
ｌｏｒｉｄｅ
爺
ＲＮＡ@@
鮭
猫@@
屯@@
梨@@
ニコ@@
這@@
サファイア@@
牙
箸
オブ@@
寂
題@@
猪
殖
スタミン
デザイ@@
墳
＊@@
アーキ@@
炎@@
撃@@
狂@@
澱
コンソーシ@@
